{
  "version": "1.0",
  "truncation": null,
  "padding": null,
  "added_tokens": [
    {
      "id": 0,
      "content": "<pad>",
      "single_word": false,
      "lstrip": false,
      "rstrip": false,
      "normalized": false,
      "special": true
    },
    {
      "id": 1,
      "content": "<unk>",
      "single_word": false,
      "lstrip": false,
      "rstrip": false,
      "normalized": false,
      "special": true
    },
    {
      "id": 2,
      "content": "<bos>",
      "single_word": false,
      "lstrip": false,
      "rstrip": false,
      "normalized": false,
      "special": true
    },
    {
      "id": 3,
      "content": "<eos>",
      "single_word": false,
      "lstrip": false,
      "rstrip": false,
      "normalized": false,
      "special": true
    }
  ],
  "normalizer": null,
  "pre_tokenizer": null,
  "post_processor": null,
  "decoder": {
    "type": "Fuse"
  },
  "model": {
    "type": "BPE",
    "dropout": null,
    "unk_token": "<unk>",
    "continuing_subword_prefix": null,
    "end_of_word_suffix": null,
    "fuse_unk": false,
    "byte_fallback": false,
    "ignore_merges": false,
    "vocab": {
      "<pad>": 0,
      "<unk>": 1,
      "<bos>": 2,
      "<eos>": 3,
      "!": 4,
      "\"": 5,
      "#": 6,
      "$": 7,
      "%": 8,
      "&": 9,
      "'": 10,
      "(": 11,
      ")": 12,
      "*": 13,
      "+": 14,
      ",": 15,
      "-": 16,
      ".": 17,
      "/": 18,
      "0": 19,
      "1": 20,
      "2": 21,
      "3": 22,
      "4": 23,
      "5": 24,
      "6": 25,
      "7": 26,
      "8": 27,
      "9": 28,
      ":": 29,
      ";": 30,
      "<": 31,
      "=": 32,
      ">": 33,
      "?": 34,
      "@": 35,
      "A": 36,
      "B": 37,
      "C": 38,
      "D": 39,
      "E": 40,
      "F": 41,
      "G": 42,
      "H": 43,
      "I": 44,
      "J": 45,
      "K": 46,
      "L": 47,
      "M": 48,
      "N": 49,
      "O": 50,
      "P": 51,
      "Q": 52,
      "R": 53,
      "S": 54,
      "T": 55,
      "U": 56,
      "V": 57,
      "W": 58,
      "X": 59,
      "Y": 60,
      "Z": 61,
      "[": 62,
      "\\": 63,
      "]": 64,
      "^": 65,
      "_": 66,
      "`": 67,
      "a": 68,
      "b": 69,
      "c": 70,
      "d": 71,
      "e": 72,
      "f": 73,
      "g": 74,
      "h": 75,
      "i": 76,
      "j": 77,
      "k": 78,
      "l": 79,
      "m": 80,
      "n": 81,
      "o": 82,
      "p": 83,
      "q": 84,
      "r": 85,
      "s": 86,
      "t": 87,
      "u": 88,
      "v": 89,
      "w": 90,
      "x": 91,
      "y": 92,
      "z": 93,
      "{": 94,
      "|": 95,
      "}": 96,
      "~": 97,
      "¡": 98,
      "¢": 99,
      "£": 100,
      "¤": 101,
      "¥": 102,
      "¦": 103,
      "§": 104,
      "¨": 105,
      "©": 106,
      "ª": 107,
      "«": 108,
      "¬": 109,
      "®": 110,
      "¯": 111,
      "°": 112,
      "±": 113,
      "²": 114,
      "³": 115,
      "´": 116,
      "µ": 117,
      "¶": 118,
      "·": 119,
      "¸": 120,
      "¹": 121,
      "º": 122,
      "»": 123,
      "¼": 124,
      "½": 125,
      "¾": 126,
      "¿": 127,
      "À": 128,
      "Á": 129,
      "Â": 130,
      "Ã": 131,
      "Ä": 132,
      "Å": 133,
      "Æ": 134,
      "Ç": 135,
      "È": 136,
      "É": 137,
      "Ê": 138,
      "Ë": 139,
      "Ì": 140,
      "Í": 141,
      "Î": 142,
      "Ï": 143,
      "Ð": 144,
      "Ñ": 145,
      "Ò": 146,
      "Ó": 147,
      "Ô": 148,
      "Õ": 149,
      "Ö": 150,
      "×": 151,
      "Ø": 152,
      "Ù": 153,
      "Ú": 154,
      "Û": 155,
      "Ü": 156,
      "Ý": 157,
      "Þ": 158,
      "ß": 159,
      "à": 160,
      "á": 161,
      "â": 162,
      "ã": 163,
      "ä": 164,
      "å": 165,
      "æ": 166,
      "ç": 167,
      "è": 168,
      "é": 169,
      "ê": 170,
      "ë": 171,
      "ì": 172,
      "í": 173,
      "î": 174,
      "ï": 175,
      "ð": 176,
      "ñ": 177,
      "ò": 178,
      "ó": 179,
      "ô": 180,
      "õ": 181,
      "ö": 182,
      "÷": 183,
      "ø": 184,
      "ù": 185,
      "ú": 186,
      "û": 187,
      "ü": 188,
      "ý": 189,
      "þ": 190,
      "ÿ": 191,
      "Ā": 192,
      "ā": 193,
      "Ă": 194,
      "ă": 195,
      "Ą": 196,
      "ą": 197,
      "Ć": 198,
      "ć": 199,
      "Ĉ": 200,
      "ĉ": 201,
      "Ċ": 202,
      "ċ": 203,
      "Č": 204,
      "č": 205,
      "Ď": 206,
      "ď": 207,
      "Đ": 208,
      "đ": 209,
      "Ē": 210,
      "ē": 211,
      "Ĕ": 212,
      "ĕ": 213,
      "Ė": 214,
      "ė": 215,
      "Ę": 216,
      "ę": 217,
      "Ě": 218,
      "ě": 219,
      "Ĝ": 220,
      "ĝ": 221,
      "Ğ": 222,
      "ğ": 223,
      "Ġ": 224,
      "ġ": 225,
      "Ģ": 226,
      "ģ": 227,
      "Ĥ": 228,
      "ĥ": 229,
      "Ħ": 230,
      "ħ": 231,
      "Ĩ": 232,
      "ĩ": 233,
      "Ī": 234,
      "ī": 235,
      "Ĭ": 236,
      "ĭ": 237,
      "Į": 238,
      "į": 239,
      "İ": 240,
      "ı": 241,
      "Ĳ": 242,
      "ĳ": 243,
      "Ĵ": 244,
      "ĵ": 245,
      "Ķ": 246,
      "ķ": 247,
      "ĸ": 248,
      "Ĺ": 249,
      "ĺ": 250,
      "Ļ": 251,
      "ļ": 252,
      "Ľ": 253,
      "ľ": 254,
      "Ŀ": 255,
      "ŀ": 256,
      "Ł": 257,
      "ł": 258,
      "Ń": 259,
      ")p": 260,
      "UĒ": 261,
      "WĖ": 262,
      "$n": 263,
      "WĐ": 264,
      "5Ē": 265,
      "+l": 266,
      "ĒD": 267,
      "ĒB": 268,
      "Sa": 269,
      "AĖ": 270,
      "AĐ": 271,
      "2n": 272,
      "?p": 273,
      "=l": 274,
      "a:": 275,
      "$Z": 276,
      "FX": 277,
      "F^": 278,
      "5&": 279,
      "88": 280,
      "*l": 281,
      "VĖ": 282,
      "(p": 283,
      "#Ē": 284,
      "CĒ": 285,
      "VĐ": 286,
      "%n": 287,
      "Ġl": 288,
      "\"p": 289,
      "\\Ė": 290,
      "SB": 291,
      "/n": 292,
      "\\Đ": 293,
      "WD": 294,
      "SD": 295,
      "%>": 296,
      "WB": 297,
      "[X": 298,
      "a/": 299,
      "[^": 300,
      "TĒ": 301,
      "4Ē": 302,
      "ĒDZ": 303,
      "a:$": 304,
      "S^": 305,
      "->": 306,
      ")\"": 307,
      "+>": 308,
      ")+l": 309,
      "5@": 310,
      "$<": 311,
      "FY": 312,
      "F_": 313,
      "U@": 314,
      "SX": 315,
      ":l": 316,
      "8p": 317,
      "FĐ": 318,
      "5n": 319,
      "FĖ": 320,
      "\\W": 321,
      "FXWĖ": 322,
      "$ZUĒ": 323,
      "Ea": 324,
      "5&)p": 325,
      "]^": 326,
      "'\"": 327,
      "]B": 328,
      "#>": 329,
      "-$": 330,
      "88WĐ": 331,
      "(Ġ": 332,
      "Ġ<": 333,
      "]X": 334,
      "-\"": 335,
      "Q\\": 336,
      "ĠĠ": 337,
      "a:$5Ē": 338,
      "ĒW": 339,
      "SZ": 340,
      "Q^": 341,
      "S3": 342,
      "Ra": 343,
      "1\\": 344,
      "ĒY": 345,
      "Ē_": 346,
      "]D": 347,
      "/8": 348,
      "UVĖ": 349,
      ".<": 350,
      "$*l": 351,
      "@Y": 352,
      "@_": 353,
      "+(p": 354,
      "[B": 355,
      "#\"": 356,
      "5VĐ": 357,
      ")>": 358,
      "5p": 359,
      "F^$n": 360,
      "KĖ": 361,
      "7l": 362,
      "@S": 363,
      "[D": 364,
      "ĒDZSa": 365,
      "8n": 366,
      "KĐ": 367,
      "!>": 368,
      "ĒB)+l": 369,
      "\\Q": 370,
      "W^": 371,
      "Q_": 372,
      "WX": 373,
      "@U": 374,
      "?@": 375,
      "Ġ\"": 376,
      "]P": 377,
      "/)": 378,
      "S\\": 379,
      "AB": 380,
      "?$": 381,
      "AD": 382,
      "WTĒ": 383,
      "#p": 384,
      "3+": 385,
      "/\"": 386,
      "ĒQ": 387,
      ")4Ē": 388,
      "_@": 389,
      "-<": 390,
      "]Ė": 391,
      ".n": 392,
      "!l": 393,
      "/*l": 394,
      "1^": 395,
      "]Đ": 396,
      "]E": 397,
      "]C": 398,
      "(l": 399,
      "1@": 400,
      "a!": 401,
      "/>": 402,
      "+\"": 403,
      "!9": 404,
      "*p": 405,
      "]V": 406,
      "?T": 407,
      "S%n": 408,
      "TĖ": 409,
      "QY": 410,
      "'n": 411,
      "#6": 412,
      "#%": 413,
      "5'": 414,
      "Ġ:": 415,
      "[U": 416,
      "5\\": 417,
      ".(l": 418,
      "AY": 419,
      "ZY": 420,
      "A_": 421,
      ".Ġ": 422,
      "$Ġ": 423,
      "8?": 424,
      "3n": 425,
      "a9": 426,
      "<)": 427,
      "WR": 428,
      "!\"": 429,
      ")Ē": 430,
      "?TĐ": 431,
      "Ġn": 432,
      "Q@": 433,
      "S^VĖ": 434,
      ">5": 435,
      "&n": 436,
      "ĠĠ(p": 437,
      "-p": 438,
      "SĐ": 439,
      "WE": 440,
      "^_": 441,
      "ĒE": 442,
      "SĖ": 443,
      "UĖ": 444,
      "/?": 445,
      "->VĐ": 446,
      "GB": 447,
      "UĐ": 448,
      "GD": 449,
      "^Y": 450,
      "-#": 451,
      "5@Đ": 452,
      "9\\": 453,
      "+p": 454,
      "(:": 455,
      "/:": 456,
      "a=": 457,
      "U\\": 458,
      "[S": 459,
      "WW": 460,
      "$<l": 461,
      "/)l": 462,
      "9\\W": 463,
      "&)p": 464,
      "'\"7": 465,
      "/Ġ": 466,
      "U@Ė": 467,
      "Z_": 468,
      "-n": 469,
      "+>p": 470,
      "TY": 471,
      ".Ġl": 472,
      "SE": 473,
      ")n": 474,
      "?\\Đ": 475,
      "ĒT": 476,
      "(Ġl": 477,
      "a/\"": 478,
      "-'": 479,
      ")'": 480,
      "\"W": 481,
      "ĒA": 482,
      ".;": 483,
      "ĒR": 484,
      "[^UĖ": 485,
      "'\"p": 486,
      "ĒC": 487,
      "%>UĐ": 488,
      "9\\Đ": 489,
      "!\"p": 490,
      "1\\TĒ": 491,
      "%$": 492,
      "QD": 493,
      "[E": 494,
      "(Ġ+p": 495,
      "WZ": 496,
      "[_": 497,
      "ĒU": 498,
      "2:": 499,
      "FD": 500,
      "5!l": 501,
      "QB": 502,
      "[Y": 503,
      "ĕ&)p": 504,
      ">?": 505,
      "$9": 506,
      "FS": 507,
      "U^": 508,
      "ĒS": 509,
      "WS": 510,
      "$]Đ": 511,
      "1AĐ": 512,
      "Ē^": 513,
      "89": 514,
      "FB": 515,
      "Oa": 516,
      "SX%n": 517,
      "][": 518,
      "WU": 519,
      "_Y": 520,
      "Ġ=l": 521,
      "SC": 522,
      "WRa": 523,
      "ĒG": 524,
      "__": 525,
      "$=l": 526,
      "a!*p": 527,
      "S3n": 528,
      "[C": 529,
      "#<": 530,
      "+?p": 531,
      "%3": 532,
      "E_": 533,
      "VS": 534,
      "ĒDZS": 535,
      "^W": 536,
      ")#": 537,
      "3!": 538,
      "AS": 539,
      "FW": 540,
      "ĒX": 541,
      "(=": 542,
      "\\S": 543,
      "5AĐ": 544,
      "VY": 545,
      "$=": 546,
      "a:#p": 547,
      "a/\"4Ē": 548,
      "3'": 549,
      "QX": 550,
      "/!": 551,
      "$p": 552,
      "%#": 553,
      "[X&n": 554,
      "EW": 555,
      "?9": 556,
      "@W": 557,
      "V_": 558,
      "WC": 559,
      "(\"": 560,
      "EY": 561,
      "SCĒ": 562,
      "AE": 563,
      "$\"": 564,
      "ĒD]Ė": 565,
      "(-": 566,
      "Ġ9": 567,
      "<#": 568,
      "QAĖ": 569,
      "-#Ē": 570,
      "]]": 571,
      "Ġ#": 572,
      "a,": 573,
      "ĒF": 574,
      ")<": 575,
      ")#Ē": 576,
      "a>": 577,
      "[W": 578,
      "\\Y": 579,
      "\\_": 580,
      "4<": 581,
      "ĒP": 582,
      ";>": 583,
      "WQ": 584,
      "Ē_TĖ": 585,
      "ZĖ": 586,
      "%<": 587,
      "SY": 588,
      "2'": 589,
      "WCĒ": 590,
      "\"&": 591,
      "_Đ": 592,
      "AC": 593,
      "Q\\Ra": 594,
      "E^": 595,
      "U_": 596,
      "a&": 597,
      "a(": 598,
      "BY": 599,
      "a/l": 600,
      "SR": 601,
      "[Q": 602,
      "S[": 603,
      "T_": 604,
      "8\"": 605,
      ")/": 606,
      "$5Ē": 607,
      ",n": 608,
      "QW": 609,
      ".#": 610,
      "Ē@": 611,
      "5\\D": 612,
      "UAĖ": 613,
      ".\"": 614,
      "WT": 615,
      "?\\": 616,
      "Q\\R": 617,
      "1F": 618,
      "S]": 619,
      "G^": 620,
      "Ġ)": 621,
      "Ġ=": 622,
      "[Z": 623,
      "[\\": 624,
      "Q^Ė": 625,
      "5<": 626,
      "\\B": 627,
      "5'#>": 628,
      "6/": 629,
      "1\\Đ": 630,
      "GX": 631,
      "ĠĠl": 632,
      "-=": 633,
      "ZĐ": 634,
      ")4": 635,
      "(!\"p": 636,
      "!p": 637,
      "$ZĐ": 638,
      ">9": 639,
      "Ġ\"l": 640,
      "_W": 641,
      "-3": 642,
      ")+": 643,
      "4Ġ": 644,
      "FY]X": 645,
      "ST": 646,
      "]F": 647,
      "^S": 648,
      "[_\\Ė": 649,
      ")$": 650,
      "ZW": 651,
      "ZS": 652,
      "Ġ:l": 653,
      "+8": 654,
      "^Q": 655,
      "U\\B": 656,
      "BB": 657,
      "ĒB.n": 658,
      "$-": 659,
      "!Ġ": 660,
      "+\"$": 661,
      "SF": 662,
      "Ēd": 663,
      "*9": 664,
      "1FĐ": 665,
      "Ēb": 666,
      "/Ġp": 667,
      "(8": 668,
      "[@": 669,
      "(=l": 670,
      "ĒV": 671,
      "%?\\Đ": 672,
      "/'": 673,
      "/$": 674,
      "B_": 675,
      "1^Đ": 676,
      "BD": 677,
      ".<l": 678,
      "Ē[": 679,
      "_TĖ": 680,
      "a-": 681,
      ")1": 682,
      "6]B": 683,
      "?@Đ": 684,
      "QS": 685,
      "[F": 686,
      "AU": 687,
      ".9": 688,
      "]@": 689,
      "]Z": 690,
      "WF": 691,
      "]\\": 692,
      "W\\": 693,
      "5&l": 694,
      "'!>": 695,
      "a*": 696,
      "^Đ": 697,
      "a#": 698,
      "/+": 699,
      "Ēw": 700,
      "2:l": 701,
      "DS": 702,
      "Y\\Ė": 703,
      "/l": 704,
      "AX": 705,
      "/*": 706,
      "A^": 707,
      "ZUĒ": 708,
      "%\"": 709,
      "-7l": 710,
      "ZSa": 711,
      "S@": 712,
      "^I": 713,
      "ĒY'n": 714,
      "\"%": 715,
      "(9": 716,
      "8WĐ": 717,
      "/;": 718,
      "W3": 719,
      "(<": 720,
      "5+(p": 721,
      "EQAĖ": 722,
      "]G": 723,
      "Ġp": 724,
      "a'\"p": 725,
      "Ēq": 726,
      "Ġ?": 727,
      ";1AĐ": 728,
      "[CĒ": 729,
      "6/?p": 730,
      "9\"": 731,
      "\\U": 732,
      "EX": 733,
      "QQ": 734,
      ")3": 735,
      "SU": 736,
      "QFĖ": 737,
      "aĚ": 738,
      "W@": 739,
      "/n88WĐ": 740,
      "ĒW/*l": 741,
      "Ēe": 742,
      "[R": 743,
      "DY": 744,
      "T_@": 745,
      "UX": 746,
      "[[": 747,
      "4=": 748,
      "W[": 749,
      "VU": 750,
      "!?": 751,
      "(5": 752,
      "5ĒD": 753,
      "PS": 754,
      "Ē]": 755,
      "FE": 756,
      "f^": 757,
      "/-": 758,
      "/9": 759,
      "UĒB": 760,
      "%+": 761,
      "^U": 762,
      "%#Ē": 763,
      "D_": 764,
      "SEa": 765,
      "TB": 766,
      "\":": 767,
      "/<": 768,
      "/\"p": 769,
      "]A": 770,
      ";8": 771,
      "'>": 772,
      "Ēu": 773,
      "Ġ1": 774,
      "Ēc": 775,
      "_S": 776,
      ")=": 777,
      "^Ė": 778,
      "fX": 779,
      "GE": 780,
      "aĝ": 781,
      "##": 782,
      "TD": 783,
      "2&": 784,
      "Ēr": 785,
      "%@": 786,
      "(*": 787,
      "Ġ5": 788,
      "[T": 789,
      "5=l": 790,
      "_Q": 791,
      "%'": 792,
      "?5": 793,
      "UĒW": 794,
      ".(l$ZUĒ": 795,
      "GZ": 796,
      "\\E": 797,
      "'SCĒ": 798,
      "Y'n": 799,
      "$:": 800,
      "5+": 801,
      "#'": 802,
      "%=": 803,
      "a'": 804,
      "4\"": 805,
      ";\"": 806,
      "GC": 807,
      "5\\Đ": 808,
      "_Ė": 809,
      "%&": 810,
      "-+": 811,
      "?8": 812,
      "/:l": 813,
      "[Y/n": 814,
      "$Ġl": 815,
      "9]^": 816,
      "ĒY\\Ė": 817,
      "$#": 818,
      ";9": 819,
      "(#": 820,
      "[]": 821,
      "Ġ-": 822,
      "@Q": 823,
      "aď": 824,
      "^\\": 825,
      "Ēs": 826,
      "Ġ*": 827,
      ".5": 828,
      "!*p": 829,
      "\\R": 830,
      "-4": 831,
      "-!": 832,
      "Ēt": 833,
      ">1": 834,
      "G\\": 835,
      "3+l": 836,
      "$?": 837,
      "EW2n": 838,
      ".=": 839,
      "PU": 840,
      "2=": 841,
      "2+": 842,
      "%7": 843,
      "Ē{": 844,
      "6'": 845,
      "/=": 846,
      "]Y": 847,
      "-+l": 848,
      "Ēx": 849,
      "Ē}": 850,
      "YĐ": 851,
      "a<)": 852,
      "FC": 853,
      "6&": 854,
      "WEa": 855,
      "*n": 856,
      "$8": 857,
      "\"!": 858,
      "8#Ē": 859,
      ".:": 860,
      "BS": 861,
      "Ē~": 862,
      "ĈĠl": 863,
      "-/": 864,
      "FQ": 865,
      "9>": 866,
      "UY": 867,
      ";?": 868,
      "1\\T": 869,
      "&&": 870,
      "_/n": 871,
      "@Ė": 872,
      "FCĒ": 873,
      "V]D": 874,
      "Q^Z": 875,
      "9AĐ": 876,
      "<\"": 877,
      "PY": 878,
      "-;": 879,
      "81": 880,
      "ĒZ": 881,
      ")\"WĐ": 882,
      "UW": 883,
      ",>": 884,
      ".>": 885,
      "SI": 886,
      "SZĖ": 887,
      "EYF^": 888,
      "1\"": 889,
      "4:": 890,
      "a\"": 891,
      "\"!\"": 892,
      "ač": 893,
      "'[D": 894,
      "??": 895,
      "\\KĖ": 896,
      "fXWĖ": 897,
      "^Z": 898,
      "#+": 899,
      "85": 900,
      "FS%n": 901,
      "FUVĖ": 902,
      ";9FX": 903,
      "-7": 904,
      "-$p": 905,
      ".%": 906,
      "GS": 907,
      "ĄZUĒ": 908,
      "WY": 909,
      "/89]^": 910,
      "$ZQFĖ": 911,
      "\"+l": 912,
      "#=": 913,
      "PI": 914,
      "Ēy": 915,
      ")/8p": 916,
      "''": 917,
      "Ġ%": 918,
      "88SD": 919,
      "FU": 920,
      "7'": 921,
      "85VĐ": 922,
      "W_": 923,
      "a+": 924,
      "FXSB": 925,
      "$1": 926,
      "/=l": 927,
      "Ę8WĐ": 928,
      "SS": 929,
      "ĒQ\\Ra": 930,
      "#6ĒDZSa": 931,
      "/?\\": 932,
      "%4": 933,
      "3:": 934,
      "Ēġ": 935,
      "\"&l": 936,
      "5&-$": 937,
      "Sa:": 938,
      "$+": 939,
      "6'88": 940,
      "$/": 941,
      "&WB": 942,
      ")9": 943,
      "3]^": 944,
      "Ēz": 945,
      "]VĒB)+l": 946,
      "]R": 947,
      "W/*l": 948,
      "-Ġ": 949,
      "?#": 950,
      "SQ": 951,
      "aă": 952,
      "]Pa:$5Ē": 953,
      "a9-#Ē": 954,
      "@C": 955,
      "]T": 956,
      "$<)p": 957,
      "W^FĖ": 958,
      ":9": 959,
      "[Ea": 960,
      "Ē|": 961,
      "'!>p": 962,
      "-9": 963,
      "@E": 964,
      "\"'": 965,
      "2+l": 966,
      "?TĐF^$n": 967,
      "(%": 968,
      "5+l": 969,
      ".8": 970,
      "a!*pFXWĖ": 971,
      "%$ZĐ": 972,
      "WBWĖ": 973,
      "(:$p": 974,
      "$Ġ8p": 975,
      "'[DZĖ": 976,
      "Ġ8": 977,
      ",+l": 978,
      "2;": 979,
      "5:": 980,
      "5+>": 981,
      "ES": 982,
      ")>FĐ": 983,
      "BW": 984,
      "Ġ)Ē": 985,
      "]_": 986,
      "#7l": 987,
      "/5Ē": 988,
      "89]^": 989,
      "/1": 990,
      "T_@Ė": 991,
      "a/?p": 992,
      "9$": 993,
      "UE": 994,
      "ĒDZW": 995,
      "-\"l": 996,
      "/+l": 997,
      "$WB": 998,
      "FU@": 999,
      "*\"": 1000,
      "aČ": 1001,
      "Ġ5Ē": 1002,
      "*?@Đ": 1003,
      "5+>p": 1004,
      "7+l": 1005,
      "QU": 1006,
      "Y\\Q": 1007,
      "BZ": 1008,
      "(#\"": 1009,
      "(!\"": 1010,
      "#;": 1011,
      "$>": 1012,
      "3/": 1013,
      "VE": 1014,
      "F_.Ġl": 1015,
      "PC": 1016,
      "FI": 1017,
      "a'\"": 1018,
      "a:$1FĐ": 1019,
      "$5": 1020,
      ")!": 1021,
      "Q[": 1022,
      "W]": 1023
    },
    "merges": [
      [
        ")",
        "p"
      ],
      [
        "U",
        "Ē"
      ],
      [
        "W",
        "Ė"
      ],
      [
        "$",
        "n"
      ],
      [
        "W",
        "Đ"
      ],
      [
        "5",
        "Ē"
      ],
      [
        "+",
        "l"
      ],
      [
        "Ē",
        "D"
      ],
      [
        "Ē",
        "B"
      ],
      [
        "S",
        "a"
      ],
      [
        "A",
        "Ė"
      ],
      [
        "A",
        "Đ"
      ],
      [
        "2",
        "n"
      ],
      [
        "?",
        "p"
      ],
      [
        "=",
        "l"
      ],
      [
        "a",
        ":"
      ],
      [
        "$",
        "Z"
      ],
      [
        "F",
        "X"
      ],
      [
        "F",
        "^"
      ],
      [
        "5",
        "&"
      ],
      [
        "8",
        "8"
      ],
      [
        "*",
        "l"
      ],
      [
        "V",
        "Ė"
      ],
      [
        "(",
        "p"
      ],
      [
        "#",
        "Ē"
      ],
      [
        "C",
        "Ē"
      ],
      [
        "V",
        "Đ"
      ],
      [
        "%",
        "n"
      ],
      [
        "Ġ",
        "l"
      ],
      [
        "\"",
        "p"
      ],
      [
        "\\",
        "Ė"
      ],
      [
        "S",
        "B"
      ],
      [
        "/",
        "n"
      ],
      [
        "\\",
        "Đ"
      ],
      [
        "W",
        "D"
      ],
      [
        "S",
        "D"
      ],
      [
        "%",
        ">"
      ],
      [
        "W",
        "B"
      ],
      [
        "[",
        "X"
      ],
      [
        "a",
        "/"
      ],
      [
        "[",
        "^"
      ],
      [
        "T",
        "Ē"
      ],
      [
        "4",
        "Ē"
      ],
      [
        "ĒD",
        "Z"
      ],
      [
        "a:",
        "$"
      ],
      [
        "S",
        "^"
      ],
      [
        "-",
        ">"
      ],
      [
        ")",
        "\""
      ],
      [
        "+",
        ">"
      ],
      [
        ")",
        "+l"
      ],
      [
        "5",
        "@"
      ],
      [
        "$",
        "<"
      ],
      [
        "F",
        "Y"
      ],
      [
        "F",
        "_"
      ],
      [
        "U",
        "@"
      ],
      [
        "S",
        "X"
      ],
      [
        ":",
        "l"
      ],
      [
        "8",
        "p"
      ],
      [
        "F",
        "Đ"
      ],
      [
        "5",
        "n"
      ],
      [
        "F",
        "Ė"
      ],
      [
        "\\",
        "W"
      ],
      [
        "FX",
        "WĖ"
      ],
      [
        "$Z",
        "UĒ"
      ],
      [
        "E",
        "a"
      ],
      [
        "5&",
        ")p"
      ],
      [
        "]",
        "^"
      ],
      [
        "'",
        "\""
      ],
      [
        "]",
        "B"
      ],
      [
        "#",
        ">"
      ],
      [
        "-",
        "$"
      ],
      [
        "88",
        "WĐ"
      ],
      [
        "(",
        "Ġ"
      ],
      [
        "Ġ",
        "<"
      ],
      [
        "]",
        "X"
      ],
      [
        "-",
        "\""
      ],
      [
        "Q",
        "\\"
      ],
      [
        "Ġ",
        "Ġ"
      ],
      [
        "a:$",
        "5Ē"
      ],
      [
        "Ē",
        "W"
      ],
      [
        "S",
        "Z"
      ],
      [
        "Q",
        "^"
      ],
      [
        "S",
        "3"
      ],
      [
        "R",
        "a"
      ],
      [
        "1",
        "\\"
      ],
      [
        "Ē",
        "Y"
      ],
      [
        "Ē",
        "_"
      ],
      [
        "]",
        "D"
      ],
      [
        "/",
        "8"
      ],
      [
        "U",
        "VĖ"
      ],
      [
        ".",
        "<"
      ],
      [
        "$",
        "*l"
      ],
      [
        "@",
        "Y"
      ],
      [
        "@",
        "_"
      ],
      [
        "+",
        "(p"
      ],
      [
        "[",
        "B"
      ],
      [
        "#",
        "\""
      ],
      [
        "5",
        "VĐ"
      ],
      [
        ")",
        ">"
      ],
      [
        "5",
        "p"
      ],
      [
        "F^",
        "$n"
      ],
      [
        "K",
        "Ė"
      ],
      [
        "7",
        "l"
      ],
      [
        "@",
        "S"
      ],
      [
        "[",
        "D"
      ],
      [
        "ĒDZ",
        "Sa"
      ],
      [
        "8",
        "n"
      ],
      [
        "K",
        "Đ"
      ],
      [
        "!",
        ">"
      ],
      [
        "ĒB",
        ")+l"
      ],
      [
        "\\",
        "Q"
      ],
      [
        "W",
        "^"
      ],
      [
        "Q",
        "_"
      ],
      [
        "W",
        "X"
      ],
      [
        "@",
        "U"
      ],
      [
        "?",
        "@"
      ],
      [
        "Ġ",
        "\""
      ],
      [
        "]",
        "P"
      ],
      [
        "/",
        ")"
      ],
      [
        "S",
        "\\"
      ],
      [
        "A",
        "B"
      ],
      [
        "?",
        "$"
      ],
      [
        "A",
        "D"
      ],
      [
        "W",
        "TĒ"
      ],
      [
        "#",
        "p"
      ],
      [
        "3",
        "+"
      ],
      [
        "/",
        "\""
      ],
      [
        "Ē",
        "Q"
      ],
      [
        ")",
        "4Ē"
      ],
      [
        "_",
        "@"
      ],
      [
        "-",
        "<"
      ],
      [
        "]",
        "Ė"
      ],
      [
        ".",
        "n"
      ],
      [
        "!",
        "l"
      ],
      [
        "/",
        "*l"
      ],
      [
        "1",
        "^"
      ],
      [
        "]",
        "Đ"
      ],
      [
        "]",
        "E"
      ],
      [
        "]",
        "C"
      ],
      [
        "(",
        "l"
      ],
      [
        "1",
        "@"
      ],
      [
        "a",
        "!"
      ],
      [
        "/",
        ">"
      ],
      [
        "+",
        "\""
      ],
      [
        "!",
        "9"
      ],
      [
        "*",
        "p"
      ],
      [
        "]",
        "V"
      ],
      [
        "?",
        "T"
      ],
      [
        "S",
        "%n"
      ],
      [
        "T",
        "Ė"
      ],
      [
        "Q",
        "Y"
      ],
      [
        "'",
        "n"
      ],
      [
        "#",
        "6"
      ],
      [
        "#",
        "%"
      ],
      [
        "5",
        "'"
      ],
      [
        "Ġ",
        ":"
      ],
      [
        "[",
        "U"
      ],
      [
        "5",
        "\\"
      ],
      [
        ".",
        "(l"
      ],
      [
        "A",
        "Y"
      ],
      [
        "Z",
        "Y"
      ],
      [
        "A",
        "_"
      ],
      [
        ".",
        "Ġ"
      ],
      [
        "$",
        "Ġ"
      ],
      [
        "8",
        "?"
      ],
      [
        "3",
        "n"
      ],
      [
        "a",
        "9"
      ],
      [
        "<",
        ")"
      ],
      [
        "W",
        "R"
      ],
      [
        "!",
        "\""
      ],
      [
        ")",
        "Ē"
      ],
      [
        "?T",
        "Đ"
      ],
      [
        "Ġ",
        "n"
      ],
      [
        "Q",
        "@"
      ],
      [
        "S^",
        "VĖ"
      ],
      [
        ">",
        "5"
      ],
      [
        "&",
        "n"
      ],
      [
        "ĠĠ",
        "(p"
      ],
      [
        "-",
        "p"
      ],
      [
        "S",
        "Đ"
      ],
      [
        "W",
        "E"
      ],
      [
        "^",
        "_"
      ],
      [
        "Ē",
        "E"
      ],
      [
        "S",
        "Ė"
      ],
      [
        "U",
        "Ė"
      ],
      [
        "/",
        "?"
      ],
      [
        "->",
        "VĐ"
      ],
      [
        "G",
        "B"
      ],
      [
        "U",
        "Đ"
      ],
      [
        "G",
        "D"
      ],
      [
        "^",
        "Y"
      ],
      [
        "-",
        "#"
      ],
      [
        "5@",
        "Đ"
      ],
      [
        "9",
        "\\"
      ],
      [
        "+",
        "p"
      ],
      [
        "(",
        ":"
      ],
      [
        "/",
        ":"
      ],
      [
        "a",
        "="
      ],
      [
        "U",
        "\\"
      ],
      [
        "[",
        "S"
      ],
      [
        "W",
        "W"
      ],
      [
        "$<",
        "l"
      ],
      [
        "/)",
        "l"
      ],
      [
        "9",
        "\\W"
      ],
      [
        "&",
        ")p"
      ],
      [
        "'\"",
        "7"
      ],
      [
        "/",
        "Ġ"
      ],
      [
        "U@",
        "Ė"
      ],
      [
        "Z",
        "_"
      ],
      [
        "-",
        "n"
      ],
      [
        "+>",
        "p"
      ],
      [
        "T",
        "Y"
      ],
      [
        ".",
        "Ġl"
      ],
      [
        "S",
        "E"
      ],
      [
        ")",
        "n"
      ],
      [
        "?",
        "\\Đ"
      ],
      [
        "Ē",
        "T"
      ],
      [
        "(",
        "Ġl"
      ],
      [
        "a/",
        "\""
      ],
      [
        "-",
        "'"
      ],
      [
        ")",
        "'"
      ],
      [
        "\"",
        "W"
      ],
      [
        "Ē",
        "A"
      ],
      [
        ".",
        ";"
      ],
      [
        "Ē",
        "R"
      ],
      [
        "[^",
        "UĖ"
      ],
      [
        "'",
        "\"p"
      ],
      [
        "Ē",
        "C"
      ],
      [
        "%>",
        "UĐ"
      ],
      [
        "9",
        "\\Đ"
      ],
      [
        "!",
        "\"p"
      ],
      [
        "1\\",
        "TĒ"
      ],
      [
        "%",
        "$"
      ],
      [
        "Q",
        "D"
      ],
      [
        "[",
        "E"
      ],
      [
        "(Ġ",
        "+p"
      ],
      [
        "W",
        "Z"
      ],
      [
        "[",
        "_"
      ],
      [
        "Ē",
        "U"
      ],
      [
        "2",
        ":"
      ],
      [
        "F",
        "D"
      ],
      [
        "5",
        "!l"
      ],
      [
        "Q",
        "B"
      ],
      [
        "[",
        "Y"
      ],
      [
        "ĕ",
        "&)p"
      ],
      [
        ">",
        "?"
      ],
      [
        "$",
        "9"
      ],
      [
        "F",
        "S"
      ],
      [
        "U",
        "^"
      ],
      [
        "Ē",
        "S"
      ],
      [
        "W",
        "S"
      ],
      [
        "$",
        "]Đ"
      ],
      [
        "1",
        "AĐ"
      ],
      [
        "Ē",
        "^"
      ],
      [
        "8",
        "9"
      ],
      [
        "F",
        "B"
      ],
      [
        "O",
        "a"
      ],
      [
        "SX",
        "%n"
      ],
      [
        "]",
        "["
      ],
      [
        "W",
        "U"
      ],
      [
        "_",
        "Y"
      ],
      [
        "Ġ",
        "=l"
      ],
      [
        "S",
        "C"
      ],
      [
        "W",
        "Ra"
      ],
      [
        "Ē",
        "G"
      ],
      [
        "_",
        "_"
      ],
      [
        "$",
        "=l"
      ],
      [
        "a!",
        "*p"
      ],
      [
        "S3",
        "n"
      ],
      [
        "[",
        "C"
      ],
      [
        "#",
        "<"
      ],
      [
        "+",
        "?p"
      ],
      [
        "%",
        "3"
      ],
      [
        "E",
        "_"
      ],
      [
        "V",
        "S"
      ],
      [
        "ĒDZ",
        "S"
      ],
      [
        "^",
        "W"
      ],
      [
        ")",
        "#"
      ],
      [
        "3",
        "!"
      ],
      [
        "A",
        "S"
      ],
      [
        "F",
        "W"
      ],
      [
        "Ē",
        "X"
      ],
      [
        "(",
        "="
      ],
      [
        "\\",
        "S"
      ],
      [
        "5",
        "AĐ"
      ],
      [
        "V",
        "Y"
      ],
      [
        "$",
        "="
      ],
      [
        "a:",
        "#p"
      ],
      [
        "a/\"",
        "4Ē"
      ],
      [
        "3",
        "'"
      ],
      [
        "Q",
        "X"
      ],
      [
        "/",
        "!"
      ],
      [
        "$",
        "p"
      ],
      [
        "%",
        "#"
      ],
      [
        "[X",
        "&n"
      ],
      [
        "E",
        "W"
      ],
      [
        "?",
        "9"
      ],
      [
        "@",
        "W"
      ],
      [
        "V",
        "_"
      ],
      [
        "W",
        "C"
      ],
      [
        "(",
        "\""
      ],
      [
        "E",
        "Y"
      ],
      [
        "S",
        "CĒ"
      ],
      [
        "A",
        "E"
      ],
      [
        "$",
        "\""
      ],
      [
        "ĒD",
        "]Ė"
      ],
      [
        "(",
        "-"
      ],
      [
        "Ġ",
        "9"
      ],
      [
        "<",
        "#"
      ],
      [
        "Q",
        "AĖ"
      ],
      [
        "-",
        "#Ē"
      ],
      [
        "]",
        "]"
      ],
      [
        "Ġ",
        "#"
      ],
      [
        "a",
        ","
      ],
      [
        "Ē",
        "F"
      ],
      [
        ")",
        "<"
      ],
      [
        ")",
        "#Ē"
      ],
      [
        "a",
        ">"
      ],
      [
        "[",
        "W"
      ],
      [
        "\\",
        "Y"
      ],
      [
        "\\",
        "_"
      ],
      [
        "4",
        "<"
      ],
      [
        "Ē",
        "P"
      ],
      [
        ";",
        ">"
      ],
      [
        "W",
        "Q"
      ],
      [
        "Ē_",
        "TĖ"
      ],
      [
        "Z",
        "Ė"
      ],
      [
        "%",
        "<"
      ],
      [
        "S",
        "Y"
      ],
      [
        "2",
        "'"
      ],
      [
        "W",
        "CĒ"
      ],
      [
        "\"",
        "&"
      ],
      [
        "_",
        "Đ"
      ],
      [
        "A",
        "C"
      ],
      [
        "Q\\",
        "Ra"
      ],
      [
        "E",
        "^"
      ],
      [
        "U",
        "_"
      ],
      [
        "a",
        "&"
      ],
      [
        "a",
        "("
      ],
      [
        "B",
        "Y"
      ],
      [
        "a/",
        "l"
      ],
      [
        "S",
        "R"
      ],
      [
        "[",
        "Q"
      ],
      [
        "S",
        "["
      ],
      [
        "T",
        "_"
      ],
      [
        "8",
        "\""
      ],
      [
        ")",
        "/"
      ],
      [
        "$",
        "5Ē"
      ],
      [
        ",",
        "n"
      ],
      [
        "Q",
        "W"
      ],
      [
        ".",
        "#"
      ],
      [
        "Ē",
        "@"
      ],
      [
        "5\\",
        "D"
      ],
      [
        "U",
        "AĖ"
      ],
      [
        ".",
        "\""
      ],
      [
        "W",
        "T"
      ],
      [
        "?",
        "\\"
      ],
      [
        "Q\\",
        "R"
      ],
      [
        "1",
        "F"
      ],
      [
        "S",
        "]"
      ],
      [
        "G",
        "^"
      ],
      [
        "Ġ",
        ")"
      ],
      [
        "Ġ",
        "="
      ],
      [
        "[",
        "Z"
      ],
      [
        "[",
        "\\"
      ],
      [
        "Q^",
        "Ė"
      ],
      [
        "5",
        "<"
      ],
      [
        "\\",
        "B"
      ],
      [
        "5'",
        "#>"
      ],
      [
        "6",
        "/"
      ],
      [
        "1",
        "\\Đ"
      ],
      [
        "G",
        "X"
      ],
      [
        "Ġ",
        "Ġl"
      ],
      [
        "-",
        "="
      ],
      [
        "Z",
        "Đ"
      ],
      [
        ")",
        "4"
      ],
      [
        "(",
        "!\"p"
      ],
      [
        "!",
        "p"
      ],
      [
        "$Z",
        "Đ"
      ],
      [
        ">",
        "9"
      ],
      [
        "Ġ\"",
        "l"
      ],
      [
        "_",
        "W"
      ],
      [
        "-",
        "3"
      ],
      [
        ")",
        "+"
      ],
      [
        "4",
        "Ġ"
      ],
      [
        "FY",
        "]X"
      ],
      [
        "S",
        "T"
      ],
      [
        "]",
        "F"
      ],
      [
        "^",
        "S"
      ],
      [
        "[_",
        "\\Ė"
      ],
      [
        ")",
        "$"
      ],
      [
        "Z",
        "W"
      ],
      [
        "Z",
        "S"
      ],
      [
        "Ġ",
        ":l"
      ],
      [
        "+",
        "8"
      ],
      [
        "^",
        "Q"
      ],
      [
        "U\\",
        "B"
      ],
      [
        "B",
        "B"
      ],
      [
        "ĒB",
        ".n"
      ],
      [
        "$",
        "-"
      ],
      [
        "!",
        "Ġ"
      ],
      [
        "+\"",
        "$"
      ],
      [
        "S",
        "F"
      ],
      [
        "Ē",
        "d"
      ],
      [
        "*",
        "9"
      ],
      [
        "1",
        "FĐ"
      ],
      [
        "Ē",
        "b"
      ],
      [
        "/Ġ",
        "p"
      ],
      [
        "(",
        "8"
      ],
      [
        "[",
        "@"
      ],
      [
        "(",
        "=l"
      ],
      [
        "Ē",
        "V"
      ],
      [
        "%",
        "?\\Đ"
      ],
      [
        "/",
        "'"
      ],
      [
        "/",
        "$"
      ],
      [
        "B",
        "_"
      ],
      [
        "1^",
        "Đ"
      ],
      [
        "B",
        "D"
      ],
      [
        ".<",
        "l"
      ],
      [
        "Ē",
        "["
      ],
      [
        "_",
        "TĖ"
      ],
      [
        "a",
        "-"
      ],
      [
        ")",
        "1"
      ],
      [
        "6",
        "]B"
      ],
      [
        "?@",
        "Đ"
      ],
      [
        "Q",
        "S"
      ],
      [
        "[",
        "F"
      ],
      [
        "A",
        "U"
      ],
      [
        ".",
        "9"
      ],
      [
        "]",
        "@"
      ],
      [
        "]",
        "Z"
      ],
      [
        "W",
        "F"
      ],
      [
        "]",
        "\\"
      ],
      [
        "W",
        "\\"
      ],
      [
        "5&",
        "l"
      ],
      [
        "'",
        "!>"
      ],
      [
        "a",
        "*"
      ],
      [
        "^",
        "Đ"
      ],
      [
        "a",
        "#"
      ],
      [
        "/",
        "+"
      ],
      [
        "Ē",
        "w"
      ],
      [
        "2",
        ":l"
      ],
      [
        "D",
        "S"
      ],
      [
        "Y",
        "\\Ė"
      ],
      [
        "/",
        "l"
      ],
      [
        "A",
        "X"
      ],
      [
        "/",
        "*"
      ],
      [
        "A",
        "^"
      ],
      [
        "Z",
        "UĒ"
      ],
      [
        "%",
        "\""
      ],
      [
        "-",
        "7l"
      ],
      [
        "Z",
        "Sa"
      ],
      [
        "S",
        "@"
      ],
      [
        "^",
        "I"
      ],
      [
        "ĒY",
        "'n"
      ],
      [
        "\"",
        "%"
      ],
      [
        "(",
        "9"
      ],
      [
        "8",
        "WĐ"
      ],
      [
        "/",
        ";"
      ],
      [
        "W",
        "3"
      ],
      [
        "(",
        "<"
      ],
      [
        "5",
        "+(p"
      ],
      [
        "E",
        "QAĖ"
      ],
      [
        "]",
        "G"
      ],
      [
        "Ġ",
        "p"
      ],
      [
        "a",
        "'\"p"
      ],
      [
        "Ē",
        "q"
      ],
      [
        "Ġ",
        "?"
      ],
      [
        ";",
        "1AĐ"
      ],
      [
        "[",
        "CĒ"
      ],
      [
        "6/",
        "?p"
      ],
      [
        "9",
        "\""
      ],
      [
        "\\",
        "U"
      ],
      [
        "E",
        "X"
      ],
      [
        "Q",
        "Q"
      ],
      [
        ")",
        "3"
      ],
      [
        "S",
        "U"
      ],
      [
        "Q",
        "FĖ"
      ],
      [
        "a",
        "Ě"
      ],
      [
        "W",
        "@"
      ],
      [
        "/n",
        "88WĐ"
      ],
      [
        "ĒW",
        "/*l"
      ],
      [
        "Ē",
        "e"
      ],
      [
        "[",
        "R"
      ],
      [
        "D",
        "Y"
      ],
      [
        "T",
        "_@"
      ],
      [
        "U",
        "X"
      ],
      [
        "[",
        "["
      ],
      [
        "4",
        "="
      ],
      [
        "W",
        "["
      ],
      [
        "V",
        "U"
      ],
      [
        "!",
        "?"
      ],
      [
        "(",
        "5"
      ],
      [
        "5Ē",
        "D"
      ],
      [
        "P",
        "S"
      ],
      [
        "Ē",
        "]"
      ],
      [
        "F",
        "E"
      ],
      [
        "f",
        "^"
      ],
      [
        "/",
        "-"
      ],
      [
        "/",
        "9"
      ],
      [
        "UĒ",
        "B"
      ],
      [
        "%",
        "+"
      ],
      [
        "^",
        "U"
      ],
      [
        "%",
        "#Ē"
      ],
      [
        "D",
        "_"
      ],
      [
        "S",
        "Ea"
      ],
      [
        "T",
        "B"
      ],
      [
        "\"",
        ":"
      ],
      [
        "/",
        "<"
      ],
      [
        "/",
        "\"p"
      ],
      [
        "]",
        "A"
      ],
      [
        ";",
        "8"
      ],
      [
        "'",
        ">"
      ],
      [
        "Ē",
        "u"
      ],
      [
        "Ġ",
        "1"
      ],
      [
        "Ē",
        "c"
      ],
      [
        "_",
        "S"
      ],
      [
        ")",
        "="
      ],
      [
        "^",
        "Ė"
      ],
      [
        "f",
        "X"
      ],
      [
        "G",
        "E"
      ],
      [
        "a",
        "ĝ"
      ],
      [
        "#",
        "#"
      ],
      [
        "T",
        "D"
      ],
      [
        "2",
        "&"
      ],
      [
        "Ē",
        "r"
      ],
      [
        "%",
        "@"
      ],
      [
        "(",
        "*"
      ],
      [
        "Ġ",
        "5"
      ],
      [
        "[",
        "T"
      ],
      [
        "5",
        "=l"
      ],
      [
        "_",
        "Q"
      ],
      [
        "%",
        "'"
      ],
      [
        "?",
        "5"
      ],
      [
        "UĒ",
        "W"
      ],
      [
        ".(l",
        "$ZUĒ"
      ],
      [
        "G",
        "Z"
      ],
      [
        "\\",
        "E"
      ],
      [
        "'",
        "SCĒ"
      ],
      [
        "Y",
        "'n"
      ],
      [
        "$",
        ":"
      ],
      [
        "5",
        "+"
      ],
      [
        "#",
        "'"
      ],
      [
        "%",
        "="
      ],
      [
        "a",
        "'"
      ],
      [
        "4",
        "\""
      ],
      [
        ";",
        "\""
      ],
      [
        "G",
        "C"
      ],
      [
        "5",
        "\\Đ"
      ],
      [
        "_",
        "Ė"
      ],
      [
        "%",
        "&"
      ],
      [
        "-",
        "+"
      ],
      [
        "?",
        "8"
      ],
      [
        "/",
        ":l"
      ],
      [
        "[Y",
        "/n"
      ],
      [
        "$",
        "Ġl"
      ],
      [
        "9",
        "]^"
      ],
      [
        "ĒY",
        "\\Ė"
      ],
      [
        "$",
        "#"
      ],
      [
        ";",
        "9"
      ],
      [
        "(",
        "#"
      ],
      [
        "[",
        "]"
      ],
      [
        "Ġ",
        "-"
      ],
      [
        "@",
        "Q"
      ],
      [
        "a",
        "ď"
      ],
      [
        "^",
        "\\"
      ],
      [
        "Ē",
        "s"
      ],
      [
        "Ġ",
        "*"
      ],
      [
        ".",
        "5"
      ],
      [
        "!",
        "*p"
      ],
      [
        "\\",
        "R"
      ],
      [
        "-",
        "4"
      ],
      [
        "-",
        "!"
      ],
      [
        "Ē",
        "t"
      ],
      [
        ">",
        "1"
      ],
      [
        "G",
        "\\"
      ],
      [
        "3",
        "+l"
      ],
      [
        "$",
        "?"
      ],
      [
        "EW",
        "2n"
      ],
      [
        ".",
        "="
      ],
      [
        "P",
        "U"
      ],
      [
        "2",
        "="
      ],
      [
        "2",
        "+"
      ],
      [
        "%",
        "7"
      ],
      [
        "Ē",
        "{"
      ],
      [
        "6",
        "'"
      ],
      [
        "/",
        "="
      ],
      [
        "]",
        "Y"
      ],
      [
        "-",
        "+l"
      ],
      [
        "Ē",
        "x"
      ],
      [
        "Ē",
        "}"
      ],
      [
        "Y",
        "Đ"
      ],
      [
        "a",
        "<)"
      ],
      [
        "F",
        "C"
      ],
      [
        "6",
        "&"
      ],
      [
        "W",
        "Ea"
      ],
      [
        "*",
        "n"
      ],
      [
        "$",
        "8"
      ],
      [
        "\"",
        "!"
      ],
      [
        "8",
        "#Ē"
      ],
      [
        ".",
        ":"
      ],
      [
        "B",
        "S"
      ],
      [
        "Ē",
        "~"
      ],
      [
        "Ĉ",
        "Ġl"
      ],
      [
        "-",
        "/"
      ],
      [
        "F",
        "Q"
      ],
      [
        "9",
        ">"
      ],
      [
        "U",
        "Y"
      ],
      [
        ";",
        "?"
      ],
      [
        "1\\",
        "T"
      ],
      [
        "&",
        "&"
      ],
      [
        "_",
        "/n"
      ],
      [
        "@",
        "Ė"
      ],
      [
        "F",
        "CĒ"
      ],
      [
        "V",
        "]D"
      ],
      [
        "Q^",
        "Z"
      ],
      [
        "9",
        "AĐ"
      ],
      [
        "<",
        "\""
      ],
      [
        "P",
        "Y"
      ],
      [
        "-",
        ";"
      ],
      [
        "8",
        "1"
      ],
      [
        "Ē",
        "Z"
      ],
      [
        ")\"",
        "WĐ"
      ],
      [
        "U",
        "W"
      ],
      [
        ",",
        ">"
      ],
      [
        ".",
        ">"
      ],
      [
        "S",
        "I"
      ],
      [
        "SZ",
        "Ė"
      ],
      [
        "EY",
        "F^"
      ],
      [
        "1",
        "\""
      ],
      [
        "4",
        ":"
      ],
      [
        "a",
        "\""
      ],
      [
        "\"",
        "!\""
      ],
      [
        "a",
        "č"
      ],
      [
        "'",
        "[D"
      ],
      [
        "?",
        "?"
      ],
      [
        "\\",
        "KĖ"
      ],
      [
        "fX",
        "WĖ"
      ],
      [
        "^",
        "Z"
      ],
      [
        "#",
        "+"
      ],
      [
        "8",
        "5"
      ],
      [
        "F",
        "S%n"
      ],
      [
        "F",
        "UVĖ"
      ],
      [
        ";9",
        "FX"
      ],
      [
        "-",
        "7"
      ],
      [
        "-$",
        "p"
      ],
      [
        ".",
        "%"
      ],
      [
        "G",
        "S"
      ],
      [
        "Ą",
        "ZUĒ"
      ],
      [
        "W",
        "Y"
      ],
      [
        "/8",
        "9]^"
      ],
      [
        "$Z",
        "QFĖ"
      ],
      [
        "\"",
        "+l"
      ],
      [
        "#",
        "="
      ],
      [
        "P",
        "I"
      ],
      [
        "Ē",
        "y"
      ],
      [
        ")/",
        "8p"
      ],
      [
        "'",
        "'"
      ],
      [
        "Ġ",
        "%"
      ],
      [
        "88",
        "SD"
      ],
      [
        "F",
        "U"
      ],
      [
        "7",
        "'"
      ],
      [
        "8",
        "5VĐ"
      ],
      [
        "W",
        "_"
      ],
      [
        "a",
        "+"
      ],
      [
        "FX",
        "SB"
      ],
      [
        "$",
        "1"
      ],
      [
        "/",
        "=l"
      ],
      [
        "Ę",
        "8WĐ"
      ],
      [
        "S",
        "S"
      ],
      [
        "Ē",
        "Q\\Ra"
      ],
      [
        "#6",
        "ĒDZSa"
      ],
      [
        "/?",
        "\\"
      ],
      [
        "%",
        "4"
      ],
      [
        "3",
        ":"
      ],
      [
        "Ē",
        "ġ"
      ],
      [
        "\"&",
        "l"
      ],
      [
        "5&",
        "-$"
      ],
      [
        "Sa",
        ":"
      ],
      [
        "$",
        "+"
      ],
      [
        "6'",
        "88"
      ],
      [
        "$",
        "/"
      ],
      [
        "&",
        "WB"
      ],
      [
        ")",
        "9"
      ],
      [
        "3",
        "]^"
      ],
      [
        "Ē",
        "z"
      ],
      [
        "]V",
        "ĒB)+l"
      ],
      [
        "]",
        "R"
      ],
      [
        "W",
        "/*l"
      ],
      [
        "-",
        "Ġ"
      ],
      [
        "?",
        "#"
      ],
      [
        "S",
        "Q"
      ],
      [
        "a",
        "ă"
      ],
      [
        "]P",
        "a:$5Ē"
      ],
      [
        "a9",
        "-#Ē"
      ],
      [
        "@",
        "C"
      ],
      [
        "]",
        "T"
      ],
      [
        "$<",
        ")p"
      ],
      [
        "W^",
        "FĖ"
      ],
      [
        ":",
        "9"
      ],
      [
        "[",
        "Ea"
      ],
      [
        "Ē",
        "|"
      ],
      [
        "'!>",
        "p"
      ],
      [
        "-",
        "9"
      ],
      [
        "@",
        "E"
      ],
      [
        "\"",
        "'"
      ],
      [
        "2",
        "+l"
      ],
      [
        "?TĐ",
        "F^$n"
      ],
      [
        "(",
        "%"
      ],
      [
        "5",
        "+l"
      ],
      [
        ".",
        "8"
      ],
      [
        "a!*p",
        "FXWĖ"
      ],
      [
        "%",
        "$ZĐ"
      ],
      [
        "WB",
        "WĖ"
      ],
      [
        "(:",
        "$p"
      ],
      [
        "$Ġ",
        "8p"
      ],
      [
        "'[D",
        "ZĖ"
      ],
      [
        "Ġ",
        "8"
      ],
      [
        ",",
        "+l"
      ],
      [
        "2",
        ";"
      ],
      [
        "5",
        ":"
      ],
      [
        "5",
        "+>"
      ],
      [
        "E",
        "S"
      ],
      [
        ")>",
        "FĐ"
      ],
      [
        "B",
        "W"
      ],
      [
        "Ġ",
        ")Ē"
      ],
      [
        "]",
        "_"
      ],
      [
        "#",
        "7l"
      ],
      [
        "/",
        "5Ē"
      ],
      [
        "89",
        "]^"
      ],
      [
        "/",
        "1"
      ],
      [
        "T_@",
        "Ė"
      ],
      [
        "a/",
        "?p"
      ],
      [
        "9",
        "$"
      ],
      [
        "U",
        "E"
      ],
      [
        "ĒDZ",
        "W"
      ],
      [
        "-\"",
        "l"
      ],
      [
        "/",
        "+l"
      ],
      [
        "$",
        "WB"
      ],
      [
        "F",
        "U@"
      ],
      [
        "*",
        "\""
      ],
      [
        "a",
        "Č"
      ],
      [
        "Ġ",
        "5Ē"
      ],
      [
        "*",
        "?@Đ"
      ],
      [
        "5",
        "+>p"
      ],
      [
        "7",
        "+l"
      ],
      [
        "Q",
        "U"
      ],
      [
        "Y",
        "\\Q"
      ],
      [
        "B",
        "Z"
      ],
      [
        "(",
        "#\""
      ],
      [
        "(",
        "!\""
      ],
      [
        "#",
        ";"
      ],
      [
        "$",
        ">"
      ],
      [
        "3",
        "/"
      ],
      [
        "V",
        "E"
      ],
      [
        "F_",
        ".Ġl"
      ],
      [
        "P",
        "C"
      ],
      [
        "F",
        "I"
      ],
      [
        "a",
        "'\""
      ],
      [
        "a:$",
        "1FĐ"
      ],
      [
        "$",
        "5"
      ],
      [
        ")",
        "!"
      ],
      [
        "Q",
        "["
      ],
      [
        "W",
        "]"
      ]
    ]
  }
}