{
  "version": "1.0",
  "truncation": null,
  "padding": null,
  "added_tokens": [
    {
      "id": 0,
      "content": "<pad>",
      "single_word": false,
      "lstrip": false,
      "rstrip": false,
      "normalized": false,
      "special": true
    },
    {
      "id": 1,
      "content": "<unk>",
      "single_word": false,
      "lstrip": false,
      "rstrip": false,
      "normalized": false,
      "special": true
    },
    {
      "id": 2,
      "content": "<bos>",
      "single_word": false,
      "lstrip": false,
      "rstrip": false,
      "normalized": false,
      "special": true
    },
    {
      "id": 3,
      "content": "<eos>",
      "single_word": false,
      "lstrip": false,
      "rstrip": false,
      "normalized": false,
      "special": true
    }
  ],
  "normalizer": null,
  "pre_tokenizer": {
    "type": "ByteLevel",
    "add_prefix_space": false,
    "trim_offsets": true,
    "use_regex": true
  },
  "post_processor": null,
  "decoder": {
    "type": "ByteLevel",
    "add_prefix_space": true,
    "trim_offsets": true,
    "use_regex": true
  },
  "model": {
    "type": "BPE",
    "dropout": null,
    "unk_token": "<unk>",
    "continuing_subword_prefix": null,
    "end_of_word_suffix": null,
    "fuse_unk": false,
    "byte_fallback": false,
    "ignore_merges": false,
    "vocab": {
      "<pad>": 0,
      "<unk>": 1,
      "<bos>": 2,
      "<eos>": 3,
      "!": 4,
      "\"": 5,
      "#": 6,
      "$": 7,
      "%": 8,
      "&": 9,
      "'": 10,
      "(": 11,
      ")": 12,
      "*": 13,
      "+": 14,
      ",": 15,
      "-": 16,
      ".": 17,
      "/": 18,
      "0": 19,
      "1": 20,
      "2": 21,
      "3": 22,
      "4": 23,
      "5": 24,
      "6": 25,
      "7": 26,
      "8": 27,
      "9": 28,
      ":": 29,
      ";": 30,
      "<": 31,
      "=": 32,
      ">": 33,
      "?": 34,
      "@": 35,
      "A": 36,
      "B": 37,
      "C": 38,
      "D": 39,
      "E": 40,
      "F": 41,
      "G": 42,
      "H": 43,
      "I": 44,
      "J": 45,
      "K": 46,
      "L": 47,
      "M": 48,
      "N": 49,
      "O": 50,
      "P": 51,
      "Q": 52,
      "R": 53,
      "S": 54,
      "T": 55,
      "U": 56,
      "V": 57,
      "W": 58,
      "X": 59,
      "Y": 60,
      "Z": 61,
      "[": 62,
      "\\": 63,
      "]": 64,
      "^": 65,
      "_": 66,
      "`": 67,
      "a": 68,
      "b": 69,
      "c": 70,
      "d": 71,
      "e": 72,
      "f": 73,
      "g": 74,
      "h": 75,
      "i": 76,
      "j": 77,
      "k": 78,
      "l": 79,
      "m": 80,
      "n": 81,
      "o": 82,
      "p": 83,
      "q": 84,
      "r": 85,
      "s": 86,
      "t": 87,
      "u": 88,
      "v": 89,
      "w": 90,
      "x": 91,
      "y": 92,
      "z": 93,
      "{": 94,
      "|": 95,
      "}": 96,
      "~": 97,
      "¡": 98,
      "¢": 99,
      "£": 100,
      "¤": 101,
      "¥": 102,
      "¦": 103,
      "§": 104,
      "¨": 105,
      "©": 106,
      "ª": 107,
      "«": 108,
      "¬": 109,
      "®": 110,
      "¯": 111,
      "°": 112,
      "±": 113,
      "²": 114,
      "³": 115,
      "´": 116,
      "µ": 117,
      "¶": 118,
      "·": 119,
      "¸": 120,
      "¹": 121,
      "º": 122,
      "»": 123,
      "¼": 124,
      "½": 125,
      "¾": 126,
      "¿": 127,
      "À": 128,
      "Á": 129,
      "Â": 130,
      "Ã": 131,
      "Ä": 132,
      "Å": 133,
      "Æ": 134,
      "Ç": 135,
      "È": 136,
      "É": 137,
      "Ê": 138,
      "Ë": 139,
      "Ì": 140,
      "Í": 141,
      "Î": 142,
      "Ï": 143,
      "Ð": 144,
      "Ñ": 145,
      "Ò": 146,
      "Ó": 147,
      "Ô": 148,
      "Õ": 149,
      "Ö": 150,
      "×": 151,
      "Ø": 152,
      "Ù": 153,
      "Ú": 154,
      "Û": 155,
      "Ü": 156,
      "Ý": 157,
      "Þ": 158,
      "ß": 159,
      "à": 160,
      "á": 161,
      "â": 162,
      "ã": 163,
      "ä": 164,
      "å": 165,
      "æ": 166,
      "ç": 167,
      "è": 168,
      "é": 169,
      "ê": 170,
      "ë": 171,
      "ì": 172,
      "í": 173,
      "î": 174,
      "ï": 175,
      "ð": 176,
      "ñ": 177,
      "ò": 178,
      "ó": 179,
      "ô": 180,
      "õ": 181,
      "ö": 182,
      "÷": 183,
      "ø": 184,
      "ù": 185,
      "ú": 186,
      "û": 187,
      "ü": 188,
      "ý": 189,
      "þ": 190,
      "ÿ": 191,
      "Ā": 192,
      "ā": 193,
      "Ă": 194,
      "ă": 195,
      "Ą": 196,
      "ą": 197,
      "Ć": 198,
      "ć": 199,
      "Ĉ": 200,
      "ĉ": 201,
      "Ċ": 202,
      "ċ": 203,
      "Č": 204,
      "č": 205,
      "Ď": 206,
      "ď": 207,
      "Đ": 208,
      "đ": 209,
      "Ē": 210,
      "ē": 211,
      "Ĕ": 212,
      "ĕ": 213,
      "Ė": 214,
      "ė": 215,
      "Ę": 216,
      "ę": 217,
      "Ě": 218,
      "ě": 219,
      "Ĝ": 220,
      "ĝ": 221,
      "Ğ": 222,
      "ğ": 223,
      "Ġ": 224,
      "ġ": 225,
      "Ģ": 226,
      "ģ": 227,
      "Ĥ": 228,
      "ĥ": 229,
      "Ħ": 230,
      "ħ": 231,
      "Ĩ": 232,
      "ĩ": 233,
      "Ī": 234,
      "ī": 235,
      "Ĭ": 236,
      "ĭ": 237,
      "Į": 238,
      "į": 239,
      "İ": 240,
      "ı": 241,
      "Ĳ": 242,
      "ĳ": 243,
      "Ĵ": 244,
      "ĵ": 245,
      "Ķ": 246,
      "ķ": 247,
      "ĸ": 248,
      "Ĺ": 249,
      "ĺ": 250,
      "Ļ": 251,
      "ļ": 252,
      "Ľ": 253,
      "ľ": 254,
      "Ŀ": 255,
      "ŀ": 256,
      "Ł": 257,
      "ł": 258,
      "Ń": 259,
      "Ġt": 260,
      "he": 261,
      "Ġa": 262,
      "in": 263,
      "Ġthe": 264,
      "er": 265,
      "on": 266,
      "Ġs": 267,
      "ed": 268,
      "re": 269,
      "Ġw": 270,
      "Ġo": 271,
      "nd": 272,
      "at": 273,
      "or": 274,
      "it": 275,
      "Ġf": 276,
      "en": 277,
      "Ġc": 278,
      "es": 279,
      "ar": 280,
      "an": 281,
      "Ġof": 282,
      "is": 283,
      "Ġin": 284,
      "Ġb": 285,
      "al": 286,
      "ing": 287,
      "Ġp": 288,
      "as": 289,
      "Ġand": 290,
      "Ġto": 291,
      "ro": 292,
      "Ġm": 293,
      "ic": 294,
      "Ġd": 295,
      "Ġh": 296,
      "ion": 297,
      "ou": 298,
      "le": 299,
      "ĠT": 300,
      "Ġre": 301,
      "il": 302,
      "Ġth": 303,
      "ĠS": 304,
      "ĠA": 305,
      "ent": 306,
      "st": 307,
      "ad": 308,
      "Ġl": 309,
      "ĠC": 310,
      "Ġe": 311,
      "Ġn": 312,
      "ac": 313,
      "Ġwas": 314,
      "ly": 315,
      "am": 316,
      "om": 317,
      "ur": 318,
      "ĠM": 319,
      "ĠB": 320,
      "Ġon": 321,
      "Ġbe": 322,
      "ol": 323,
      "ir": 324,
      "id": 325,
      "Ġg": 326,
      "ve": 327,
      "ig": 328,
      "im": 329,
      "Ġfor": 330,
      "ter": 331,
      "ct": 332,
      "ĠThe": 333,
      "ver": 334,
      "ot": 335,
      "ut": 336,
      "ĠI": 337,
      "Ġas": 338,
      "Ġst": 339,
      "ow": 340,
      "ith": 341,
      "el": 342,
      "ay": 343,
      "us": 344,
      "ĠH": 345,
      "et": 346,
      "ation": 347,
      "Ġhe": 348,
      "Ġwith": 349,
      "ce": 350,
      "ĠR": 351,
      "ĠP": 352,
      "Ġthat": 353,
      "un": 354,
      "ĠN": 355,
      "ch": 356,
      "ul": 357,
      "Ġat": 358,
      "Ġby": 359,
      "Ġal": 360,
      "Ġcon": 361,
      "em": 362,
      "ĠD": 363,
      "Ġwh": 364,
      "ĠF": 365,
      "os": 366,
      "ain": 367,
      "th": 368,
      "and": 369,
      "Ġis": 370,
      "ĠL": 371,
      "ri": 372,
      "Ġde": 373,
      "ĠW": 374,
      "ĠG": 375,
      "ĠJ": 376,
      "rom": 377,
      "Ġse": 378,
      "Ġan": 379,
      "Ġit": 380,
      "ag": 381,
      "ere": 382,
      "ist": 383,
      "um": 384,
      "ers": 385,
      "her": 386,
      "est": 387,
      "Ġr": 388,
      "Ġwere": 389,
      "ap": 390,
      "Ġfrom": 391,
      "od": 392,
      "ĠE": 393,
      "ort": 394,
      "Ġcom": 395,
      "op": 396,
      "res": 397,
      "Ġhis": 398,
      "ill": 399,
      "ate": 400,
      "igh": 401,
      "up": 402,
      "ber": 403,
      "ĠO": 404,
      "iv": 405,
      "ong": 406,
      "Ġpro": 407,
      "ich": 408,
      "if": 409,
      "ld": 410,
      "ore": 411,
      "ian": 412,
      "ak": 413,
      "ew": 414,
      "ies": 415,
      "ip": 416,
      "ĠU": 417,
      "all": 418,
      "ated": 419,
      "ĠK": 420,
      "ity": 421,
      "qu": 422,
      "pe": 423,
      "se": 424,
      "Ġv": 425,
      "art": 426,
      "Ġsh": 427,
      "ard": 428,
      "Ġpl": 429,
      "oc": 430,
      "gh": 431,
      "ive": 432,
      "Ġhad": 433,
      "ust": 434,
      "ĠSt": 435,
      "ant": 436,
      "our": 437,
      "ud": 438,
      "ab": 439,
      "Ġor": 440,
      "ment": 441,
      "ack": 442,
      "Ġex": 443,
      "av": 444,
      "und": 445,
      "cl": 446,
      "Ġk": 447,
      "ess": 448,
      "ge": 449,
      "ame": 450,
      "Ġwhich": 451,
      "ast": 452,
      "ra": 453,
      "Ġsu": 454,
      "ĠIn": 455,
      "Ġare": 456,
      "ight": 457,
      "Ġch": 458,
      "ĠCh": 459,
      "ial": 460,
      "ost": 461,
      "out": 462,
      "Ġnot": 463,
      "ish": 464,
      "rit": 465,
      "ary": 466,
      "ia": 467,
      "pt": 468,
      "ord": 469,
      "ine": 470,
      "Ġar": 471,
      "ear": 472,
      "Ġle": 473,
      "oun": 474,
      "ction": 475,
      "Ġy": 476,
      "fter": 477,
      "Ġun": 478,
      "og": 479,
      "ru": 480,
      "ave": 481,
      "ide": 482,
      "ass": 483,
      "ond": 484,
      "Ġint": 485,
      "ĠHe": 486,
      "so": 487,
      "Ġcont": 488,
      "Ġro": 489,
      "ical": 490,
      "ry": 491,
      "ell": 492,
      "Ġtheir": 493,
      "pl": 494,
      "ther": 495,
      "ign": 496,
      "wo": 497,
      "Ġfir": 498,
      "ould": 499,
      "own": 500,
      "per": 501,
      "port": 502,
      "cc": 503,
      "ous": 504,
      "Ġalso": 505,
      "ie": 506,
      "ĠV": 507,
      "Ġits": 508,
      "ue": 509,
      "ition": 510,
      "mer": 511,
      "ff": 512,
      "Ġbut": 513,
      "The": 514,
      "ure": 515,
      "low": 516,
      "ime": 517,
      "ome": 518,
      "Ġwhe": 519,
      "ork": 520,
      "ran": 521,
      "Ġfirst": 522,
      "Ġcl": 523,
      "te": 524,
      "man": 525,
      "ted": 526,
      "ree": 527,
      "Ġper": 528,
      "Ġab": 529,
      "Ġag": 530,
      "uring": 531,
      "Ġone": 532,
      "hed": 533,
      "age": 534,
      "ire": 535,
      "ok": 536,
      "ater": 537,
      "Ġres": 538,
      "Ġad": 539,
      "Ġbeen": 540,
      "ved": 541,
      "Ġtwo": 542,
      "Ġcomp": 543,
      "ugh": 544,
      "ik": 545,
      "Ġus": 546,
      "Ġsc": 547,
      "ub": 548,
      "ach": 549,
      "Ġhave": 550,
      "Ġhas": 551,
      "ens": 552,
      "ts": 553,
      "Ġafter": 554,
      "Ġrec": 555,
      "ile": 556,
      "iz": 557,
      "Ġte": 558,
      "ral": 559,
      "ough": 560,
      "ence": 561,
      "over": 562,
      "Ġap": 563,
      "Ġpart": 564,
      "ib": 565,
      "ren": 566,
      "Ġj": 567,
      "ally": 568,
      "ound": 569,
      "clud": 570,
      "Ġim": 571,
      "Ġover": 572,
      "Ġoff": 573,
      "Ġthis": 574,
      "ĠY": 575,
      "Ġatt": 576,
      "Ġwho": 577,
      "ect": 578,
      "aw": 579,
      "att": 580,
      "orm": 581,
      "Ġdes": 582,
      "Ġdis": 583,
      "ark": 584,
      "ron": 585,
      "ations": 586,
      "Ġher": 587,
      "ĠTh": 588,
      "Ġbec": 589,
      "Ġen": 590,
      "Ġthey": 591,
      "ult": 592,
      "ace": 593,
      "ade": 594,
      "Ġout": 595,
      "Ġup": 596,
      "ress": 597,
      "ces": 598,
      "Ġinclud": 599,
      "land": 600,
      "ĠIt": 601,
      "ind": 602,
      "ward": 603,
      "Ġtime": 604,
      "urn": 605,
      "orth": 606,
      "Ġser": 607,
      "ice": 608,
      "Ġplay": 609,
      "Ġcomm": 610,
      "Ġman": 611,
      "Ġev": 612,
      "ĠSe": 613,
      "Ġne": 614,
      "Ġinto": 615,
      "Ġyear": 616,
      "ions": 617,
      "ced": 618,
      "ied": 619,
      "ose": 620,
      "iss": 621,
      "rough": 622,
      "act": 623,
      "ove": 624,
      "du": 625,
      "ric": 626,
      "ph": 627,
      "ll": 628,
      "Ġother": 629,
      "Ġpre": 630,
      "Ġrem": 631,
      "ance": 632,
      "ĠUn": 633,
      "ft": 634,
      "Ġwe": 635,
      "old": 636,
      "ited": 637,
      "Ġfil": 638,
      "we": 639,
      "outh": 640,
      "ount": 641,
      "ĠAust": 642,
      "Ġduring": 643,
      "ite": 644,
      "round": 645,
      "Ġwould": 646,
      "ĠRe": 647,
      "Ġinter": 648,
      "oin": 649,
      "Ġtr": 650,
      "vi": 651,
      "Ġhim": 652,
      "Ġmore": 653,
      "ased": 654,
      "les": 655,
      "are": 656,
      "Ġagain": 657,
      "Ġund": 658,
      "ĠAn": 659,
      "ail": 660,
      "ne": 661,
      "ered": 662,
      "ory": 663,
      "Ġall": 664,
      "ĠDe": 665,
      "gan": 666,
      "ates": 667,
      "Ġsec": 668,
      "ines": 669,
      "ors": 670,
      "one": 671,
      "end": 672,
      "way": 673,
      "ang": 674,
      "ason": 675,
      "ĠAr": 676,
      "ĠBrit": 677,
      "Ġfilm": 678,
      "Ġshe": 679,
      "iver": 680,
      "oy": 681,
      "hip": 682,
      "Ġear": 683,
      "ollow": 684,
      "Ġthem": 685,
      "amp": 686,
      "ase": 687,
      "vel": 688,
      "Ġdef": 689,
      "Ġunder": 690,
      "Ġcons": 691,
      "ck": 692,
      "Ġspe": 693,
      "ings": 694,
      "uil": 695,
      "Ġthree": 696,
      "ents": 697,
      "ican": 698,
      "ss": 699,
      "Ġsup": 700,
      "Ġwork": 701,
      "Ġonly": 702,
      "Ġmost": 703,
      "able": 704,
      "Ġfl": 705,
      "fer": 706,
      "wn": 707,
      "ĠUS": 708,
      "Ġair": 709,
      "ĠAmer": 710,
      "Ġbet": 711,
      "ision": 712,
      "Ġpos": 713,
      "ick": 714,
      "ĠAustral": 715,
      "Ġcent": 716,
      "rib": 717,
      "Ġret": 718,
      "ational": 719,
      "ock": 720,
      "Ġsp": 721,
      "reat": 722,
      "ĠCom": 723,
      "ons": 724,
      "ank": 725,
      "Ġthrough": 726,
      "Ġend": 727,
      "Ġnew": 728,
      "tern": 729,
      "Ġass": 730,
      "Ġnum": 731,
      "Ġfe": 732,
      "ubl": 733,
      "oth": 734,
      "olog": 735,
      "rop": 736,
      "Ġsub": 737,
      "Ġwhen": 738,
      "ĠNew": 739,
      "Ġfin": 740,
      "red": 741,
      "cted": 742,
      "Ġreg": 743,
      "ob": 744,
      "ood": 745,
      "Ġabout": 746,
      "ters": 747,
      "Ġfour": 748,
      "Ġday": 749,
      "ween": 750,
      "fore": 751,
      "ning": 752,
      "Ġhead": 753,
      "mber": 754,
      "Ġship": 755,
      "Ġgro": 756,
      "Ġkn": 757,
      "az": 758,
      "Ġcol": 759,
      "ict": 760,
      "ual": 761,
      "aus": 762,
      "Ġlater": 763,
      "ix": 764,
      "Ġme": 765,
      "Ġfollow": 766,
      "Ġwhile": 767,
      "aid": 768,
      "Ġpe": 769,
      "ake": 770,
      "ating": 771,
      "ans": 772,
      "Ġseason": 773,
      "Ġwar": 774,
      "ener": 775,
      "ug": 776,
      "ĠMar": 777,
      "ĠGer": 778,
      "ember": 779,
      "Ġwhere": 780,
      "Ġsome": 781,
      "ĠBritish": 782,
      "Ġbetween": 783,
      "In": 784,
      "ped": 785,
      "Ġcar": 786,
      "Ġmon": 787,
      "ained": 788,
      "Ġteam": 789,
      "ĠZ": 790,
      "Ġinv": 791,
      "Ġam": 792,
      "Ġop": 793,
      "aj": 794,
      "ities": 795,
      "Ġlar": 796,
      "Ġbuil": 797,
      "ĠSh": 798,
      "Ġsong": 799,
      "Ġrel": 800,
      "Ġthan": 801,
      "Ġmade": 802,
      "ĠAl": 803,
      "Ġprodu": 804,
      "Ġform": 805,
      "ike": 806,
      "bum": 807,
      "Ġsever": 808,
      "ĠGerman": 809,
      "Ġarm": 810,
      "ĠWar": 811,
      "ĠInd": 812,
      "Ġsur": 813,
      "Ġbefore": 814,
      "ĠOn": 815,
      "Ġrecord": 816,
      "Ġsecond": 817,
      "Ġnumber": 818,
      "Ġact": 819,
      "overn": 820,
      "Ġbeing": 821,
      "ĠAmerican": 822,
      "Ġagainst": 823,
      "Ġgame": 824,
      "Ġhigh": 825,
      "ĠSc": 826,
      "ook": 827,
      "Ġcity": 828,
      "Ġrele": 829,
      "ient": 830,
      "als": 831,
      "ton": 832,
      "ull": 833,
      "Ġalbum": 834,
      "Ġused": 835,
      "Ġchar": 836,
      "ific": 837,
      "Ġapp": 838,
      "Ġpr": 839,
      "Ġthere": 840,
      "Ġloc": 841,
      "orld": 842,
      "io": 843,
      "Ġperf": 844,
      "Ġacc": 845,
      "Ġgun": 846,
      "ower": 847,
      "Ġattack": 848,
      "rans": 849,
      "Ġbatt": 850,
      "ĠMan": 851,
      "apan": 852,
      "Ġcontin": 853,
      "ever": 854,
      "ek": 855,
      "ath": 856,
      "ĠJapan": 857,
      "ular": 858,
      "hes": 859,
      "Ġinc": 860,
      "Ġinf": 861,
      "Ġem": 862,
      "avy": 863,
      "Ġseveral": 864,
      "yl": 865,
      "ious": 866,
      "ince": 867,
      "iel": 868,
      "Ġso": 869,
      "Ġac": 870,
      "ished": 871,
      "Ġback": 872,
      "ames": 873,
      "Ġco": 874,
      "Ġbecame": 875,
      "Ġoper": 876,
      "velop": 877,
      "ĠMay": 878,
      "Ġent": 879,
      "though": 880,
      "ĠLes": 881,
      "ians": 882,
      "ĠUnited": 883,
      "son": 884,
      "Ġalong": 885,
      "ey": 886,
      "Ġmet": 887,
      "ĠAt": 888,
      "Ġsuch": 889,
      "Ġdesign": 890,
      "Ġincluding": 891,
      "Ġboth": 892,
      "Ġmat": 893,
      "pr": 894,
      "Ġsm": 895,
      "Ġwell": 896,
      "Ġpubl": 897,
      "Ġind": 898,
      "Ġpol": 899,
      "Ġspec": 900,
      "air": 901,
      "ov": 902,
      "ised": 903,
      "other": 904,
      "emb": 905,
      "Ġthen": 906,
      "ĠAs": 907,
      "ĠCl": 908,
      "ures": 909,
      "elf": 910,
      "ross": 911,
      "Ġver": 912,
      "ĠBe": 913,
      "pos": 914,
      "Ġcap": 915,
      "Ġno": 916,
      "ese": 917,
      "ier": 918,
      "Ġqu": 919,
      "Ġmain": 920,
      "Ġgovern": 921,
      "ject": 922,
      "Ġsy": 923,
      "owever": 924,
      "Ġdec": 925,
      "alled": 926,
      "ven": 927,
      "ert": 928,
      "Ġmin": 929,
      "Ġbegan": 930,
      "Ġmil": 931,
      "Ġest": 932,
      "der": 933,
      "Ġpo": 934,
      "Ġadd": 935,
      "Ġmany": 936,
      "uch": 937,
      "its": 938,
      "Ġrep": 939,
      "ting": 940,
      "Ġfound": 941,
      "ĠLe": 942,
      "Ġtrans": 943,
      "Ġbl": 944,
      "Ġwrit": 945,
      "rap": 946,
      "ued": 947,
      "ury": 948,
      "ĠNorth": 949,
      "Ġthese": 950,
      "Ġcan": 951,
      "Ġdevelop": 952,
      "Ġappe": 953,
      "une": 954,
      "ten": 955,
      "Ġsign": 956,
      "Ġele": 957,
      "ram": 958,
      "Ġcould": 959,
      "aced": 960,
      "Ġmus": 961,
      "Ġlong": 962,
      "ute": 963,
      "Ġgroup": 964,
      "ists": 965,
      "ative": 966,
      "Ġmill": 967,
      "ĠThis": 968,
      "Ġdid": 969,
      "ived": 970,
      "Ġsing": 971,
      "ĠShe": 972,
      "ah": 973,
      "ero": 974,
      "Ġyears": 975,
      "ober": 976,
      "igin": 977,
      "ĠSept": 978,
      "Ġknown": 979,
      "Ġdo": 980,
      "ĠSeptember": 981,
      "ful": 982,
      "ise": 983,
      "Ġpres": 984,
      "stru": 985,
      "ident": 986,
      "Ġter": 987,
      "hen": 988,
      "ily": 989,
      "urch": 990,
      "ern": 991,
      "Ġdire": 992,
      "Ġart": 993,
      "Ġreturn": 994,
      "ep": 995,
      "Ġnorth": 996,
      "Ġkm": 997,
      "Ġlike": 998,
      "ĠCol": 999,
      "ured": 1000,
      "Ġdep": 1001,
      "ics": 1002,
      "Ġdown": 1003,
      "Ġrece": 1004,
      "ments": 1005,
      "Ġlead": 1006,
      "erv": 1007,
      "Ġland": 1008,
      "Ġcomple": 1009,
      "Ġsaid": 1010,
      "raft": 1011,
      "ield": 1012,
      "ared": 1013,
      "aking": 1014,
      "Ġfeat": 1015,
      "Ġsmall": 1016,
      "ets": 1017,
      "Ġearly": 1018,
      "Ġbro": 1019,
      "Ġhist": 1020,
      "orn": 1021,
      "Ġpop": 1022,
      "ĠComm": 1023,
      "Ġob": 1024,
      "Ġcre": 1025,
      "ange": 1026,
      "ople": 1027,
      "Ġaround": 1028,
      "nar": 1029,
      "ĠPol": 1030,
      "Ġany": 1031,
      "xt": 1032,
      "ars": 1033,
      "iron": 1034,
      "Ġoffic": 1035,
      "ale": 1036,
      "Ġnear": 1037,
      "ĠJan": 1038,
      "ĠPh": 1039,
      "oh": 1040,
      "oss": 1041,
      "Ġarea": 1042,
      "ĠBl": 1043,
      "Ġpers": 1044,
      "ajor": 1045,
      "Ġlarge": 1046,
      "Ġset": 1047,
      "Ġshow": 1048,
      "ple": 1049,
      "ided": 1050,
      "ause": 1051,
      "ĠAug": 1052,
      "Ġseries": 1053,
      "ĠAugust": 1054,
      "ool": 1055,
      "oot": 1056,
      "ather": 1057,
      "hern": 1058,
      "Ġorigin": 1059,
      "Ġtem": 1060,
      "int": 1061,
      "Ġgod": 1062,
      "ized": 1063,
      "Ġsupport": 1064,
      "ke": 1065,
      "rist": 1066,
      "ivision": 1067,
      "ually": 1068,
      "eb": 1069,
      "Ġdif": 1070,
      "Ġconc": 1071,
      "ible": 1072,
      "pan": 1073,
      "osp": 1074,
      "quad": 1075,
      "til": 1076,
      "Ġinst": 1077,
      "Ġstart": 1078,
      "ĠJapanese": 1079,
      "ĠSouth": 1080,
      "ctor": 1081,
      "ĠEn": 1082,
      "ĠOct": 1083,
      "ccess": 1084,
      "ĠAfter": 1085,
      "Ġep": 1086,
      "Ġcharac": 1087,
      "oad": 1088,
      "itt": 1089,
      "Ġtook": 1090,
      "Ġdisc": 1091,
      "Ġfollowing": 1092,
      "Ġwin": 1093,
      "side": 1094,
      "ats": 1095,
      "ored": 1096,
      "Ġforces": 1097,
      "ĠJune": 1098,
      "ĠNove": 1099,
      "Ġuntil": 1100,
      "ropical": 1101,
      "Ġdam": 1102,
      "gest": 1103,
      "Ġprom": 1104,
      "Ġstr": 1105,
      "aining": 1106,
      "Ġplan": 1107,
      "ĠLesnar": 1108,
      "ĠNovember": 1109,
      "Ġcalled": 1110,
      "ism": 1111,
      "ina": 1112,
      "Ġsouth": 1113,
      "ĠBatt": 1114,
      "Ġposition": 1115,
      "ĠCon": 1116,
      "Ġgener": 1117,
      "ified": 1118,
      "oved": 1119,
      "view": 1120,
      "ĠAustralian": 1121,
      "ĠOctober": 1122,
      "Ġtro": 1123,
      "Ġgu": 1124,
      "Ġreleased": 1125,
      "led": 1126,
      "Ġgo": 1127,
      "rench": 1128,
      "Ġopen": 1129,
      "Ġadv": 1130,
      "ev": 1131,
      "Ġcrit": 1132,
      "Ġbr": 1133,
      "Ġpass": 1134,
      "amed": 1135,
      "ty": 1136,
      "ĠCar": 1137,
      "idge": 1138,
      "imes": 1139,
      "ĠIs": 1140,
      "ipp": 1141,
      "Ġsix": 1142,
      "ĠAll": 1143,
      "Ġstate": 1144,
      "ung": 1145,
      "Ġprov": 1146,
      "ĠYork": 1147,
      "ivers": 1148,
      "oon": 1149,
      "Ġocc": 1150,
      "Ġbo": 1151,
      "Ġport": 1152,
      "ĠFor": 1153,
      "ĠFrench": 1154,
      "Ġclass": 1155,
      "Ġwind": 1156,
      "oci": 1157,
      "wards": 1158,
      "quadron": 1159,
      "crib": 1160,
      "ned": 1161,
      "Ġincluded": 1162,
      "ones": 1163,
      "Ġtop": 1164,
      "Ġkill": 1165,
      "Ġpeople": 1166,
      "Ġsince": 1167,
      "ains": 1168,
      "Ġdist": 1169,
      "Ġreport": 1170,
      "ode": 1171,
      "ops": 1172,
      "ĠStates": 1173,
      "Ġcommand": 1174,
      "Ġfive": 1175,
      "chool": 1176,
      "riv": 1177,
      "ission": 1178,
      "ball": 1179,
      "arch": 1180,
      "urther": 1181,
      "Ġgovernment": 1182,
      "my": 1183,
      "ash": 1184,
      "Ġref": 1185,
      "Ġbel": 1186,
      "ately": 1187,
      "ology": 1188,
      "ler": 1189,
      "Ġdest": 1190,
      "Ġrun": 1191,
      "Ġsuccess": 1192,
      "craft": 1193,
      "Ġeff": 1194,
      "ues": 1195,
      "Ġiron": 1196,
      "ĠBr": 1197,
      "ially": 1198,
      "ĠMe": 1199,
      "Ġconf": 1200,
      "ctions": 1201,
      "Ġuse": 1202,
      "ird": 1203,
      "ution": 1204,
      "ives": 1205,
      "Ġvar": 1206,
      "Ġships": 1207,
      "ax": 1208,
      "Ġown": 1209,
      "Ġbuilt": 1210,
      "Ġpublic": 1211,
      "ĠAd": 1212,
      "Ġstorm": 1213,
      "Ġplace": 1214,
      "ĠChrist": 1215,
      "Ġconsid": 1216,
      "Ġmusic": 1217,
      "uary": 1218,
      "Ġweek": 1219,
      "gy": 1220,
      "Ġsame": 1221,
      "Ġcount": 1222,
      "ask": 1223,
      "Ġmod": 1224,
      "uss": 1225,
      "ired": 1226,
      "ĠWorld": 1227,
      "oute": 1228,
      "Ġmatch": 1229,
      "Ġann": 1230,
      "ife": 1231,
      "ĠScient": 1232,
      "ohn": 1233,
      "ility": 1234,
      "empt": 1235,
      "Ġepis": 1236,
      "Ġthough": 1237,
      "Ġstud": 1238,
      "Ġeach": 1239,
      "ĠPhil": 1240,
      "Ġgr": 1241,
      "Ġjust": 1242,
      "Ġdescrib": 1243,
      "Ġsingle": 1244,
      "itary": 1245,
      "Ġpoin": 1246,
      "ila": 1247,
      "Ġstru": 1248,
      "Ġserv": 1249,
      "uro": 1250,
      "Ġturn": 1251,
      "ene": 1252,
      "Ġpower": 1253,
      "Ġalthough": 1254,
      "Ġmillion": 1255,
      "Ġreceived": 1256,
      "ĠRoute": 1257,
      "Ġplayed": 1258,
      "vent": 1259,
      "Ġhal": 1260,
      "Ġeast": 1261,
      "ĠWh": 1262,
      "ĠJu": 1263,
      "aged": 1264,
      "ĠEd": 1265,
      "ording": 1266,
      "ĠDece": 1267,
      "embers": 1268,
      "ĠJanuary": 1269,
      "row": 1270,
      "Ġpartic": 1271,
      "ĠDecember": 1272,
      "ins": 1273,
      "Ġcour": 1274,
      "ane": 1275,
      "alk": 1276,
      "Ġmajor": 1277,
      "aving": 1278,
      "ger": 1279,
      "ined": 1280,
      "ĠApr": 1281,
      "Ġheld": 1282,
      "ĠNo": 1283,
      "Ġext": 1284,
      "Ġcontro": 1285,
      "Ġappro": 1286,
      "ĠApril": 1287,
      "Ġrest": 1288,
      "ĠThey": 1289,
      "Ġleft": 1290,
      "vious": 1291,
      "ai": 1292,
      "Ġty": 1293,
      "ached": 1294,
      "ides": 1295,
      "ĠNero": 1296,
      "ement": 1297,
      "ĠJohn": 1298,
      "orman": 1299,
      "Ġfire": 1300,
      "arr": 1301,
      "omin": 1302,
      "antry": 1303,
      "Ġaircraft": 1304,
      "stem": 1305,
      "cept": 1306,
      "Ġvi": 1307,
      "Ġimp": 1308,
      "Ġbuild": 1309,
      "ently": 1310,
      "Ġled": 1311,
      "Ġwithin": 1312,
      "Ġbecause": 1313,
      "ĠAng": 1314,
      "Ġperson": 1315,
      "ec": 1316,
      "ild": 1317,
      "ront": 1318,
      "Ġmen": 1319,
      "Ġrepl": 1320,
      "ĠAm": 1321,
      "ĠNational": 1322,
      "Ġresp": 1323,
      "Ġed": 1324,
      "Ġtri": 1325,
      "Ġmay": 1326,
      "ĠTe": 1327,
      "els": 1328,
      "by": 1329,
      "Ġband": 1330,
      "ĠMc": 1331,
      "ĠHowever": 1332,
      "Ġattempt": 1333,
      "Ġtrack": 1334,
      "roy": 1335,
      "ional": 1336,
      "Ġrequ": 1337,
      "Ġeven": 1338,
      "Ġcontinued": 1339,
      "Ġins": 1340,
      "Ġdue": 1341,
      "Ġever": 1342,
      "ĠGu": 1343,
      "ordan": 1344,
      "Ġguns": 1345,
      "ys": 1346,
      "Ġwest": 1347,
      "Ġfurther": 1348,
      "Ġpost": 1349,
      "ĠAir": 1350,
      "Ġnow": 1351,
      "Ġformer": 1352,
      "Ġanother": 1353,
      "ague": 1354,
      "ument": 1355,
      "Ġeng": 1356,
      "Ġtroops": 1357,
      "Ġepisode": 1358,
      "Ġmembers": 1359,
      "Ġhand": 1360,
      "ically": 1361,
      "Ġnext": 1362,
      "Ġcentury": 1363,
      "Ġsim": 1364,
      "Ġsold": 1365,
      "Ġline": 1366,
      "Ġorgan": 1367,
      "ĠJuly": 1368,
      "ham": 1369,
      "ner": 1370,
      "Ġconstru": 1371,
      "Ġft": 1372,
      "enn": 1373,
      "ural": 1374,
      "isted": 1375,
      "iod": 1376,
      "pect": 1377,
      "ged": 1378,
      "ret": 1379,
      "ĠMus": 1380,
      "aken": 1381,
      "ards": 1382,
      "tend": 1383,
      "Ġinvol": 1384,
      "Ġri": 1385,
      "Ġtra": 1386,
      "Ġside": 1387,
      "Ġthird": 1388,
      "uth": 1389,
      "Ġprevious": 1390,
      "Ġfinal": 1391,
      "por": 1392,
      "Ġcr": 1393,
      "ĠRiver": 1394,
      "ĠChurch": 1395,
      "Ġcharacter": 1396,
      "ittle": 1397,
      "ius": 1398,
      "Ġwon": 1399,
      "Ġcame": 1400,
      "abl": 1401,
      "ĠEng": 1402,
      "Ġhalf": 1403,
      "ms": 1404,
      "med": 1405,
      "Ġph": 1406,
      "Ġnort": 1407,
      "Ġnamed": 1408,
      "ays": 1409,
      "iving": 1410,
      "Ġincre": 1411,
      "ble": 1412,
      "alion": 1413,
      "ae": 1414,
      "Ġdem": 1415,
      "Ġhome": 1416,
      "ulation": 1417,
      "ĠKore": 1418,
      "ĠAustralia": 1419,
      "Ġmuch": 1420,
      "Ġlight": 1421,
      "ĠManila": 1422,
      "aim": 1423,
      "ink": 1424,
      "ĠPl": 1425,
      "Ġallow": 1426,
      "ondyl": 1427,
      "Ġmilitary": 1428,
      "ison": 1429,
      "ica": 1430,
      "ĠIm": 1431,
      "ĠDivision": 1432,
      "Ġiss": 1433,
      "Ġperforman": 1434,
      "cess": 1435,
      "ery": 1436,
      "read": 1437,
      "rote": 1438,
      "Ġname": 1439,
      "uted": 1440,
      "Ġposs": 1441,
      "Ġbelie": 1442,
      "bo": 1443,
      "Ġfam": 1444,
      "Ġdel": 1445,
      "Ġlast": 1446,
      "Ġforce": 1447,
      "ploy": 1448,
      "Ġdestroy": 1449,
      "Ġtropical": 1450,
      "Ġcare": 1451,
      "omet": 1452,
      "Ġhel": 1453,
      "Ġschool": 1454,
      "ads": 1455,
      "oll": 1456,
      "Ġwhat": 1457,
      "Ġaddition": 1458,
      "Ġcover": 1459,
      "ouse": 1460,
      "ĠMer": 1461,
      "ĠRoad": 1462,
      "ĠFran": 1463,
      "ĠFeb": 1464,
      "ĠJordan": 1465,
      "ruary": 1466,
      "Ġevent": 1467,
      "ĠFebruary": 1468,
      "Ġsent": 1469,
      "anc": 1470,
      "Ġstill": 1471,
      "resent": 1472,
      "Ġmonth": 1473,
      "min": 1474,
      "ycl": 1475,
      "Ġfew": 1476,
      "ĠMich": 1477,
      "Ġste": 1478,
      "Ġexp": 1479,
      "ideo": 1480,
      "Ġrole": 1481,
      "rent": 1482,
      "Ġdefe": 1483,
      "Ġsystem": 1484,
      "rew": 1485,
      "ĠII": 1486,
      "pend": 1487,
      "Ġperiod": 1488,
      "ospondyl": 1489,
      "ched": 1490,
      "rest": 1491,
      "Ġdeath": 1492,
      "Ġcapt": 1493,
      "Ġdiffer": 1494,
      "ness": 1495,
      "Ġsl": 1496,
      "Ġcross": 1497,
      "Ġbased": 1498,
      "ĠBut": 1499,
      "Ġord": 1500,
      "Ġresult": 1501,
      "Ġperform": 1502,
      "Ġlate": 1503,
      "ĠGener": 1504,
      "Ġexpl": 1505,
      "ĠMarch": 1506,
      "Ġmid": 1507,
      "leet": 1508,
      "Ġright": 1509,
      "Ġbattle": 1510,
      "ĠQ": 1511,
      "atter": 1512,
      "Ġpat": 1513,
      "ley": 1514,
      "ĠCan": 1515,
      "Ġbeg": 1516,
      "ĠThese": 1517,
      "Ġdays": 1518,
      "Ġdescribed": 1519,
      "lu": 1520,
      "ont": 1521,
      "eder": 1522,
      "Ġmark": 1523,
      "Ġhum": 1524,
      "self": 1525,
      "ital": 1526,
      "Ġshot": 1527,
      "uc": 1528,
      "Ġmake": 1529,
      "Ġreview": 1530,
      "ages": 1531,
      "akes": 1532,
      "aves": 1533,
      "aval": 1534,
      "Ġcontr": 1535,
      "ensive": 1536,
      "Ġestabl": 1537,
      "Ġhistory": 1538,
      "ĠScientology": 1539,
      "iam": 1540,
      "the": 1541,
      "Ġsk": 1542,
      "Ġmoved": 1543,
      "iment": 1544,
      "ants": 1545,
      "ĠArmy": 1546,
      "oyal": 1547,
      "Ġstrong": 1548,
      "Ġequ": 1549,
      "sequ": 1550,
      "Ġgods": 1551,
      "eter": 1552,
      "Ġsout": 1553,
      "Ġworld": 1554,
      "Ġold": 1555,
      "isc": 1556,
      "Ġred": 1557,
      "ĠEm": 1558,
      "ĠKing": 1559,
      "ĠGeneral": 1560,
      "ls": 1561,
      "ense": 1562,
      "lect": 1563,
      "etr": 1564,
      "Ġkilled": 1565,
      "Ġif": 1566,
      "Ġway": 1567,
      "ĠTown": 1568,
      "Ġthose": 1569,
      "ĠWe": 1570,
      "ĠChar": 1571,
      "ikal": 1572,
      "Ġlocal": 1573,
      "Ġhour": 1574,
      "ĠRich": 1575,
      "ulu": 1576,
      "Ġironcl": 1577,
      "On": 1578,
      "Ġes": 1579,
      "Ġtank": 1580,
      "Ġbeh": 1581,
      "irc": 1582,
      "Ġgreat": 1583,
      "ĠInf": 1584,
      "Ġcompan": 1585,
      "ression": 1586,
      "Ġrepresent": 1587,
      "Ġappear": 1588,
      "intulu": 1589,
      "gypt": 1590,
      "ior": 1591,
      "enc": 1592,
      "ĠCity": 1593,
      "Ġheavy": 1594,
      "Ġcommun": 1595,
      "raph": 1596,
      "ĠPhilipp": 1597,
      "pite": 1598,
      "astern": 1599,
      "Ġmove": 1600,
      "ĠTikal": 1601,
      "ĠBy": 1602,
      "ety": 1603,
      "Ġorder": 1604,
      "reet": 1605,
      "Ġwrote": 1606,
      "ĠSp": 1607,
      "ĠPro": 1608,
      "ivil": 1609,
      "Ġarch": 1610,
      "ization": 1611,
      "Ġtit": 1612,
      "atic": 1613,
      "ĠBintulu": 1614,
      "used": 1615,
      "ried": 1616,
      "ĠWill": 1617,
      "ĠEgypt": 1618,
      "ĠState": 1619,
      "Ġjoin": 1620,
      "hips": 1621,
      "get": 1622,
      "ling": 1623,
      "ream": 1624,
      "Ġfore": 1625,
      "Ġcur": 1626,
      "Ġtot": 1627,
      "ilar": 1628,
      "omb": 1629,
      "ĠGe": 1630,
      "ĠEuro": 1631,
      "Ġprog": 1632,
      "ĠReg": 1633,
      "ches": 1634,
      "nospondyl": 1635,
      "par": 1636,
      "Ġmm": 1637,
      "idian": 1638,
      "Ġgames": 1639,
      "elt": 1640,
      "Ġcomb": 1641,
      "iven": 1642,
      "Ġchild": 1643,
      "ĠEurope": 1644,
      "ping": 1645,
      "Ġtw": 1646,
      "Ġfight": 1647,
      "Ġoften": 1648,
      "ĠSquadron": 1649,
      "Ġproject": 1650,
      "Ġshort": 1651,
      "Ġnever": 1652,
      "ĠPolish": 1653,
      "AA": 1654,
      "mas": 1655,
      "ox": 1656,
      "hest": 1657,
      "Ġsite": 1658,
      "itted": 1659,
      "ann": 1660,
      "Ġinit": 1661,
      "Ġclaim": 1662,
      "Ġremained": 1663,
      "Ġdeveloped": 1664,
      "ature": 1665,
      "Ġfront": 1666,
      "Ġcaus": 1667,
      "Ġla": 1668,
      "Ġdeb": 1669,
      "Ġoperations": 1670,
      "Ġconsidered": 1671,
      "au": 1672,
      "reak": 1673,
      "Ġbest": 1674,
      "Ġdiv": 1675,
      "Ġlost": 1676,
      "ody": 1677,
      "Ġsuff": 1678,
      "iversity": 1679,
      "vision": 1680,
      "heast": 1681,
      "Ġwater": 1682,
      "ences": 1683,
      "Ġbook": 1684,
      "Ġnight": 1685,
      "ampions": 1686,
      "posed": 1687,
      "Ġreturned": 1688,
      "ead": 1689,
      "Ġsit": 1690,
      "Ġcycl": 1691,
      "estern": 1692,
      "Ġproduced": 1693,
      "ĠIndian": 1694,
      "Ġoriginal": 1695,
      "Ġpur": 1696,
      "ĠCent": 1697,
      "ĠThere": 1698,
      "ĠNavy": 1699,
      "ize": 1700,
      "Ġdirect": 1701,
      "aul": 1702,
      "field": 1703,
      "ium": 1704,
      "ps": 1705,
      "ering": 1706,
      "Ġreached": 1707,
      "ille": 1708,
      "ott": 1709,
      "Ġstand": 1710,
      "ney": 1711,
      "Ġestim": 1712,
      "iers": 1713,
      "Ġbas": 1714,
      "Ġtown": 1715,
      "Ġmed": 1716,
      "amb": 1717,
      "ĠHis": 1718,
      "Ġwithout": 1719,
      "ĠPar": 1720,
      "Ġexper": 1721,
      "Ġmetres": 1722,
      "Ġpolit": 1723,
      "Ġsignific": 1724,
      "Ġpresent": 1725,
      "Ġdifferent": 1726,
      "AS": 1727,
      "iqu": 1728,
      "Ġaway": 1729,
      "reen": 1730,
      "Ġwill": 1731,
      "Ġlim": 1732,
      "Ġlife": 1733,
      "ĠOr": 1734,
      "Ġlocated": 1735,
      "Ġvery": 1736,
      "Ġreported": 1737,
      "Ġtotal": 1738,
      "ales": 1739,
      "Ġlow": 1740,
      "Ġstri": 1741,
      "Ġstated": 1742,
      "Ġseen": 1743,
      "Ġvis": 1744,
      "ably": 1745,
      "Ġsug": 1746,
      "Ġroad": 1747,
      "rict": 1748,
      "Ġprim": 1749,
      "Ġinflu": 1750,
      "Ġhistor": 1751,
      "bor": 1752,
      "fe": 1753,
      "me": 1754,
      "ination": 1755,
      "Ġcamp": 1756,
      "Ġbar": 1757,
      "Ġmar": 1758,
      "Ġhowever": 1759,
      "Ġhaving": 1760,
      "Ġreal": 1761,
      "vers": 1762,
      "emor": 1763,
      "ended": 1764,
      "Ġeffect": 1765,
      "aut": 1766,
      "ĠCount": 1767,
      "osed": 1768,
      "Ġcareer": 1769,
      "rum": 1770,
      "reg": 1771,
      "Ġpar": 1772,
      "ots": 1773,
      "Ġdecl": 1774,
      "Ġleg": 1775,
      "Ġwinds": 1776,
      "Ġsuggest": 1777,
      "Ġcirc": 1778,
      "alth": 1779,
      "Ġmaking": 1780,
      "ĠBur": 1781,
      "aying": 1782,
      "Ġisland": 1783,
      "ĠWhen": 1784,
      "ape": 1785,
      "Ġplaced": 1786,
      "Ġacross": 1787,
      "ĠMeridian": 1788,
      "ĠInfantry": 1789,
      "mar": 1790,
      "ator": 1791,
      "iter": 1792,
      "ither": 1793,
      "Ġmy": 1794,
      "ĠSan": 1795,
      "ĠHigh": 1796,
      "ĠDuring": 1797,
      "ively": 1798,
      "ccording": 1799,
      "Ġformed": 1800,
      "ĠChristmas": 1801,
      "augh": 1802,
      "con": 1803,
      "urt": 1804,
      "Ġvideo": 1805,
      "ferred": 1806,
      "Ġsurv": 1807,
      "Ġactiv": 1808,
      "Ġdamage": 1809,
      "Ġparticular": 1810,
      "Ġevery": 1811,
      "Ġsignificant": 1812,
      "Ġtimes": 1813,
      "Ġfr": 1814,
      "Ġfig": 1815,
      "Ġcult": 1816,
      "Ġpit": 1817,
      "Ġpain": 1818,
      "Ġmi": 1819,
      "ĠAnd": 1820,
      "ĠCo": 1821,
      "imately": 1822,
      "ĠNY": 1823,
      "ĠJack": 1824,
      "ĠStev": 1825,
      "Ġimport": 1826,
      "ĠGermany": 1827,
      "ĠBattle": 1828,
      "ĠIsland": 1829,
      "Ġcountry": 1830,
      "ĠStevens": 1831,
      "erry": 1832,
      "Ġfre": 1833,
      "ister": 1834,
      "ices": 1835,
      "ĠAg": 1836,
      "stit": 1837,
      "oman": 1838,
      "ĠRuss": 1839,
      "Ġrange": 1840,
      "ĠOff": 1841,
      "reek": 1842,
      "Ġhimself": 1843,
      "Ġperformance": 1844,
      "yle": 1845,
      "Ġbase": 1846,
      "ention": 1847,
      "ĠCal": 1848,
      "Ġstar": 1849,
      "ĠPr": 1850,
      "ials": 1851,
      "Ġround": 1852,
      "Ġamong": 1853,
      "Ġvers": 1854,
      "Ġbuilding": 1855,
      "eng": 1856,
      "ĠAss": 1857,
      "Ġstat": 1858,
      "ript": 1859,
      "bert": 1860,
      "Ġvict": 1861,
      "Ġusing": 1862,
      "ways": 1863,
      "pany": 1864,
      "Ġview": 1865,
      "Ġer": 1866,
      "Ġcas": 1867,
      "Ġput": 1868,
      "Ġnational": 1869,
      "ĠFl": 1870,
      "raw": 1871,
      "Ġtrad": 1872,
      "Ġspecial": 1873,
      "Ġsimilar": 1874,
      "ampionship": 1875,
      "haw": 1876,
      "iness": 1877,
      "nder": 1878,
      "ara": 1879,
      "ĠRoyal": 1880,
      "ĠSte": 1881,
      "ought": 1882,
      "Ġserved": 1883,
      "Ġevac": 1884,
      "ference": 1885,
      "Ġfoot": 1886,
      "Ġgiven": 1887,
      "Ġstory": 1888,
      "ela": 1889,
      "ush": 1890,
      "Ġyou": 1891,
      "Ġunits": 1892,
      "Ġtele": 1893,
      "Ġemb": 1894,
      "dition": 1895,
      "Ġaction": 1896,
      "Ġwent": 1897,
      "Ġpress": 1898,
      "Ġeight": 1899,
      "Ġgl": 1900,
      "ĠHar": 1901,
      "Ġprof": 1902,
      "oung": 1903,
      "action": 1904,
      "ĠUniversity": 1905,
      "Ġrelig": 1906,
      "ĠAlthough": 1907,
      "Ġpromot": 1908,
      "Ġmodern": 1909,
      "Ġconstruction": 1910,
      "Ġve": 1911,
      "Ġtest": 1912,
      "Ġfac": 1913,
      "Ġcut": 1914,
      "ĠWith": 1915,
      "Ġlevel": 1916,
      "endes": 1917,
      "Ġregion": 1918,
      "Ġobs": 1919,
      "ĠBattalion": 1920,
      "Ġsuccessful": 1921,
      "ĠChurchill": 1922,
      "ĠWilliam": 1923,
      "gr": 1924,
      "na": 1925,
      "yn": 1926,
      "Ġtake": 1927,
      "Ġsound": 1928,
      "ĠTr": 1929,
      "Ġground": 1930,
      "ĠHill": 1931,
      "rie": 1932,
      "ports": 1933,
      "rick": 1934,
      "ailed": 1935,
      "Ġtemnospondyl": 1936,
      "Ġbehind": 1937,
      "Ġauth": 1938,
      "atch": 1939,
      "Ġfav": 1940,
      "enced": 1941,
      "Ġel": 1942,
      "ĠRh": 1943,
      "ĠPer": 1944,
      "ĠPark": 1945,
      "riend": 1946,
      "ĠStreet": 1947,
      "Ġagre": 1948,
      "aur": 1949,
      "fic": 1950,
      "ges": 1951,
      "mond": 1952,
      "Ġcle": 1953,
      "Ġmiss": 1954,
      "let": 1955,
      "Ġlaw": 1956,
      "ĠGr": 1957,
      "send": 1958,
      "ĠSec": 1959,
      "Ġmiles": 1960,
      "Ġpopulation": 1961,
      "ederal": 1962,
      "less": 1963,
      "Ġaff": 1964,
      "Ġwant": 1965,
      "enes": 1966,
      "ington": 1967,
      "Ġtoo": 1968,
      "eth": 1969,
      "ĠFey": 1970,
      "Ġproduction": 1971,
      "Ġsoldiers": 1972,
      "Ġfamily": 1973,
      "ĠCounty": 1974,
      "ki": 1975,
      "Ġnd": 1976,
      "Ġfind": 1977,
      "acy": 1978,
      "Ġprote": 1979,
      "Ġclose": 1980,
      "Ġfollowed": 1981,
      "Ġpeak": 1982,
      "Ġdevelopment": 1983,
      "Ġinvolved": 1984,
      "Ġav": 1985,
      "Ġdet": 1986,
      "lected": 1987,
      "Ġey": 1988,
      "ĠRock": 1989,
      "ĠWest": 1990,
      "ĠJew": 1991,
      "app": 1992,
      "Ġroute": 1993,
      "ĠDep": 1994,
      "ĠBritain": 1995,
      "Ġsubsequ": 1996,
      "Ġrecorded": 1997,
      "Ġsyn": 1998,
      "Ġcrew": 1999,
      "Ġcourt": 2000,
      "ĠPhilippines": 2001,
      "pir": 2002,
      "tain": 2003,
      "uation": 2004,
      "vol": 2005,
      "atives": 2006,
      "Ġrad": 2007,
      "ĠOne": 2008,
      "Ġshould": 2009,
      "Ġplayer": 2010,
      "Ġflo": 2011,
      "ĠAmerica": 2012,
      "Ġthroughout": 2013,
      "Ġrelease": 2014,
      "Ġcontrol": 2015,
      "ves": 2016,
      "Ġhit": 2017,
      "Ġnaval": 2018,
      "ĠMendes": 2019,
      "ĠBo": 2020,
      "ĠDes": 2021,
      "Ġke": 2022,
      "Ġleast": 2023,
      "ounter": 2024,
      "ograph": 2025,
      "Ġhuman": 2026,
      "aign": 2027,
      "cent": 2028,
      "dom": 2029,
      "epend": 2030,
      "work": 2031,
      "Ġsaw": 2032,
      "ising": 2033,
      "Ġdoll": 2034,
      "Ġhig": 2035,
      "ĠAf": 2036,
      "ado": 2037,
      "lythe": 2038,
      "ĠBro": 2039,
      "Ġgold": 2040,
      "Ġstage": 2041,
      "ĠLond": 2042,
      "ĠLeague": 2043,
      "Ġstarted": 2044,
      "Ġannoun": 2045,
      "Ġtitle": 2046,
      "go": 2047,
      "ration": 2048,
      "sh": 2049,
      "Ġide": 2050,
      "itar": 2051,
      "Ġface": 2052,
      "Ġbus": 2053,
      "Ġtour": 2054,
      "ĠSl": 2055,
      "ĠSo": 2056,
      "Ġgave": 2057,
      "rior": 2058,
      "Ġrul": 2059,
      "Ġvarious": 2060,
      "ience": 2061,
      "tar": 2062,
      "onic": 2063,
      "Ġwide": 2064,
      "Ġhold": 2065,
      "ĠMal": 2066,
      "ĠMark": 2067,
      "Ġget": 2068,
      "ĠEl": 2069,
      "ĠEast": 2070,
      "Ġchang": 2071,
      "ĠCompany": 2072,
      "Ġpolice": 2073,
      "Ġwritten": 2074,
      "Ġpoint": 2075,
      "ĠTownsend": 2076,
      "Ġcor": 2077,
      "Ġmov": 2078,
      "Ġreb": 2079,
      "Ġless": 2080,
      "urg": 2081,
      "igan": 2082,
      "utes": 2083,
      "ĠPort": 2084,
      "chn": 2085,
      "umb": 2086,
      "rang": 2087,
      "Ġbecome": 2088,
      "ĠRep": 2089,
      "Ġbattles": 2090,
      "Ġfeatures": 2091,
      "Ġdiscover": 2092,
      "ĠLondon": 2093,
      "cher": 2094,
      "cial": 2095,
      "line": 2096,
      "to": 2097,
      "Ġfelt": 2098,
      "Ġmember": 2099,
      "ĠAccording": 2100,
      "ĠMount": 2101,
      "Ġant": 2102,
      "artment": 2103,
      "Ġintens": 2104,
      "Ġrock": 2105,
      "most": 2106,
      "itive": 2107,
      "asion": 2108,
      "Ġmor": 2109,
      "ico": 2110,
      "ulpt": 2111,
      "ĠDu": 2112,
      "ershaw": 2113,
      "Ġvol": 2114,
      "Ġchart": 2115,
      "ĠYear": 2116,
      "phoon": 2117,
      "ollowing": 2118,
      "Ġcentral": 2119,
      "Ġcritic": 2120,
      "Ġrespons": 2121,
      "ĠCanad": 2122,
      "Ġestimated": 2123,
      "ford": 2124,
      "Ġwood": 2125,
      "Ġcivil": 2126,
      "Ġhom": 2127,
      "Ġren": 2128,
      "lying": 2129,
      "Ġstyle": 2130,
      "ords": 2131,
      "Ġcompet": 2132,
      "Ġsculpt": 2133,
      "Ġpublished": 2134,
      "Ġbegin": 2135,
      "Ġpolitical": 2136,
      "Ġtemnospondyls": 2137,
      "ny": 2138,
      "Ġsquadron": 2139,
      "Ġfun": 2140,
      "Ġfather": 2141,
      "Ġfleet": 2142,
      "Ġfriend": 2143,
      "Ġcase": 2144,
      "Ġpie": 2145,
      "Ġtowards": 2146,
      "Ġmur": 2147,
      "ĠMin": 2148,
      "Ġwithd": 2149,
      "ĠJames": 2150,
      "istic": 2151,
      "Ġnoted": 2152,
      "ief": 2153,
      "Ġscene": 2154,
      "Ġneed": 2155,
      "Ġearl": 2156,
      "Ġmonument": 2157,
      "Ġoriginally": 2158,
      "ĠMcC": 2159,
      "Ġnorthern": 2160,
      "Ġdestroyed": 2161,
      "fall": 2162,
      "mb": 2163,
      "Ġsw": 2164,
      "ata": 2165,
      "rodu": 2166,
      "Ġmph": 2167,
      "ĠSy": 2168,
      "ĠSpan": 2169,
      "Ġlack": 2170,
      "Ġloss": 2171,
      "urity": 2172,
      "ĠMad": 2173,
      "ĠNB": 2174,
      "ria": 2175,
      "Ġsee": 2176,
      "Ġrain": 2177,
      "oph": 2178,
      "Ġworks": 2179,
      "Ġheads": 2180,
      "Ġhighway": 2181,
      "Ġservice": 2182,
      "ĠGeor": 2183,
      "Ġimportant": 2184,
      "aff": 2185,
      "ators": 2186,
      "arly": 2187,
      "Ġbomb": 2188,
      "Ġdied": 2189,
      "ayer": 2190,
      "emy": 2191,
      "ĠEx": 2192,
      "alls": 2193,
      "Ġsongs": 2194,
      "ĠLester": 2195,
      "Ġdesigned": 2196,
      "Ġspecies": 2197,
      "Ġappeared": 2198,
      "Ġpopular": 2199,
      "Ġordered": 2200,
      "Ġestablished": 2201,
      "Ġauthor": 2202,
      "ring": 2203,
      "ving": 2204,
      "ald": 2205,
      "Ġpra": 2206,
      "Ġhost": 2207,
      "ĠAward": 2208,
      "ĠCreek": 2209,
      "aces": 2210,
      "Ġonce": 2211,
      "ĠPe": 2212,
      "ems": 2213,
      "ĠOper": 2214,
      "ivid": 2215,
      "abor": 2216,
      "Ġinclude": 2217,
      "ĠUnion": 2218,
      "Ġdecided": 2219,
      "Ġpoet": 2220,
      "Ġoccup": 2221,
      "Ġstruct": 2222,
      "Ġriver": 2223,
      "Ġsouthern": 2224,
      "eum": 2225,
      "ole": 2226,
      "uz": 2227,
      "ying": 2228,
      "Ġfar": 2229,
      "urb": 2230,
      "ĠBest": 2231,
      "ĠBlythe": 2232,
      "ĠRad": 2233,
      "ĠOl": 2234,
      "ĠHead": 2235,
      "ressed": 2236,
      "Ġcolon": 2237,
      "ĠMex": 2238,
      "ĠMichigan": 2239,
      "Ġcaused": 2240,
      "ficult": 2241,
      "ĠSpanish": 2242,
      "ma": 2243,
      "men": 2244,
      "rated": 2245,
      "Ġten": 2246,
      "here": 2247,
      "Ġfull": 2248,
      "Ġinj": 2249,
      "Ġmag": 2250,
      "ĠSup": 2251,
      "ades": 2252,
      "Ġlist": 2253,
      "Ġcommer": 2254,
      "Ġable": 2255,
      "Ġabove": 2256,
      "Ġplayers": 2257,
      "Ġsigned": 2258,
      "Ġcompleted": 2259,
      "Ġcreated": 2260,
      "ĠKorean": 2261,
      "ency": 2262,
      "ael": 2263,
      "Ġtre": 2264,
      "Ġslow": 2265,
      "Ġcoin": 2266,
      "Ġdivision": 2267,
      "ĠSm": 2268,
      "ĠSome": 2269,
      "Ġfort": 2270,
      "Ġattend": 2271,
      "ĠLittle": 2272,
      "ourt": 2273,
      "Ġunit": 2274,
      "Ġtechn": 2275,
      "ounded": 2276,
      "ĠItal": 2277,
      "Ġintern": 2278,
      "Ġblock": 2279,
      "Ġfeatured": 2280,
      "Ġdifficult": 2281,
      "Ġinstead": 2282,
      "Ġdamaged": 2283,
      "Ġoccur": 2284,
      "ĠForce": 2285,
      "Ġthought": 2286,
      "ĠRichmond": 2287,
      "Ġcompany": 2288,
      "for": 2289,
      "ga": 2290,
      "Ġtaken": 2291,
      "ened": 2292,
      "ances": 2293,
      "Ġhow": 2294,
      "iding": 2295,
      "ĠRaj": 2296,
      "Ġcondu": 2297,
      "ĠDo": 2298,
      "ries": 2299,
      "ĠGreat": 2300,
      "Ġrank": 2301,
      "aps": 2302,
      "odes": 2303,
      "Ġcomment": 2304,
      "Ġareas": 2305,
      "Ġarri": 2306,
      "ĠVict": 2307,
      "reng": 2308,
      "Ġenc": 2309,
      "inese": 2310,
      "Ġassoci": 2311,
      "Ġmeet": 2312,
      "Ġcoast": 2313,
      "Ġentire": 2314,
      "Ġcomplete": 2315,
      "Ġbroad": 2316,
      "ĠBlack": 2317,
      "Ġboats": 2318,
      "Ġstruck": 2319,
      "Ġmonths": 2320,
      "etrarch": 2321,
      "Ġesc": 2322,
      "ividual": 2323,
      "RA": 2324,
      "ground": 2325,
      "iber": 2326,
      "Ġident": 2327,
      "Ġsomet": 2328,
      "Ġcru": 2329,
      "aster": 2330,
      "ĠTetrarch": 2331,
      "Ġlook": 2332,
      "ament": 2333,
      "Ġconv": 2334,
      "Ġdeities": 2335,
      "Ġseven": 2336,
      "ĠChinese": 2337,
      "play": 2338,
      "igned": 2339,
      "Ġcenter": 2340,
      "Ġfeet": 2341,
      "Ġsurround": 2342,
      "Ġquick": 2343,
      "Ġadded": 2344,
      "Ġgeneral": 2345,
      "Ġreplaced": 2346,
      "medi": 2347,
      "Ġperformed": 2348,
      "Ġtradition": 2349,
      "Ġannounced": 2350,
      "west": 2351,
      "Ġfif": 2352,
      "Ġcert": 2353,
      "asing": 2354,
      "Ġlittle": 2355,
      "ĠCor": 2356,
      "Ġeither": 2357,
      "ĠHer": 2358,
      "ulf": 2359,
      "Ġdeploy": 2360,
      "illo": 2361,
      "iva": 2362,
      "Ġcolle": 2363,
      "asket": 2364,
      "ĠWhile": 2365,
      "Ġdefeated": 2366,
      "form": 2367,
      "nel": 2368,
      "uck": 2369,
      "Ġaud": 2370,
      "Ġaward": 2371,
      "oring": 2372,
      "ĠAc": 2373,
      "ĠCro": 2374,
      "omen": 2375,
      "ĠMiss": 2376,
      "ĠGA": 2377,
      "wood": 2378,
      "Ġbecom": 2379,
      "Ġcoll": 2380,
      "Ġinvest": 2381,
      "ification": 2382,
      "Ġwriting": 2383,
      "Ġopening": 2384,
      "Ġprogram": 2385,
      "cast": 2386,
      "ville": 2387,
      "ĠX": 2388,
      "itect": 2389,
      "Ġfell": 2390,
      "ĠTy": 2391,
      "ĠTem": 2392,
      "ĠTru": 2393,
      "Ġlive": 2394,
      "Ġstreng": 2395,
      "Ġsection": 2396,
      "Ġprocess": 2397,
      "ishing": 2398,
      "aching": 2399,
      "ĠShiva": 2400,
      "ĠCommand": 2401,
      "ĠCommission": 2402,
      "Ġpoints": 2403,
      "ĠEngland": 2404,
      "Ġcontract": 2405,
      "Ġhours": 2406,
      "Ġlaun": 2407,
      "Ġtelevision": 2408,
      "asketball": 2409,
      "ties": 2410,
      "ories": 2411,
      "iser": 2412,
      "ĠTwo": 2413,
      "ster": 2414,
      "ĠBar": 2415,
      "ĠBel": 2416,
      "Ġgen": 2417,
      "ĠPac": 2418,
      "Ġra": 2419,
      "ope": 2420,
      "Ġking": 2421,
      "raf": 2422,
      "Ġevents": 2423,
      "rought": 2424,
      "Ġtraining": 2425,
      "Ġfourth": 2426,
      "Ġindividual": 2427,
      "Ġeffort": 2428,
      "Ġstudio": 2429,
      "Ġimpro": 2430,
      "board": 2431,
      "ique": 2432,
      "hu": 2433,
      "uk": 2434,
      "Ġsum": 2435,
      "iting": 2436,
      "Ġce": 2437,
      "aland": 2438,
      "Ġhouse": 2439,
      "Ġthreat": 2440,
      "ĠSen": 2441,
      "Ġeastern": 2442,
      "ids": 2443,
      "Ġalmost": 2444,
      "illery": 2445,
      "Ġprob": 2446,
      "Ġvoc": 2447,
      "ĠChina": 2448,
      "Ġintrodu": 2449,
      "ellig": 2450,
      "Ġarmy": 2451,
      "Ġarmour": 2452,
      "Ġindic": 2453,
      "Ġparticip": 2454,
      "Ġcampaign": 2455,
      "Ġbusiness": 2456,
      "co": 2457,
      "com": 2458,
      "Ġaver": 2459,
      "Ġfoc": 2460,
      "Ġfact": 2461,
      "Ġcast": 2462,
      "Ġhon": 2463,
      "oul": 2464,
      "ĠMed": 2465,
      "ĠPat": 2466,
      "ĠGl": 2467,
      "Ġprot": 2468,
      "Ġplat": 2469,
      "peror": 2470,
      "Ġoutside": 2471,
      "lled": 2472,
      "Ġothers": 2473,
      "ĠAustralians": 2474,
      "ological": 2475,
      "Ġcarried": 2476,
      "Ġcomplex": 2477,
      "Ġprovided": 2478,
      "Ġweeks": 2479,
      "Ġpossible": 2480,
      "ĠKingdom": 2481,
      "ĠAfric": 2482,
      "ĠRepubl": 2483,
      "Ġmurder": 2484,
      "ĠVictor": 2485,
      "dle": 2486,
      "hib": 2487,
      "Ġage": 2488,
      "ĠCare": 2489,
      "ĠMon": 2490,
      "Ġbelow": 2491,
      "iral": 2492,
      "Ġask": 2493,
      "Ġstop": 2494,
      "ĠHol": 2495,
      "ĠNaz": 2496,
      "ĠLa": 2497,
      "iffe": 2498,
      "arty": 2499,
      "Ġkil": 2500,
      "Ġimage": 2501,
      "Ġinterest": 2502,
      "Ġappoin": 2503,
      "Ġemploy": 2504,
      "ĠJewish": 2505,
      "cing": 2506,
      "jillo": 2507,
      "ken": 2508,
      "off": 2509,
      "oice": 2510,
      "ship": 2511,
      "Ġmount": 2512,
      "irst": 2513,
      "Ġgood": 2514,
      "ĠDay": 2515,
      "sec": 2516,
      "Ġval": 2517,
      "Ġuns": 2518,
      "ogn": 2519,
      "rying": 2520,
      "ples": 2521,
      "perial": 2522,
      "Ġprevent": 2523,
      "ĠRec": 2524,
      "Ġlargest": 2525,
      "Ġattacked": 2526,
      "Ġtransport": 2527,
      "Ġgroups": 2528,
      "Ġleading": 2529,
      "Ġofficers": 2530,
      "Ġgoal": 2531,
      "Ġrequest": 2532,
      "Ġbelieved": 2533,
      "Ġsuffered": 2534,
      "auty": 2535,
      "Ġversion": 2536,
      "ault": 2537,
      "Ġtor": 2538,
      "Ġtur": 2539,
      "Ġfederal": 2540,
      "Ġcal": 2541,
      "Ġmix": 2542,
      "Ġlines": 2543,
      "idence": 2544,
      "Ġstone": 2545,
      "ĠOther": 2546,
      "Ġshoot": 2547,
      "ights": 2548,
      "Ġcommon": 2549,
      "ulls": 2550,
      "Ġvari": 2551,
      "Ġironclads": 2552,
      "Ġfloor": 2553,
      "oe": 2554,
      "Ġfree": 2555,
      "Ġche": 2556,
      "Ġpriv": 2557,
      "Ġdri": 2558,
      "Ġhy": 2559,
      "ĠAb": 2560,
      "ential": 2561,
      "aded": 2562,
      "ĠCourt": 2563,
      "ĠMong": 2564,
      "ĠBill": 2565,
      "imin": 2566,
      "ĠNe": 2567,
      "Ġcondition": 2568,
      "ĠGib": 2569,
      "ĠUK": 2570,
      "Ġexist": 2571,
      "phib": 2572,
      "Ġremoved": 2573,
      "Ġcharacters": 2574,
      "Ġcurrent": 2575,
      "Ġfighting": 2576,
      "Ġsubsequently": 2577,
      "tr": 2578,
      "Ġbreak": 2579,
      "Ġnine": 2580,
      "ĠMor": 2581,
      "ĠBig": 2582,
      "igade": 2583,
      "ceed": 2584,
      "Ġrecogn": 2585,
      "ologists": 2586,
      "ĠMarine": 2587,
      "Ġprin": 2588,
      "venue": 2589,
      "Ġartillery": 2590,
      "Ġturned": 2591,
      "ĠButler": 2592,
      "Ġchildren": 2593,
      "ĠAssoci": 2594,
      "Ġagreed": 2595,
      "ĠTrujillo": 2596,
      "elligence": 2597,
      "ĠMongol": 2598,
      "be": 2599,
      "ony": 2600,
      "aters": 2601,
      "arily": 2602,
      "Ġmass": 2603,
      "Ġdou": 2604,
      "Ġreve": 2605,
      "acing": 2606,
      "urric": 2607,
      "ĠBall": 2608,
      "unk": 2609,
      "ĠWW": 2610,
      "Ġsepar": 2611,
      "Ġanc": 2612,
      "umn": 2613,
      "Ġridge": 2614,
      "ĠUB": 2615,
      "ĠUp": 2616,
      "ĠUnder": 2617,
      "anta": 2618,
      "cliffe": 2619,
      "Ġcontrib": 2620,
      "ĠYou": 2621,
      "Ġshell": 2622,
      "Ġconspir": 2623,
      "Ġgrow": 2624,
      "Ġrequired": 2625,
      "ĠMusic": 2626,
      "Ġpreviously": 2627,
      "Ġnortheast": 2628,
      "Ġeventually": 2629,
      "Ġjoined": 2630,
      "ĠRegiment": 2631,
      "Ġbeginning": 2632,
      "Ġarrived": 2633,
      "urricane": 2634,
      "MA": 2635,
      "now": 2636,
      "nect": 2637,
      "ris": 2638,
      "ino": 2639,
      "Ġfield": 2640,
      "Ġcreat": 2641,
      "Ġpast": 2642,
      "Ġmot": 2643,
      "Ġmult": 2644,
      "ĠTim": 2645,
      "Ġreaction": 2646,
      "ĠAct": 2647,
      "Ġforced": 2648,
      "ĠPet": 2649,
      "ĠFu": 2650,
      "ĠFin": 2651,
      "pec": 2652,
      "ĠChampionship": 2653,
      "Ġrespect": 2654,
      "Ġscript": 2655,
      "Ġupon": 2656,
      "Ġaccept": 2657,
      "Ġminute": 2658,
      "Ġdoes": 2659,
      "erva": 2660,
      "Ġconcern": 2661,
      "Ġallowed": 2662,
      "Ġtanks": 2663,
      "ĠEgyptian": 2664,
      "ĠRussian": 2665,
      "ĠNBA": 2666,
      "ĠOperation": 2667,
      "ĠPacific": 2668,
      "ming": 2669,
      "uel": 2670,
      "win": 2671,
      "Ġz": 2672,
      "Ġtaking": 2673,
      "Ġsol": 2674,
      "Ġcou": 2675,
      "esh": 2676,
      "aring": 2677,
      "Ġborn": 2678,
      "Ġbrought": 2679,
      "Ġpen": 2680,
      "Ġpil": 2681,
      "Ġread": 2682,
      "idents": 2683,
      "emeter": 2684,
      "ĠFirst": 2685,
      "Ġdeter": 2686,
      "ĠGovern": 2687,
      "Ġproble": 2688,
      "assic": 2689,
      "ranch": 2690,
      "Ġresul": 2691,
      "Ġadap": 2692,
      "Ġdiss": 2693,
      "Ġremaining": 2694,
      "Ġsecurity": 2695,
      "Ġnews": 2696,
      "Ġfinished": 2697,
      "Ġknow": 2698,
      "Ġaccom": 2699,
      "Ġinfantry": 2700,
      "Ġoperation": 2701,
      "ĠAtt": 2702,
      "Ġdepression": 2703,
      "Ġsett": 2704,
      "Ġengine": 2705,
      "Ġdeliver": 2706,
      "Ġironclad": 2707,
      "AAF": 2708,
      "Ġstrike": 2709,
      "ĠMexico": 2710,
      "cer": 2711,
      "lish": 2712,
      "head": 2713,
      "Ġself": 2714,
      "Ġinch": 2715,
      "aled": 2716,
      "icted": 2717,
      "Ġlo": 2718,
      "Ġlif": 2719,
      "Ġnove": 2720,
      "ĠHist": 2721,
      "ĠRAAF": 2722,
      "ĠPal": 2723,
      "change": 2724,
      "Ġwhite": 2725,
      "ĠFil": 2726,
      "uments": 2727,
      "oren": 2728,
      "ĠKershaw": 2729,
      "Ġclub": 2730,
      "Ġscored": 2731,
      "Ġplaying": 2732,
      "Ġinterse": 2733,
      "angu": 2734,
      "Ġpositions": 2735,
      "Ġviol": 2736,
      "Ġappearance": 2737,
      "Ġavail": 2738,
      "ĠRajne": 2739,
      "After": 2740,
      "NA": 2741,
      "bon": 2742,
      "ding": 2743,
      "Ġsaying": 2744,
      "itz": 2745,
      "Ġbasketball": 2746,
      "Ġmach": 2747,
      "Ġden": 2748,
      "ĠTo": 2749,
      "ilities": 2750,
      "ĠSch": 2751,
      "ĠPres": 2752,
      "Ġdead": 2753,
      "Ġanim": 2754,
      "Ġrap": 2755,
      "Ġrather": 2756,
      "quar": 2757,
      "quare": 2758,
      "ocr": 2759,
      "ibility": 2760,
      "Ġmanag": 2761,
      "ample": 2762,
      "Ġindust": 2763,
      "Ġdecision": 2764,
      "ĠCharles": 2765,
      "Ġcommunity": 2766,
      "Ġprofess": 2767,
      "ĠDoctor": 2768,
      "AR": 2769,
      "FC": 2770,
      "Ġwounded": 2771,
      "Ġpair": 2772,
      "Ġmater": 2773,
      "Ġdon": 2774,
      "ĠSu": 2775,
      "ĠDon": 2776,
      "ĠDav": 2777,
      "Ġdeal": 2778,
      "Ġsex": 2779,
      "alling": 2780,
      "pected": 2781,
      "Ġvill": 2782,
      "Ġexec": 2783,
      "Ġintended": 2784,
      "raltar": 2785,
      "Ġremain": 2786,
      "Ġworked": 2787,
      "Ġsubject": 2788,
      "azine": 2789,
      "Ġinform": 2790,
      "Ġcritics": 2791,
      "Ġcommander": 2792,
      "porary": 2793,
      "ĠEnglish": 2794,
      "Ġfavor": 2795,
      "ĠSovi": 2796,
      "Ġinvestig": 2797,
      "Ġcost": 2798,
      "anced": 2799,
      "Ġbad": 2800,
      "icles": 2801,
      "Ġhous": 2802,
      "ĠSar": 2803,
      "ĠSonic": 2804,
      "str": 2805,
      "Ġlatter": 2806,
      "Ġlangu": 2807,
      "ĠMet": 2808,
      "ote": 2809,
      "ĠHM": 2810,
      "Ġheav": 2811,
      "ĠRick": 2812,
      "ĠRoman": 2813,
      "ĠDan": 2814,
      "ĠDist": 2815,
      "ĠDod": 2816,
      "Ġrd": 2817,
      "ateg": 2818,
      "Ġblack": 2819,
      "Ġofficial": 2820,
      "Ġtyphoon": 2821,
      "Ġincreased": 2822,
      "Ġcaptured": 2823,
      "Ġinitially": 2824,
      "ĠDespite": 2825,
      "Ġhighest": 2826,
      "Ġearlier": 2827,
      "Ġprobably": 2828,
      "ĠGibraltar": 2829,
      "ĠWWE": 2830,
      "hile": 2831,
      "ule": 2832,
      "Ġult": 2833,
      "Ġtons": 2834,
      "oned": 2835,
      "Ġson": 2836,
      "Ġsail": 2837,
      "Ġox": 2838,
      "ili": 2839,
      "Ġstation": 2840,
      "Ġcome": 2841,
      "Ġexc": 2842,
      "Ġexample": 2843,
      "Ġkey": 2844,
      "ogue": 2845,
      "assy": 2846,
      "Ġimmedi": 2847,
      "Ġneg": 2848,
      "issipp": 2849,
      "Ġweap": 2850,
      "ĠAnother": 2851,
      "Ġfilms": 2852,
      "ĠZe": 2853,
      "Ġinvasion": 2854,
      "Ġpract": 2855,
      "Ġqual": 2856,
      "Ġadvance": 2857,
      "ociety": 2858,
      "ĠQu": 2859,
      "ĠCharl": 2860,
      "Ġarchitect": 2861,
      "Ġcasual": 2862,
      "Ġwanted": 2863,
      "ĠDepartment": 2864,
      "volution": 2865,
      "Ġdollar": 2866,
      "ĠMississipp": 2867,
      "Ġappointed": 2868,
      "ĠMississippi": 2869,
      "St": 2870,
      "gg": 2871,
      "ply": 2872,
      "pire": 2873,
      "Ġaw": 2874,
      "Ġsat": 2875,
      "edy": 2876,
      "Ġcop": 2877,
      "Ġpurch": 2878,
      "roup": 2879,
      "ĠTen": 2880,
      "Ġthink": 2881,
      "Ġnames": 2882,
      "ĠMajor": 2883,
      "utive": 2884,
      "ĠHall": 2885,
      "ĠRed": 2886,
      "ĠNak": 2887,
      "ĠNerva": 2888,
      "ĠDr": 2889,
      "ĠFollowing": 2890,
      "ĠLat": 2891,
      "ĠLong": 2892,
      "aprang": 2893,
      "Ġprop": 2894,
      "ĠKn": 2895,
      "ĠKr": 2896,
      "aby": 2897,
      "ĠIntern": 2898,
      "Ġchange": 2899,
      "Ġyards": 2900,
      "ĠThom": 2901,
      "Ġenv": 2902,
      "Ġsuppl": 2903,
      "Ġflood": 2904,
      "Ġended": 2905,
      "Ġassass": 2906,
      "Ġsubmar": 2907,
      "Ġregular": 2908,
      "pedo": 2909,
      "Ġpolic": 2910,
      "Ġminutes": 2911,
      "Ġelect": 2912,
      "Ġdirected": 2913,
      "ĠCarol": 2914,
      "Ġissued": 2915,
      "Ġpatro": 2916,
      "Ġequip": 2917,
      "Ġdebut": 2918,
      "ĠCenter": 2919,
      "af": 2920,
      "can": 2921,
      "die": 2922,
      "of": 2923,
      "ores": 2924,
      "Ġaer": 2925,
      "ona": 2926,
      "Ġsil": 2927,
      "atory": 2928,
      "Ġdark": 2929,
      "leg": 2930,
      "ĠSer": 2931,
      "stant": 2932,
      "Ġforward": 2933,
      "ulated": 2934,
      "ĠWales": 2935,
      "ĠGold": 2936,
      "Ġsequ": 2937,
      "ago": 2938,
      "ĠEarly": 2939,
      "ourn": 2940,
      "Ġlet": 2941,
      "elling": 2942,
      "ĠVal": 2943,
      "Ġitself": 2944,
      "teen": 2945,
      "ibr": 2946,
      "ckham": 2947,
      "Ġworking": 2948,
      "Ġarmor": 2949,
      "ĠScott": 2950,
      "Ġbattalion": 2951,
      "Ġbrother": 2952,
      "Ġpassed": 2953,
      "ĠAngle": 2954,
      "ready": 2955,
      "Ġlimited": 2956,
      "ĠSecond": 2957,
      "Ġmorning": 2958,
      "Ġquickly": 2959,
      "Ġtorpedo": 2960,
      "ĠDistrict": 2961,
      "day": 2962,
      "onna": 2963,
      "Ġwife": 2964,
      "Ġwestern": 2965,
      "Ġfem": 2966,
      "Ġbody": 2967,
      "Ġprior": 2968,
      "Ġdrop": 2969,
      "ĠSim": 2970,
      "ĠServ": 2971,
      "ĠAD": 2972,
      "enth": 2973,
      "Ġly": 2974,
      "Ġnon": 2975,
      "Ġnomin": 2976,
      "oti": 2977,
      "Ġwhose": 2978,
      "thing": 2979,
      "Ġdeep": 2980,
      "ĠWestern": 2981,
      "ival": 2982,
      "Ġvess": 2983,
      "Ġextend": 2984,
      "ĠInt": 2985,
      "order": 2986,
      "ounts": 2987,
      "Ġaband": 2988,
      "Ġdespite": 2989,
      "Ġweaken": 2990,
      "Ġbetter": 2991,
      "Ġteams": 2992,
      "Ġattacks": 2993,
      "Ġdirector": 2994,
      "ossal": 2995,
      "ĠMichael": 2996,
      "Ġprimary": 2997,
      "conom": 2998,
      "Ġreligious": 2999,
      "ĠAssociation": 3000,
      "ray": 3001,
      "ena": 3002,
      "Ġpound": 3003,
      "Ġtold": 3004,
      "rog": 3005,
      "Ġmight": 3006,
      "ste": 3007,
      "ĠCR": 3008,
      "ĠPaul": 3009,
      "Ġalready": 3010,
      "ĠFort": 3011,
      "ĠJim": 3012,
      "erson": 3013,
      "Ġrace": 3014,
      "Ġmostly": 3015,
      "Ġsoon": 3016,
      "Ġterms": 3017,
      "Ġsupported": 3018,
      "Ġplanned": 3019,
      "Ġguitar": 3020,
      "Ġopened": 3021,
      "Ġpersonal": 3022,
      "Ġdefeat": 3023,
      "Ġredu": 3024,
      "Ġparticularly": 3025,
      "Ġembassy": 3026,
      "Ġpraised": 3027,
      "Ġavailable": 3028,
      "ĠRajneesh": 3029,
      "ĠZealand": 3030,
      "As": 3031,
      "During": 3032,
      "burg": 3033,
      "hing": 3034,
      "ka": 3035,
      "uing": 3036,
      "Ġens": 3037,
      "Ġtrib": 3038,
      "erous": 3039,
      "Ġsus": 3040,
      "Ġsize": 3041,
      "Ġflying": 3042,
      "Ġinn": 3043,
      "Ġpal": 3044,
      "Ġrein": 3045,
      "ĠSchool": 3046,
      "Ġlos": 3047,
      "ĠMa": 3048,
      "ĠHung": 3049,
      "ĠPre": 3050,
      "unt": 3051,
      "ĠNort": 3052,
      "Ġconnect": 3053,
      "ĠFleet": 3054,
      "ĠGore": 3055,
      "ĠOs": 3056,
      "eway": 3057,
      "ĠUFC": 3058,
      "Ġarg": 3059,
      "ffic": 3060,
      "ĠYoung": 3061,
      "ampion": 3062,
      "Ġdefend": 3063,
      "Ġmeas": 3064,
      "Ġrelations": 3065,
      "Ġaccording": 3066,
      "Ġcoach": 3067,
      "ĠBeauty": 3068,
      "Ġminor": 3069,
      "Ġtyp": 3070,
      "ĠAngel": 3071,
      "Ġattempted": 3072,
      "Ġhelp": 3073,
      "Ġkeep": 3074,
      "ĠGeorge": 3075,
      "Ġaverage": 3076,
      "Ġprivate": 3077,
      "Ġnovel": 3078,
      "onse": 3079,
      "Ġsides": 3080,
      "aton": 3081,
      "Ġfailed": 3082,
      "Ġmemor": 3083,
      "lex": 3084,
      "ĠTro": 3085,
      "ĠTur": 3086,
      "Ġrear": 3087,
      "ĠSw": 3088,
      "Ġliter": 3089,
      "imum": 3090,
      "ĠHor": 3091,
      "ĠGame": 3092,
      "ĠJose": 3093,
      "Ġselected": 3094,
      "aper": 3095,
      "Ġexam": 3096,
      "ĠVi": 3097,
      "Ġscenes": 3098,
      "Ġcommission": 3099,
      "ĠSea": 3100,
      "Ġspeed": 3101,
      "Ġsuper": 3102,
      "Ġmonit": 3103,
      "ĠIndia": 3104,
      "Ġtransferred": 3105,
      "Ġconcert": 3106,
      "Ġwinning": 3107,
      "Ġruns": 3108,
      "Ġmajority": 3109,
      "Ġpersonnel": 3110,
      "Ġresponse": 3111,
      "ĠRhodes": 3112,
      "Ġintensity": 3113,
      "Ġstrength": 3114,
      "ĠCarey": 3115,
      "ĠDavid": 3116,
      "Ġlanguage": 3117,
      "Ġcasualties": 3118,
      "bs": 3119,
      "sen": 3120,
      "tic": 3121,
      "inent": 3122,
      "arian": 3123,
      "Ġpred": 3124,
      "Ġtow": 3125,
      "ĠAp": 3126,
      "stand": 3127,
      "Ġeconom": 3128,
      "ama": 3129,
      "ĠMir": 3130,
      "ĠLater": 3131,
      "rian": 3132,
      "rial": 3133,
      "ills": 3134,
      "ability": 3135,
      "clus": 3136,
      "imeter": 3137,
      "Ġadop": 3138,
      "Ġoffered": 3139,
      "Ġenough": 3140,
      "Ġentered": 3141,
      "Ġmatches": 3142,
      "Ġrepair": 3143,
      "Ġelements": 3144,
      "atively": 3145,
      "Ġterm": 3146,
      "ashington": 3147,
      "Ġapproach": 3148,
      "ĠTeam": 3149,
      "Ġclaimed": 3150,
      "Ġfigure": 3151,
      "Ġdiscovered": 3152,
      "ĠRadcliffe": 3153,
      "Ġrapid": 3154,
      "miral": 3155,
      "sel": 3156,
      "ximately": 3157,
      "hel": 3158,
      "reme": 3159,
      "Ġcemeter": 3160,
      "Ġball": 3161,
      "oud": 3162,
      "Ġreason": 3163,
      "ĠMil": 3164,
      "ĠMost": 3165,
      "ĠHit": 3166,
      "cend": 3167,
      "ĠFour": 3168,
      "ands": 3169,
      "ĠWashington": 3170,
      "ĠGo": 3171,
      "agan": 3172,
      "abb": 3173,
      "Ġclosed": 3174,
      "Ġscreen": 3175,
      "ĠThat": 3176,
      "Ġinterview": 3177,
      "Ġwars": 3178,
      "Ġamphib": 3179,
      "ĠClub": 3180,
      "Ġbroken": 3181,
      "Ġconfl": 3182,
      "alky": 3183,
      "Ġschools": 3184,
      "ĠFrance": 3185,
      "ĠQue": 3186,
      "aughter": 3187,
      "ĠItalian": 3188,
      "ĠInternational": 3189,
      "stein": 3190,
      "At": 3191,
      "cil": 3192,
      "ez": 3193,
      "oly": 3194,
      "rain": 3195,
      "Ġtar": 3196,
      "Ġsch": 3197,
      "Ġwomen": 3198,
      "Ġcounter": 3199,
      "Ġple": 3200,
      "Ġmother": 3201,
      "Ġdomin": 3202,
      "Ġhard": 3203,
      "Ġhurricane": 3204,
      "ĠAvenue": 3205,
      "Ġload": 3206,
      "ĠCap": 3207,
      "ĠCamp": 3208,
      "amar": 3209,
      "irid": 3210,
      "Ġstates": 3211,
      "ĠRober": 3212,
      "Ġconclud": 3213,
      "ĠJMA": 3214,
      "illa": 3215,
      "Ġshown": 3216,
      "Ġplot": 3217,
      "ounted": 3218,
      "Ġfired": 3219,
      "Ġabs": 3220,
      "oney": 3221,
      "Ġconsisted": 3222,
      "Ġpositive": 3223,
      "Ġspent": 3224,
      "Ġoppos": 3225,
      "Ġlarger": 3226,
      "Ġaccess": 3227,
      "ĠBeckham": 3228,
      "ĠBrigade": 3229,
      "ĠEddie": 3230,
      "Ġconstructed": 3231,
      "ĠMuseum": 3232,
      "Ġincreasing": 3233,
      "minist": 3234,
      "Ġmovement": 3235,
      "urtado": 3236,
      "rief": 3237,
      "Ġcommercial": 3238,
      "force": 3239,
      "ĠSenate": 3240,
      "ĠSoviet": 3241,
      "cip": 3242,
      "tained": 3243,
      "ze": 3244,
      "zo": 3245,
      "Ġill": 3246,
      "alo": 3247,
      "Ġpot": 3248,
      "Ġtoget": 3249,
      "Ġmer": 3250,
      "Ġhor": 3251,
      "ĠSpe": 3252,
      "Ġleng": 3253,
      "cts": 3254,
      "chie": 3255,
      "Ġalways": 3256,
      "Ġrail": 3257,
      "berg": 3258,
      "ude": 3259,
      "Ġexcept": 3260,
      "Ġclos": 3261,
      "Ġcommit": 3262,
      "Ġremains": 3263,
      "Ġflight": 3264,
      "ĠColumb": 3265,
      "Ġdepart": 3266,
      "Ġobject": 3267,
      "ĠKoreans": 3268,
      "Ġissue": 3269,
      "Ġadditional": 3270,
      "Ġreviews": 3271,
      "Ġactivities": 3272,
      "ynast": 3273,
      "Ġclear": 3274,
      "Ġeye": 3275,
      "Ġassociated": 3276,
      "Ġlaunched": 3277,
      "ĠLatin": 3278,
      "Ġtogether": 3279,
      "aud": 3280,
      "den": 3281,
      "mit": 3282,
      "van": 3283,
      "atal": 3284,
      "Ġbur": 3285,
      "ros": 3286,
      "ĠMy": 3287,
      "ĠMart": 3288,
      "ĠNatives": 3289,
      "emporary": 3290,
      "ĠDem": 3291,
      "ĠWil": 3292,
      "aped": 3293,
      "ĠEaton": 3294,
      "ify": 3295,
      "aker": 3296,
      "allen": 3297,
      "ĠStarr": 3298,
      "aven": 3299,
      "ĠHeavy": 3300,
      "ĠValky": 3301,
      "itions": 3302,
      "orks": 3303,
      "Ġserious": 3304,
      "Ġtrade": 3305,
      "ĠDev": 3306,
      "Ġflank": 3307,
      "Ġforms": 3308,
      "Ġlocation": 3309,
      "Ġgovernor": 3310,
      "Ġlanding": 3311,
      "ĠBlue": 3312,
      "Ġgenerally": 3313,
      "rival": 3314,
      "ĠAdmiral": 3315,
      "Ġconsider": 3316,
      "Ġeduc": 3317,
      "Ġorganization": 3318,
      "ĠImperial": 3319,
      "ĠIII": 3320,
      "Ġslight": 3321,
      "Ġcombined": 3322,
      "Ġvictory": 3323,
      "Ġradio": 3324,
      "Ġwooden": 3325,
      "Ġsculpture": 3326,
      "Ġoccurred": 3327,
      "Ġasked": 3328,
      "Ġresulted": 3329,
      "ĠRicky": 3330,
      "Ġultimately": 3331,
      "II": 3332,
      "town": 3333,
      "val": 3334,
      "Ġaut": 3335,
      "Ġachie": 3336,
      "erved": 3337,
      "Ġcred": 3338,
      "Ġbrief": 3339,
      "ases": 3340,
      "Ġhar": 3341,
      "ĠTurn": 3342,
      "ador": 3343,
      "amer": 3344,
      "oted": 3345,
      "otes": 3346,
      "Ġstep": 3347,
      "ĠHouse": 3348,
      "Ġconve": 3349,
      "ĠDerry": 3350,
      "ĠLoren": 3351,
      "ĠGroup": 3352,
      "Ġsearch": 3353,
      "odies": 3354,
      "ĠKe": 3355,
      "ocial": 3356,
      "Ġyoung": 3357,
      "Ġnecess": 3358,
      "Ġprem": 3359,
      "weight": 3360,
      "ĠDef": 3361,
      "Ġtheme": 3362,
      "Ġending": 3363,
      "Ġmean": 3364,
      "ĠIndepend": 3365,
      "Ġsurf": 3366,
      "Ġmetal": 3367,
      "Ġdesignated": 3368,
      "ĠClark": 3369,
      "Ġcann": 3370,
      "Ġsmaller": 3371,
      "Ġsteel": 3372,
      "ĠEuropean": 3373,
      "Ġpurs": 3374,
      "ĠStein": 3375,
      "Ġfootball": 3376,
      "Ġbattleships": 3377,
      "ĠOlm": 3378,
      "ĠSmith": 3379,
      "Ġinternational": 3380,
      "Ġfifth": 3381,
      "Ġkilomet": 3382,
      "ĠPresident": 3383,
      "ĠThomas": 3384,
      "Ġlyric": 3385,
      "ĠJoseph": 3386,
      "Ġlength": 3387,
      "Man": 3388,
      "bers": 3389,
      "graf": 3390,
      "ios": 3391,
      "jona": 3392,
      "lin": 3393,
      "Ġtru": 3394,
      "Ġtomb": 3395,
      "Ġdraw": 3396,
      "iles": 3397,
      "Ġstaff": 3398,
      "eton": 3399,
      "ula": 3400,
      "ĠFurtado": 3401,
      "Ġdev": 3402,
      "ĠEr": 3403,
      "Ġproper": 3404,
      "raz": 3405,
      "Ġleague": 3406,
      "ouncil": 3407,
      "Ġsched": 3408,
      "Ġenemy": 3409,
      "Ġprep": 3410,
      "Ġfinally": 3411,
      "Ġcontinues": 3412,
      "Ġalongside": 3413,
      "Ġcapital": 3414,
      "Ġshows": 3415,
      "Ġrunning": 3416,
      "Ġapproximately": 3417,
      "Ġphot": 3418,
      "Ġperformances": 3419,
      "Ġfigures": 3420,
      "Ġpitcher": 3421,
      "Ġstatus": 3422,
      "Ġobserv": 3423,
      "Ġprotect": 3424,
      "ĠVictoria": 3425,
      "ĠBillboard": 3426,
      "Ġimmediately": 3427,
      "aren": 3428,
      "ean": 3429,
      "gers": 3430,
      "iest": 3431,
      "mp": 3432,
      "mitted": 3433,
      "Ġcm": 3434,
      "isl": 3435,
      "Ġbatter": 3436,
      "Ġhapp": 3437,
      "ĠTor": 3438,
      "ĠSing": 3439,
      "ĠSout": 3440,
      "ĠAwards": 3441,
      "Ġlower": 3442,
      "ĠMid": 3443,
      "ĠMel": 3444,
      "ĠBook": 3445,
      "olay": 3446,
      "ĠHu": 3447,
      "ĠLie": 3448,
      "Ġsevent": 3449,
      "ongs": 3450,
      "Ġjud": 3451,
      "Ġevidence": 3452,
      "ĠArjona": 3453,
      "Ġregard": 3454,
      "Ġamb": 3455,
      "Ġactive": 3456,
      "rapped": 3457,
      "Ġnorthwest": 3458,
      "ĠConf": 3459,
      "Ġgoing": 3460,
      "Ġbring": 3461,
      "ĠImag": 3462,
      "ĠFrank": 3463,
      "Ġpattern": 3464,
      "Ġrepresented": 3465,
      "Ġcyclone": 3466,
      "ĠCentral": 3467,
      "Ġanti": 3468,
      "Ġresponsible": 3469,
      "Ġwithdraw": 3470,
      "Ġbecoming": 3471,
      "Ġraised": 3472,
      "quarters": 3473,
      "Ġweapons": 3474,
      "ĠValkyria": 3475,
      "ĠTurner": 3476,
      "ĠOlmec": 3477,
      "bour": 3478,
      "down": 3479,
      "ging": 3480,
      "like": 3481,
      "uf": 3482,
      "Ġtreat": 3483,
      "ening": 3484,
      "aries": 3485,
      "Ġbank": 3486,
      "Ġpay": 3487,
      "rown": 3488,
      "icle": 3489,
      "leb": 3490,
      "Ġthings": 3491,
      "acted": 3492,
      "ĠMatt": 3493,
      "ĠBh": 3494,
      "ĠBond": 3495,
      "ĠBob": 3496,
      "olis": 3497,
      "Ġgot": 3498,
      "imb": 3499,
      "ushed": 3500,
      "ett": 3501,
      "unction": 3502,
      "Ġconver": 3503,
      "ĠLou": 3504,
      "istance": 3505,
      "umed": 3506,
      "Ġcomedy": 3507,
      "Ġleaving": 3508,
      "plic": 3509,
      "ĠVer": 3510,
      "oke": 3511,
      "Ġparty": 3512,
      "Ġoverall": 3513,
      "Ġdisp": 3514,
      "osek": 3515,
      "oys": 3516,
      "Ġnumbers": 3517,
      "Ġhighly": 3518,
      "ĠAtl": 3519,
      "Ġpoor": 3520,
      "Ġtermin": 3521,
      "Ġnearly": 3522,
      "ospital": 3523,
      "Ġdiscuss": 3524,
      "Ġbridge": 3525,
      "ĠAllied": 3526,
      "Ġprovide": 3527,
      "ĠBridge": 3528,
      "ĠWhite": 3529,
      "rowd": 3530,
      "Ġtracks": 3531,
      "Ġcovered": 3532,
      "Ġsteam": 3533,
      "ĠEmpire": 3534,
      "ĠCanada": 3535,
      "Ġstructure": 3536,
      "Ġconducted": 3537,
      "ĠTetrarchs": 3538,
      "Ġdouble": 3539,
      "Ġenviron": 3540,
      "Al": 3541,
      "OT": 3542,
      "arent": 3543,
      "Ġsour": 3544,
      "atural": 3545,
      "Ġfans": 3546,
      "isers": 3547,
      "Ġbill": 3548,
      "Ġpan": 3549,
      "Ġpow": 3550,
      "Ġmouth": 3551,
      "Ġthick": 3552,
      "ĠSal": 3553,
      "ĠSur": 3554,
      "ĠSaprang": 3555,
      "ĠBu": 3556,
      "ĠIts": 3557,
      "ĠPen": 3558,
      "ĠPeter": 3559,
      "chan": 3560,
      "ĠDream": 3561,
      "Ġwhom": 3562,
      "ĠFrom": 3563,
      "Ġdeck": 3564,
      "ĠOreg": 3565,
      "Ġproposed": 3566,
      "rance": 3567,
      "tee": 3568,
      "ĠArch": 3569,
      "Ġassigned": 3570,
      "ologist": 3571,
      "Ġpresence": 3572,
      "ĠPoland": 3573,
      "Ġcritical": 3574,
      "Ġgrad": 3575,
      "Ġcrossing": 3576,
      "Ġmarked": 3577,
      "Ġsituation": 3578,
      "Ġvisit": 3579,
      "Ġinfluence": 3580,
      "Ġsuggested": 3581,
      "Ġfrequ": 3582,
      "stitution": 3583,
      "Ġrainfall": 3584,
      "Ġranked": 3585,
      "Ġsometimes": 3586,
      "Ġsupplies": 3587,
      "ĠNorthern": 3588,
      "selves": 3589,
      "Ġschol": 3590,
      "ĠOregon": 3591,
      "Th": 3592,
      "ha": 3593,
      "nes": 3594,
      "Ġere": 3595,
      "Ġaim": 3596,
      "inth": 3597,
      "itness": 3598,
      "Ġflow": 3599,
      "Ġcrowd": 3600,
      "Ġbass": 3601,
      "Ġhol": 3602,
      "Ġreferred": 3603,
      "ĠAk": 3604,
      "ĠCivil": 3605,
      "acon": 3606,
      "ĠBost": 3607,
      "Ġonto": 3608,
      "uture": 3609,
      "ĠHam": 3610,
      "ĠPop": 3611,
      "ĠNosek": 3612,
      "eman": 3613,
      "ĠDar": 3614,
      "Ġsea": 3615,
      "ership": 3616,
      "ĠKent": 3617,
      "Ġexhib": 3618,
      "Ġyoun": 3619,
      "Ġintelligence": 3620,
      "Ġcompared": 3621,
      "Ġdism": 3622,
      "viation": 3623,
      "ĠArt": 3624,
      "Ġmonuments": 3625,
      "Ġacqu": 3626,
      "Ġquar": 3627,
      "ĠColle": 3628,
      "ĠConference": 3629,
      "Ġrefused": 3630,
      "Ġextr": 3631,
      "Ġpossess": 3632,
      "Ġmiddle": 3633,
      "Ġcombat": 3634,
      "Ġculture": 3635,
      "Ġchanges": 3636,
      "Ġmagazine": 3637,
      "ĠTemple": 3638,
      "Ġprotest": 3639,
      "Ġprofessional": 3640,
      "ĠCarolina": 3641,
      "ĠLorenzo": 3642,
      "Ġkilometres": 3643,
      "chest": 3644,
      "de": 3645,
      "han": 3646,
      "lam": 3647,
      "ror": 3648,
      "uous": 3649,
      "while": 3650,
      "Ġsal": 3651,
      "Ġsem": 3652,
      "Ġsust": 3653,
      "reets": 3654,
      "Ġfan": 3655,
      "Ġfund": 3656,
      "isions": 3657,
      "Ġtoward": 3658,
      "Ġmention": 3659,
      "Ġdi": 3660,
      "ils": 3661,
      "ĠCold": 3662,
      "Ġemer": 3663,
      "ider": 3664,
      "ows": 3665,
      "ĠHot": 3666,
      "ĠPress": 3667,
      "ully": 3668,
      "emed": 3669,
      "ements": 3670,
      "ĠLo": 3671,
      "Ġdeg": 3672,
      "ĠWal": 3673,
      "Ġran": 3674,
      "Ġplans": 3675,
      "ĠStar": 3676,
      "Ġlear": 3677,
      "Ġability": 3678,
      "Ġparts": 3679,
      "Ġupper": 3680,
      "oint": 3681,
      "Ġconsist": 3682,
      "ĠAli": 3683,
      "Ġfeature": 3684,
      "ĠCommon": 3685,
      "Ġnearby": 3686,
      "Ġannual": 3687,
      "Ġcourse": 3688,
      "Ġtravel": 3689,
      "Ġincrease": 3690,
      "Ġestablish": 3691,
      "Ġespec": 3692,
      "Ġcompanies": 3693,
      "Ġexperi": 3694,
      "Ġpaint": 3695,
      "Ġidea": 3696,
      "ĠMountain": 3697,
      "Ġsurrounding": 3698,
      "Ġcertain": 3699,
      "Ġdeployed": 3700,
      "Ġaudience": 3701,
      "ĠAcad": 3702,
      "ĠCroat": 3703,
      "ĠRepublic": 3704,
      "Ġvariety": 3705,
      "Ġstrikeout": 3706,
      "Ġlyrics": 3707,
      "Ġespecially": 3708,
      "gin": 3709,
      "gal": 3710,
      "gas": 3711,
      "ij": 3712,
      "light": 3713,
      "mission": 3714,
      "pired": 3715,
      "rup": 3716,
      "well": 3717,
      "Ġtell": 3718,
      "Ġtask": 3719,
      "inct": 3720,
      "Ġtheat": 3721,
      "erve": 3722,
      "Ġsays": 3723,
      "Ġsquare": 3724,
      "rey": 3725,
      "Ġwall": 3726,
      "Ġwalk": 3727,
      "ites": 3728,
      "arth": 3729,
      "ana": 3730,
      "Ġdate": 3731,
      "lement": 3732,
      "ĠTropical": 3733,
      "Ġrefer": 3734,
      "enty": 3735,
      "ĠMag": 3736,
      "ĠBC": 3737,
      "ĠBoth": 3738,
      "iday": 3739,
      "ĠRob": 3740,
      "ĠPo": 3741,
      "Ġconsec": 3742,
      "ĠDire": 3743,
      "ĠField": 3744,
      "anded": 3745,
      "aging": 3746,
      "ift": 3747,
      "ĠKaw": 3748,
      "ĠChan": 3749,
      "ishop": 3750,
      "Ġyet": 3751,
      "Ġoffice": 3752,
      "arked": 3753,
      "lands": 3754,
      "Ġdefense": 3755,
      "Ġsupply": 3756,
      "Ġcolumn": 3757,
      "Ġpeace": 3758,
      "Ġsevere": 3759,
      "Ġrecording": 3760,
      "Ġprison": 3761,
      "ĠLead": 3762,
      "Ġlonger": 3763,
      "Ġlikely": 3764,
      "Ġleader": 3765,
      "Ġofficer": 3766,
      "Ġlargely": 3767,
      "Ġportion": 3768,
      "Ġgreatest": 3769,
      "Ġarchae": 3770,
      "ĠOffice": 3771,
      "Ġpressure": 3772,
      "Ġdetail": 3773,
      "Ġhomes": 3774,
      "ĠType": 3775,
      "ĠRecords": 3776,
      "ĠHistor": 3777,
      "Ġvillage": 3778,
      "Ġhouses": 3779,
      "Ġheavily": 3780,
      "ibrary": 3781,
      "NL": 3782,
      "Ġut": 3783,
      "Ġtalk": 3784,
      "Ġword": 3785,
      "Ġwides": 3786,
      "orney": 3787,
      "Ġfaced": 3788,
      "Ġborder": 3789,
      "alions": 3790,
      "Ġpick": 3791,
      "ĠTimes": 3792,
      "ĠTNA": 3793,
      "Ġlink": 3794,
      "Ġnature": 3795,
      "ĠBay": 3796,
      "ĠBulls": 3797,
      "Ġgiving": 3798,
      "ĠLl": 3799,
      "ĠLos": 3800,
      "ĠLight": 3801,
      "aguch": 3802,
      "agogue": 3803,
      "ĠOver": 3804,
      "ĠStud": 3805,
      "raight": 3806,
      "Ġchampionship": 3807,
      "Ġcontemporary": 3808,
      "Ġrow": 3809,
      "Ġroom": 3810,
      "elled": 3811,
      "Ġimm": 3812,
      "Ġattr": 3813,
      "Ġwhole": 3814,
      "Ġsecret": 3815,
      "Ġthemselves": 3816,
      "Ġassemb": 3817,
      "Ġfeel": 3818,
      "Ġregime": 3819,
      "Ġmeant": 3820,
      "ansas": 3821,
      "Ġrelated": 3822,
      "Ġarmed": 3823,
      "Ġactually": 3824,
      "Ġemperor": 3825,
      "Ġelection": 3826,
      "Ġpresident": 3827,
      "struction": 3828,
      "Ġpassing": 3829,
      "iversary": 3830,
      "riving": 3831,
      "ĠChristian": 3832,
      "Ġhands": 3833,
      "Ġtraffic": 3834,
      "Ġphys": 3835,
      "Ġhelped": 3836,
      "ĠWeek": 3837,
      "Ġdivine": 3838,
      "Ġinfluenced": 3839,
      "Ġdeclared": 3840,
      "aught": 3841,
      "ĠCanadian": 3842,
      "Ġpieces": 3843,
      "Ġencounter": 3844,
      "Ġfocus": 3845,
      "Ġconditions": 3846,
      "Ġproblems": 3847,
      "Ġmaterial": 3848,
      "Ġpolicy": 3849,
      "ĠHitler": 3850,
      "Ġwarships": 3851,
      "ĠRobert": 3852,
      "ynasty": 3853,
      "ĠDemocr": 3854,
      "Ġslightly": 3855,
      "aguchi": 3856,
      "BC": 3857,
      "cript": 3858,
      "mese": 3859,
      "mitt": 3860,
      "ridge": 3861,
      "tong": 3862,
      "Ġactions": 3863,
      "Ġsen": 3864,
      "edic": 3865,
      "Ġfuture": 3866,
      "Ġmakes": 3867,
      "Ġdoc": 3868,
      "Ġdaughter": 3869,
      "ĠTom": 3870,
      "ĠTour": 3871,
      "ĠTrans": 3872,
      "acement": 3873,
      "ĠBon": 3874,
      "Ġstating": 3875,
      "ĠHen": 3876,
      "ĠNor": 3877,
      "ĠFI": 3878,
      "Ġanal": 3879,
      "ĠStone": 3880,
      "rawn": 3881,
      "ĠVar": 3882,
      "Ġusually": 3883,
      "ension": 3884,
      "Ġcentre": 3885,
      "ĠSholay": 3886,
      "Ġalbums": 3887,
      "Ġcontinue": 3888,
      "Ġmeth": 3889,
      "Ġindepend": 3890,
      "Ġbroke": 3891,
      "Ġplanning": 3892,
      "Ġguard": 3893,
      "Ġextensive": 3894,
      "Ġallowing": 3895,
      "Ġresulting": 3896,
      "Ġcontrast": 3897,
      "ĠRichard": 3898,
      "ĠBurmese": 3899,
      "ĠHighway": 3900,
      "Ġsurviving": 3901,
      "Ġcultural": 3902,
      "Ġfreeway": 3903,
      "ĠOffic": 3904,
      "Ġreligion": 3905,
      "Ġpromoted": 3906,
      "ography": 3907,
      "ĠMarkgraf": 3908,
      "Ġchanged": 3909,
      "ĠSuper": 3910,
      "Ġcommented": 3911,
      "ĠCorps": 3912,
      "ĠAfrica": 3913,
      "ĠNaktong": 3914,
      "Ġassassination": 3915,
      "Ġconflict": 3916,
      "ĠLouis": 3917,
      "Ġconsecutive": 3918,
      "ĠKawaguchi": 3919,
      "dress": 3920,
      "oid": 3921,
      "pread": 3922,
      "tion": 3923,
      "yram": 3924,
      "Ġess": 3925,
      "Ġour": 3926,
      "Ġfitted": 3927,
      "Ġcaves": 3928,
      "arrow": 3929,
      "Ġban": 3930,
      "Ġtouch": 3931,
      "ented": 3932,
      "adel": 3933,
      "Ġliving": 3934,
      "ĠMr": 3935,
      "ĠBul": 3936,
      "olk": 3937,
      "Ġgive": 3938,
      "ĠIron": 3939,
      "Ġstraight": 3940,
      "ette": 3941,
      "ĠFoot": 3942,
      "osa": 3943,
      "anda": 3944,
      "ĠGod": 3945,
      "Ġshr": 3946,
      "ĠStorm": 3947,
      "Ġarrest": 3948,
      "Ġresidents": 3949,
      "Ġcomposed": 3950,
      "ikamar": 3951,
      "Ġrecover": 3952,
      "ĠThrough": 3953,
      "wealth": 3954,
      "orship": 3955,
      "azirid": 3956,
      "Ġcolossal": 3957,
      "Ġcarved": 3958,
      "Ġrecords": 3959,
      "ernand": 3960,
      "Ġartists": 3961,
      "ĠJane": 3962,
      "Ġprominent": 3963,
      "Ġtype": 3964,
      "Ġtrial": 3965,
      "Ġdemon": 3966,
      "Ġprogress": 3967,
      "Ġshortly": 3968,
      "Ġmedia": 3969,
      "Ġera": 3970,
      "Ġevacuation": 3971,
      "Ġmoving": 3972,
      "ĠPeople": 3973,
      "Ġcoins": 3974,
      "Ġseparate": 3975,
      "Ġancient": 3976,
      "Ġfemale": 3977,
      "Ġlosing": 3978,
      "ĠAngeles": 3979,
      "ĠTurk": 3980,
      "ĠHeavyweight": 3981,
      "Ġsustained": 3982,
      "ĠCommonwealth": 3983,
      "ikamaru": 3984,
      "ex": 3985,
      "ky": 3986,
      "pose": 3987,
      "ya": 3988,
      "yles": 3989,
      "Ġtax": 3990,
      "err": 3991,
      "Ġwa": 3992,
      "Ġwrest": 3993,
      "Ġfast": 3994,
      "Ġfought": 3995,
      "Ġcer": 3996,
      "anes": 3997,
      "isters": 3998,
      "Ġbre": 3999,
      "road": 4000,
      "icip": 4001,
      "Ġdram": 4002,
      "Ġdrum": 4003,
      "Ġhop": 4004,
      "ĠAre": 4005,
      "Ġlaid": 4006,
      "ĠBurn": 4007,
      "Ġbeat": 4008,
      "tere": 4009,
      "ithic": 4010,
      "ayed": 4011,
      "etwork": 4012,
      "Ġhealth": 4013,
      "ĠPagan": 4014,
      "unity": 4015,
      "andy": 4016,
      "ĠGall": 4017,
      "ume": 4018,
      "Ġraid": 4019,
      "ĠEnd": 4020,
      "ivity": 4021,
      "Ġvia": 4022,
      "antic": 4023,
      "ĠChron": 4024,
      "assador": 4025,
      "ĠVideo": 4026,
      "Ġperimeter": 4027,
      "Ġscore": 4028,
      "Ġscoring": 4029,
      "achus": 4030,
      "Ġinterchange": 4031,
      "aily": 4032,
      "Ġearth": 4033,
      "Ġdefence": 4034,
      "Ġassault": 4035,
      "Ġheaddress": 4036,
      "ĠZap": 4037,
      "Ġrelatively": 4038,
      "ĠAmericans": 4039,
      "Ġbattalions": 4040,
      "Ġpoems": 4041,
      "ĠLee": 4042,
      "Ġtransfer": 4043,
      "Ġwriter": 4044,
      "Ġappears": 4045,
      "fully": 4046,
      "Ġturns": 4047,
      "Ġinspired": 4048,
      "ĠFranc": 4049,
      "Ġtwenty": 4050,
      "Ġinitial": 4051,
      "Ġdivided": 4052,
      "Ġprimarily": 4053,
      "ĠCalif": 4054,
      "graded": 4055,
      "Ġsynagogue": 4056,
      "ĠSlayer": 4057,
      "ĠMcCarty": 4058,
      "Ġsummer": 4059,
      "Ġintroduced": 4060,
      "Ġplatform": 4061,
      "Ġshooting": 4062,
      "Ġconspiracy": 4063,
      "Ġrespectively": 4064,
      "Ġdeterm": 4065,
      "Ġequipment": 4066,
      "ĠService": 4067,
      "Ġweakened": 4068,
      "ĠClarkson": 4069,
      "Ġenvironment": 4070,
      "ĠBoston": 4071,
      "gress": 4072,
      "uan": 4073,
      "Ġsac": 4074,
      "Ġsports": 4075,
      "reland": 4076,
      "Ġwoman": 4077,
      "Ġwaters": 4078,
      "ita": 4079,
      "Ġfail": 4080,
      "Ġfully": 4081,
      "Ġcave": 4082,
      "Ġbott": 4083,
      "asy": 4084,
      "Ġmoney": 4085,
      "icop": 4086,
      "Ġdraft": 4087,
      "ĠTra": 4088,
      "Ġreach": 4089,
      "ĠSom": 4090,
      "aches": 4091,
      "ĠMac": 4092,
      "Ġgrew": 4093,
      "uten": 4094,
      "emic": 4095
    },
    "merges": [
      [
        "Ġ",
        "t"
      ],
      [
        "h",
        "e"
      ],
      [
        "Ġ",
        "a"
      ],
      [
        "i",
        "n"
      ],
      [
        "Ġt",
        "he"
      ],
      [
        "e",
        "r"
      ],
      [
        "o",
        "n"
      ],
      [
        "Ġ",
        "s"
      ],
      [
        "e",
        "d"
      ],
      [
        "r",
        "e"
      ],
      [
        "Ġ",
        "w"
      ],
      [
        "Ġ",
        "o"
      ],
      [
        "n",
        "d"
      ],
      [
        "a",
        "t"
      ],
      [
        "o",
        "r"
      ],
      [
        "i",
        "t"
      ],
      [
        "Ġ",
        "f"
      ],
      [
        "e",
        "n"
      ],
      [
        "Ġ",
        "c"
      ],
      [
        "e",
        "s"
      ],
      [
        "a",
        "r"
      ],
      [
        "a",
        "n"
      ],
      [
        "Ġo",
        "f"
      ],
      [
        "i",
        "s"
      ],
      [
        "Ġ",
        "in"
      ],
      [
        "Ġ",
        "b"
      ],
      [
        "a",
        "l"
      ],
      [
        "in",
        "g"
      ],
      [
        "Ġ",
        "p"
      ],
      [
        "a",
        "s"
      ],
      [
        "Ġa",
        "nd"
      ],
      [
        "Ġt",
        "o"
      ],
      [
        "r",
        "o"
      ],
      [
        "Ġ",
        "m"
      ],
      [
        "i",
        "c"
      ],
      [
        "Ġ",
        "d"
      ],
      [
        "Ġ",
        "h"
      ],
      [
        "i",
        "on"
      ],
      [
        "o",
        "u"
      ],
      [
        "l",
        "e"
      ],
      [
        "Ġ",
        "T"
      ],
      [
        "Ġ",
        "re"
      ],
      [
        "i",
        "l"
      ],
      [
        "Ġt",
        "h"
      ],
      [
        "Ġ",
        "S"
      ],
      [
        "Ġ",
        "A"
      ],
      [
        "en",
        "t"
      ],
      [
        "s",
        "t"
      ],
      [
        "a",
        "d"
      ],
      [
        "Ġ",
        "l"
      ],
      [
        "Ġ",
        "C"
      ],
      [
        "Ġ",
        "e"
      ],
      [
        "Ġ",
        "n"
      ],
      [
        "a",
        "c"
      ],
      [
        "Ġw",
        "as"
      ],
      [
        "l",
        "y"
      ],
      [
        "a",
        "m"
      ],
      [
        "o",
        "m"
      ],
      [
        "u",
        "r"
      ],
      [
        "Ġ",
        "M"
      ],
      [
        "Ġ",
        "B"
      ],
      [
        "Ġ",
        "on"
      ],
      [
        "Ġb",
        "e"
      ],
      [
        "o",
        "l"
      ],
      [
        "i",
        "r"
      ],
      [
        "i",
        "d"
      ],
      [
        "Ġ",
        "g"
      ],
      [
        "v",
        "e"
      ],
      [
        "i",
        "g"
      ],
      [
        "i",
        "m"
      ],
      [
        "Ġf",
        "or"
      ],
      [
        "t",
        "er"
      ],
      [
        "c",
        "t"
      ],
      [
        "ĠT",
        "he"
      ],
      [
        "v",
        "er"
      ],
      [
        "o",
        "t"
      ],
      [
        "u",
        "t"
      ],
      [
        "Ġ",
        "I"
      ],
      [
        "Ġa",
        "s"
      ],
      [
        "Ġs",
        "t"
      ],
      [
        "o",
        "w"
      ],
      [
        "it",
        "h"
      ],
      [
        "e",
        "l"
      ],
      [
        "a",
        "y"
      ],
      [
        "u",
        "s"
      ],
      [
        "Ġ",
        "H"
      ],
      [
        "e",
        "t"
      ],
      [
        "at",
        "ion"
      ],
      [
        "Ġ",
        "he"
      ],
      [
        "Ġw",
        "ith"
      ],
      [
        "c",
        "e"
      ],
      [
        "Ġ",
        "R"
      ],
      [
        "Ġ",
        "P"
      ],
      [
        "Ġth",
        "at"
      ],
      [
        "u",
        "n"
      ],
      [
        "Ġ",
        "N"
      ],
      [
        "c",
        "h"
      ],
      [
        "u",
        "l"
      ],
      [
        "Ġa",
        "t"
      ],
      [
        "Ġb",
        "y"
      ],
      [
        "Ġa",
        "l"
      ],
      [
        "Ġc",
        "on"
      ],
      [
        "e",
        "m"
      ],
      [
        "Ġ",
        "D"
      ],
      [
        "Ġw",
        "h"
      ],
      [
        "Ġ",
        "F"
      ],
      [
        "o",
        "s"
      ],
      [
        "a",
        "in"
      ],
      [
        "t",
        "h"
      ],
      [
        "a",
        "nd"
      ],
      [
        "Ġ",
        "is"
      ],
      [
        "Ġ",
        "L"
      ],
      [
        "r",
        "i"
      ],
      [
        "Ġd",
        "e"
      ],
      [
        "Ġ",
        "W"
      ],
      [
        "Ġ",
        "G"
      ],
      [
        "Ġ",
        "J"
      ],
      [
        "ro",
        "m"
      ],
      [
        "Ġs",
        "e"
      ],
      [
        "Ġa",
        "n"
      ],
      [
        "Ġ",
        "it"
      ],
      [
        "a",
        "g"
      ],
      [
        "er",
        "e"
      ],
      [
        "is",
        "t"
      ],
      [
        "u",
        "m"
      ],
      [
        "er",
        "s"
      ],
      [
        "he",
        "r"
      ],
      [
        "es",
        "t"
      ],
      [
        "Ġ",
        "r"
      ],
      [
        "Ġw",
        "ere"
      ],
      [
        "a",
        "p"
      ],
      [
        "Ġf",
        "rom"
      ],
      [
        "o",
        "d"
      ],
      [
        "Ġ",
        "E"
      ],
      [
        "or",
        "t"
      ],
      [
        "Ġc",
        "om"
      ],
      [
        "o",
        "p"
      ],
      [
        "re",
        "s"
      ],
      [
        "Ġh",
        "is"
      ],
      [
        "il",
        "l"
      ],
      [
        "at",
        "e"
      ],
      [
        "ig",
        "h"
      ],
      [
        "u",
        "p"
      ],
      [
        "b",
        "er"
      ],
      [
        "Ġ",
        "O"
      ],
      [
        "i",
        "v"
      ],
      [
        "on",
        "g"
      ],
      [
        "Ġp",
        "ro"
      ],
      [
        "ic",
        "h"
      ],
      [
        "i",
        "f"
      ],
      [
        "l",
        "d"
      ],
      [
        "o",
        "re"
      ],
      [
        "i",
        "an"
      ],
      [
        "a",
        "k"
      ],
      [
        "e",
        "w"
      ],
      [
        "i",
        "es"
      ],
      [
        "i",
        "p"
      ],
      [
        "Ġ",
        "U"
      ],
      [
        "al",
        "l"
      ],
      [
        "at",
        "ed"
      ],
      [
        "Ġ",
        "K"
      ],
      [
        "it",
        "y"
      ],
      [
        "q",
        "u"
      ],
      [
        "p",
        "e"
      ],
      [
        "s",
        "e"
      ],
      [
        "Ġ",
        "v"
      ],
      [
        "ar",
        "t"
      ],
      [
        "Ġs",
        "h"
      ],
      [
        "ar",
        "d"
      ],
      [
        "Ġp",
        "l"
      ],
      [
        "o",
        "c"
      ],
      [
        "g",
        "h"
      ],
      [
        "i",
        "ve"
      ],
      [
        "Ġh",
        "ad"
      ],
      [
        "u",
        "st"
      ],
      [
        "ĠS",
        "t"
      ],
      [
        "an",
        "t"
      ],
      [
        "ou",
        "r"
      ],
      [
        "u",
        "d"
      ],
      [
        "a",
        "b"
      ],
      [
        "Ġo",
        "r"
      ],
      [
        "m",
        "ent"
      ],
      [
        "ac",
        "k"
      ],
      [
        "Ġe",
        "x"
      ],
      [
        "a",
        "v"
      ],
      [
        "u",
        "nd"
      ],
      [
        "c",
        "l"
      ],
      [
        "Ġ",
        "k"
      ],
      [
        "es",
        "s"
      ],
      [
        "g",
        "e"
      ],
      [
        "am",
        "e"
      ],
      [
        "Ġwh",
        "ich"
      ],
      [
        "as",
        "t"
      ],
      [
        "r",
        "a"
      ],
      [
        "Ġs",
        "u"
      ],
      [
        "ĠI",
        "n"
      ],
      [
        "Ġa",
        "re"
      ],
      [
        "igh",
        "t"
      ],
      [
        "Ġc",
        "h"
      ],
      [
        "ĠC",
        "h"
      ],
      [
        "i",
        "al"
      ],
      [
        "o",
        "st"
      ],
      [
        "ou",
        "t"
      ],
      [
        "Ġn",
        "ot"
      ],
      [
        "is",
        "h"
      ],
      [
        "r",
        "it"
      ],
      [
        "ar",
        "y"
      ],
      [
        "i",
        "a"
      ],
      [
        "p",
        "t"
      ],
      [
        "or",
        "d"
      ],
      [
        "in",
        "e"
      ],
      [
        "Ġa",
        "r"
      ],
      [
        "e",
        "ar"
      ],
      [
        "Ġ",
        "le"
      ],
      [
        "ou",
        "n"
      ],
      [
        "ct",
        "ion"
      ],
      [
        "Ġ",
        "y"
      ],
      [
        "f",
        "ter"
      ],
      [
        "Ġ",
        "un"
      ],
      [
        "o",
        "g"
      ],
      [
        "r",
        "u"
      ],
      [
        "a",
        "ve"
      ],
      [
        "id",
        "e"
      ],
      [
        "as",
        "s"
      ],
      [
        "on",
        "d"
      ],
      [
        "Ġin",
        "t"
      ],
      [
        "ĠH",
        "e"
      ],
      [
        "s",
        "o"
      ],
      [
        "Ġcon",
        "t"
      ],
      [
        "Ġ",
        "ro"
      ],
      [
        "ic",
        "al"
      ],
      [
        "r",
        "y"
      ],
      [
        "el",
        "l"
      ],
      [
        "Ġthe",
        "ir"
      ],
      [
        "p",
        "l"
      ],
      [
        "t",
        "her"
      ],
      [
        "ig",
        "n"
      ],
      [
        "w",
        "o"
      ],
      [
        "Ġf",
        "ir"
      ],
      [
        "ou",
        "ld"
      ],
      [
        "ow",
        "n"
      ],
      [
        "p",
        "er"
      ],
      [
        "p",
        "ort"
      ],
      [
        "c",
        "c"
      ],
      [
        "ou",
        "s"
      ],
      [
        "Ġal",
        "so"
      ],
      [
        "i",
        "e"
      ],
      [
        "Ġ",
        "V"
      ],
      [
        "Ġit",
        "s"
      ],
      [
        "u",
        "e"
      ],
      [
        "it",
        "ion"
      ],
      [
        "m",
        "er"
      ],
      [
        "f",
        "f"
      ],
      [
        "Ġb",
        "ut"
      ],
      [
        "T",
        "he"
      ],
      [
        "u",
        "re"
      ],
      [
        "l",
        "ow"
      ],
      [
        "im",
        "e"
      ],
      [
        "om",
        "e"
      ],
      [
        "Ġw",
        "he"
      ],
      [
        "or",
        "k"
      ],
      [
        "r",
        "an"
      ],
      [
        "Ġfir",
        "st"
      ],
      [
        "Ġc",
        "l"
      ],
      [
        "t",
        "e"
      ],
      [
        "m",
        "an"
      ],
      [
        "t",
        "ed"
      ],
      [
        "re",
        "e"
      ],
      [
        "Ġp",
        "er"
      ],
      [
        "Ġa",
        "b"
      ],
      [
        "Ġa",
        "g"
      ],
      [
        "ur",
        "ing"
      ],
      [
        "Ġon",
        "e"
      ],
      [
        "he",
        "d"
      ],
      [
        "ag",
        "e"
      ],
      [
        "i",
        "re"
      ],
      [
        "o",
        "k"
      ],
      [
        "at",
        "er"
      ],
      [
        "Ġre",
        "s"
      ],
      [
        "Ġa",
        "d"
      ],
      [
        "Ġbe",
        "en"
      ],
      [
        "v",
        "ed"
      ],
      [
        "Ġt",
        "wo"
      ],
      [
        "Ġcom",
        "p"
      ],
      [
        "u",
        "gh"
      ],
      [
        "i",
        "k"
      ],
      [
        "Ġ",
        "us"
      ],
      [
        "Ġs",
        "c"
      ],
      [
        "u",
        "b"
      ],
      [
        "ac",
        "h"
      ],
      [
        "Ġh",
        "ave"
      ],
      [
        "Ġh",
        "as"
      ],
      [
        "en",
        "s"
      ],
      [
        "t",
        "s"
      ],
      [
        "Ġa",
        "fter"
      ],
      [
        "Ġre",
        "c"
      ],
      [
        "i",
        "le"
      ],
      [
        "i",
        "z"
      ],
      [
        "Ġt",
        "e"
      ],
      [
        "r",
        "al"
      ],
      [
        "ou",
        "gh"
      ],
      [
        "en",
        "ce"
      ],
      [
        "o",
        "ver"
      ],
      [
        "Ġa",
        "p"
      ],
      [
        "Ġp",
        "art"
      ],
      [
        "i",
        "b"
      ],
      [
        "re",
        "n"
      ],
      [
        "Ġ",
        "j"
      ],
      [
        "al",
        "ly"
      ],
      [
        "ou",
        "nd"
      ],
      [
        "cl",
        "ud"
      ],
      [
        "Ġ",
        "im"
      ],
      [
        "Ġo",
        "ver"
      ],
      [
        "Ġof",
        "f"
      ],
      [
        "Ġth",
        "is"
      ],
      [
        "Ġ",
        "Y"
      ],
      [
        "Ġat",
        "t"
      ],
      [
        "Ġwh",
        "o"
      ],
      [
        "e",
        "ct"
      ],
      [
        "a",
        "w"
      ],
      [
        "at",
        "t"
      ],
      [
        "or",
        "m"
      ],
      [
        "Ġd",
        "es"
      ],
      [
        "Ġd",
        "is"
      ],
      [
        "ar",
        "k"
      ],
      [
        "r",
        "on"
      ],
      [
        "ation",
        "s"
      ],
      [
        "Ġhe",
        "r"
      ],
      [
        "ĠT",
        "h"
      ],
      [
        "Ġbe",
        "c"
      ],
      [
        "Ġ",
        "en"
      ],
      [
        "Ġthe",
        "y"
      ],
      [
        "ul",
        "t"
      ],
      [
        "ac",
        "e"
      ],
      [
        "ad",
        "e"
      ],
      [
        "Ġo",
        "ut"
      ],
      [
        "Ġ",
        "up"
      ],
      [
        "res",
        "s"
      ],
      [
        "c",
        "es"
      ],
      [
        "Ġin",
        "clud"
      ],
      [
        "l",
        "and"
      ],
      [
        "ĠI",
        "t"
      ],
      [
        "in",
        "d"
      ],
      [
        "w",
        "ard"
      ],
      [
        "Ġt",
        "ime"
      ],
      [
        "ur",
        "n"
      ],
      [
        "or",
        "th"
      ],
      [
        "Ġs",
        "er"
      ],
      [
        "ic",
        "e"
      ],
      [
        "Ġpl",
        "ay"
      ],
      [
        "Ġcom",
        "m"
      ],
      [
        "Ġm",
        "an"
      ],
      [
        "Ġe",
        "v"
      ],
      [
        "ĠS",
        "e"
      ],
      [
        "Ġn",
        "e"
      ],
      [
        "Ġint",
        "o"
      ],
      [
        "Ġy",
        "ear"
      ],
      [
        "ion",
        "s"
      ],
      [
        "c",
        "ed"
      ],
      [
        "i",
        "ed"
      ],
      [
        "os",
        "e"
      ],
      [
        "is",
        "s"
      ],
      [
        "ro",
        "ugh"
      ],
      [
        "ac",
        "t"
      ],
      [
        "o",
        "ve"
      ],
      [
        "d",
        "u"
      ],
      [
        "r",
        "ic"
      ],
      [
        "p",
        "h"
      ],
      [
        "l",
        "l"
      ],
      [
        "Ġo",
        "ther"
      ],
      [
        "Ġp",
        "re"
      ],
      [
        "Ġre",
        "m"
      ],
      [
        "an",
        "ce"
      ],
      [
        "ĠU",
        "n"
      ],
      [
        "f",
        "t"
      ],
      [
        "Ġw",
        "e"
      ],
      [
        "ol",
        "d"
      ],
      [
        "it",
        "ed"
      ],
      [
        "Ġf",
        "il"
      ],
      [
        "w",
        "e"
      ],
      [
        "ou",
        "th"
      ],
      [
        "oun",
        "t"
      ],
      [
        "ĠA",
        "ust"
      ],
      [
        "Ġd",
        "uring"
      ],
      [
        "it",
        "e"
      ],
      [
        "ro",
        "und"
      ],
      [
        "Ġw",
        "ould"
      ],
      [
        "ĠR",
        "e"
      ],
      [
        "Ġin",
        "ter"
      ],
      [
        "o",
        "in"
      ],
      [
        "Ġt",
        "r"
      ],
      [
        "v",
        "i"
      ],
      [
        "Ġh",
        "im"
      ],
      [
        "Ġm",
        "ore"
      ],
      [
        "as",
        "ed"
      ],
      [
        "l",
        "es"
      ],
      [
        "a",
        "re"
      ],
      [
        "Ġag",
        "ain"
      ],
      [
        "Ġ",
        "und"
      ],
      [
        "ĠA",
        "n"
      ],
      [
        "a",
        "il"
      ],
      [
        "n",
        "e"
      ],
      [
        "er",
        "ed"
      ],
      [
        "or",
        "y"
      ],
      [
        "Ġal",
        "l"
      ],
      [
        "ĠD",
        "e"
      ],
      [
        "g",
        "an"
      ],
      [
        "at",
        "es"
      ],
      [
        "Ġse",
        "c"
      ],
      [
        "in",
        "es"
      ],
      [
        "or",
        "s"
      ],
      [
        "on",
        "e"
      ],
      [
        "e",
        "nd"
      ],
      [
        "w",
        "ay"
      ],
      [
        "an",
        "g"
      ],
      [
        "as",
        "on"
      ],
      [
        "ĠA",
        "r"
      ],
      [
        "ĠB",
        "rit"
      ],
      [
        "Ġfil",
        "m"
      ],
      [
        "Ġs",
        "he"
      ],
      [
        "i",
        "ver"
      ],
      [
        "o",
        "y"
      ],
      [
        "h",
        "ip"
      ],
      [
        "Ġe",
        "ar"
      ],
      [
        "ol",
        "low"
      ],
      [
        "Ġthe",
        "m"
      ],
      [
        "am",
        "p"
      ],
      [
        "as",
        "e"
      ],
      [
        "ve",
        "l"
      ],
      [
        "Ġde",
        "f"
      ],
      [
        "Ġund",
        "er"
      ],
      [
        "Ġcon",
        "s"
      ],
      [
        "c",
        "k"
      ],
      [
        "Ġs",
        "pe"
      ],
      [
        "ing",
        "s"
      ],
      [
        "u",
        "il"
      ],
      [
        "Ġth",
        "ree"
      ],
      [
        "ent",
        "s"
      ],
      [
        "ic",
        "an"
      ],
      [
        "s",
        "s"
      ],
      [
        "Ġs",
        "up"
      ],
      [
        "Ġw",
        "ork"
      ],
      [
        "Ġon",
        "ly"
      ],
      [
        "Ġm",
        "ost"
      ],
      [
        "ab",
        "le"
      ],
      [
        "Ġf",
        "l"
      ],
      [
        "f",
        "er"
      ],
      [
        "w",
        "n"
      ],
      [
        "ĠU",
        "S"
      ],
      [
        "Ġa",
        "ir"
      ],
      [
        "ĠA",
        "mer"
      ],
      [
        "Ġbe",
        "t"
      ],
      [
        "is",
        "ion"
      ],
      [
        "Ġp",
        "os"
      ],
      [
        "ic",
        "k"
      ],
      [
        "ĠAust",
        "ral"
      ],
      [
        "Ġc",
        "ent"
      ],
      [
        "ri",
        "b"
      ],
      [
        "Ġre",
        "t"
      ],
      [
        "ation",
        "al"
      ],
      [
        "oc",
        "k"
      ],
      [
        "Ġs",
        "p"
      ],
      [
        "re",
        "at"
      ],
      [
        "ĠC",
        "om"
      ],
      [
        "on",
        "s"
      ],
      [
        "an",
        "k"
      ],
      [
        "Ġth",
        "rough"
      ],
      [
        "Ġe",
        "nd"
      ],
      [
        "Ġn",
        "ew"
      ],
      [
        "ter",
        "n"
      ],
      [
        "Ġas",
        "s"
      ],
      [
        "Ġn",
        "um"
      ],
      [
        "Ġf",
        "e"
      ],
      [
        "ub",
        "l"
      ],
      [
        "ot",
        "h"
      ],
      [
        "ol",
        "og"
      ],
      [
        "ro",
        "p"
      ],
      [
        "Ġsu",
        "b"
      ],
      [
        "Ġwhe",
        "n"
      ],
      [
        "ĠN",
        "ew"
      ],
      [
        "Ġf",
        "in"
      ],
      [
        "r",
        "ed"
      ],
      [
        "ct",
        "ed"
      ],
      [
        "Ġre",
        "g"
      ],
      [
        "o",
        "b"
      ],
      [
        "o",
        "od"
      ],
      [
        "Ġab",
        "out"
      ],
      [
        "ter",
        "s"
      ],
      [
        "Ġf",
        "our"
      ],
      [
        "Ġd",
        "ay"
      ],
      [
        "we",
        "en"
      ],
      [
        "f",
        "ore"
      ],
      [
        "n",
        "ing"
      ],
      [
        "Ġhe",
        "ad"
      ],
      [
        "m",
        "ber"
      ],
      [
        "Ġsh",
        "ip"
      ],
      [
        "Ġg",
        "ro"
      ],
      [
        "Ġk",
        "n"
      ],
      [
        "a",
        "z"
      ],
      [
        "Ġc",
        "ol"
      ],
      [
        "ic",
        "t"
      ],
      [
        "u",
        "al"
      ],
      [
        "a",
        "us"
      ],
      [
        "Ġl",
        "ater"
      ],
      [
        "i",
        "x"
      ],
      [
        "Ġm",
        "e"
      ],
      [
        "Ġf",
        "ollow"
      ],
      [
        "Ġwh",
        "ile"
      ],
      [
        "a",
        "id"
      ],
      [
        "Ġp",
        "e"
      ],
      [
        "ak",
        "e"
      ],
      [
        "at",
        "ing"
      ],
      [
        "an",
        "s"
      ],
      [
        "Ġse",
        "ason"
      ],
      [
        "Ġw",
        "ar"
      ],
      [
        "en",
        "er"
      ],
      [
        "u",
        "g"
      ],
      [
        "ĠM",
        "ar"
      ],
      [
        "ĠG",
        "er"
      ],
      [
        "em",
        "ber"
      ],
      [
        "Ġwhe",
        "re"
      ],
      [
        "Ġs",
        "ome"
      ],
      [
        "ĠBrit",
        "ish"
      ],
      [
        "Ġbet",
        "ween"
      ],
      [
        "I",
        "n"
      ],
      [
        "p",
        "ed"
      ],
      [
        "Ġc",
        "ar"
      ],
      [
        "Ġm",
        "on"
      ],
      [
        "ain",
        "ed"
      ],
      [
        "Ġte",
        "am"
      ],
      [
        "Ġ",
        "Z"
      ],
      [
        "Ġin",
        "v"
      ],
      [
        "Ġa",
        "m"
      ],
      [
        "Ġo",
        "p"
      ],
      [
        "a",
        "j"
      ],
      [
        "it",
        "ies"
      ],
      [
        "Ġl",
        "ar"
      ],
      [
        "Ġb",
        "uil"
      ],
      [
        "ĠS",
        "h"
      ],
      [
        "Ġs",
        "ong"
      ],
      [
        "Ġre",
        "l"
      ],
      [
        "Ġth",
        "an"
      ],
      [
        "Ġm",
        "ade"
      ],
      [
        "ĠA",
        "l"
      ],
      [
        "Ġpro",
        "du"
      ],
      [
        "Ġfor",
        "m"
      ],
      [
        "ik",
        "e"
      ],
      [
        "b",
        "um"
      ],
      [
        "Ġse",
        "ver"
      ],
      [
        "ĠGer",
        "man"
      ],
      [
        "Ġar",
        "m"
      ],
      [
        "ĠW",
        "ar"
      ],
      [
        "ĠI",
        "nd"
      ],
      [
        "Ġs",
        "ur"
      ],
      [
        "Ġbe",
        "fore"
      ],
      [
        "ĠO",
        "n"
      ],
      [
        "Ġrec",
        "ord"
      ],
      [
        "Ġsec",
        "ond"
      ],
      [
        "Ġnum",
        "ber"
      ],
      [
        "Ġa",
        "ct"
      ],
      [
        "over",
        "n"
      ],
      [
        "Ġbe",
        "ing"
      ],
      [
        "ĠAmer",
        "ican"
      ],
      [
        "Ġagain",
        "st"
      ],
      [
        "Ġg",
        "ame"
      ],
      [
        "Ġh",
        "igh"
      ],
      [
        "ĠS",
        "c"
      ],
      [
        "o",
        "ok"
      ],
      [
        "Ġc",
        "ity"
      ],
      [
        "Ġre",
        "le"
      ],
      [
        "i",
        "ent"
      ],
      [
        "al",
        "s"
      ],
      [
        "t",
        "on"
      ],
      [
        "ul",
        "l"
      ],
      [
        "Ġal",
        "bum"
      ],
      [
        "Ġus",
        "ed"
      ],
      [
        "Ġch",
        "ar"
      ],
      [
        "if",
        "ic"
      ],
      [
        "Ġap",
        "p"
      ],
      [
        "Ġp",
        "r"
      ],
      [
        "Ġthe",
        "re"
      ],
      [
        "Ġl",
        "oc"
      ],
      [
        "or",
        "ld"
      ],
      [
        "i",
        "o"
      ],
      [
        "Ġper",
        "f"
      ],
      [
        "Ġa",
        "cc"
      ],
      [
        "Ġg",
        "un"
      ],
      [
        "ow",
        "er"
      ],
      [
        "Ġatt",
        "ack"
      ],
      [
        "ran",
        "s"
      ],
      [
        "Ġb",
        "att"
      ],
      [
        "ĠM",
        "an"
      ],
      [
        "ap",
        "an"
      ],
      [
        "Ġcont",
        "in"
      ],
      [
        "e",
        "ver"
      ],
      [
        "e",
        "k"
      ],
      [
        "at",
        "h"
      ],
      [
        "ĠJ",
        "apan"
      ],
      [
        "ul",
        "ar"
      ],
      [
        "he",
        "s"
      ],
      [
        "Ġin",
        "c"
      ],
      [
        "Ġin",
        "f"
      ],
      [
        "Ġe",
        "m"
      ],
      [
        "av",
        "y"
      ],
      [
        "Ġsever",
        "al"
      ],
      [
        "y",
        "l"
      ],
      [
        "i",
        "ous"
      ],
      [
        "in",
        "ce"
      ],
      [
        "i",
        "el"
      ],
      [
        "Ġs",
        "o"
      ],
      [
        "Ġa",
        "c"
      ],
      [
        "is",
        "hed"
      ],
      [
        "Ġb",
        "ack"
      ],
      [
        "am",
        "es"
      ],
      [
        "Ġc",
        "o"
      ],
      [
        "Ġbec",
        "ame"
      ],
      [
        "Ġo",
        "per"
      ],
      [
        "vel",
        "op"
      ],
      [
        "ĠM",
        "ay"
      ],
      [
        "Ġ",
        "ent"
      ],
      [
        "th",
        "ough"
      ],
      [
        "ĠL",
        "es"
      ],
      [
        "ian",
        "s"
      ],
      [
        "ĠUn",
        "ited"
      ],
      [
        "s",
        "on"
      ],
      [
        "Ġal",
        "ong"
      ],
      [
        "e",
        "y"
      ],
      [
        "Ġm",
        "et"
      ],
      [
        "ĠA",
        "t"
      ],
      [
        "Ġsu",
        "ch"
      ],
      [
        "Ġdes",
        "ign"
      ],
      [
        "Ġinclud",
        "ing"
      ],
      [
        "Ġb",
        "oth"
      ],
      [
        "Ġm",
        "at"
      ],
      [
        "p",
        "r"
      ],
      [
        "Ġs",
        "m"
      ],
      [
        "Ġw",
        "ell"
      ],
      [
        "Ġp",
        "ubl"
      ],
      [
        "Ġin",
        "d"
      ],
      [
        "Ġp",
        "ol"
      ],
      [
        "Ġspe",
        "c"
      ],
      [
        "a",
        "ir"
      ],
      [
        "o",
        "v"
      ],
      [
        "is",
        "ed"
      ],
      [
        "ot",
        "her"
      ],
      [
        "em",
        "b"
      ],
      [
        "Ġthe",
        "n"
      ],
      [
        "ĠA",
        "s"
      ],
      [
        "ĠC",
        "l"
      ],
      [
        "u",
        "res"
      ],
      [
        "el",
        "f"
      ],
      [
        "ro",
        "ss"
      ],
      [
        "Ġ",
        "ver"
      ],
      [
        "ĠB",
        "e"
      ],
      [
        "p",
        "os"
      ],
      [
        "Ġc",
        "ap"
      ],
      [
        "Ġn",
        "o"
      ],
      [
        "es",
        "e"
      ],
      [
        "i",
        "er"
      ],
      [
        "Ġ",
        "qu"
      ],
      [
        "Ġm",
        "ain"
      ],
      [
        "Ġg",
        "overn"
      ],
      [
        "j",
        "ect"
      ],
      [
        "Ġs",
        "y"
      ],
      [
        "ow",
        "ever"
      ],
      [
        "Ġde",
        "c"
      ],
      [
        "all",
        "ed"
      ],
      [
        "v",
        "en"
      ],
      [
        "er",
        "t"
      ],
      [
        "Ġm",
        "in"
      ],
      [
        "Ġbe",
        "gan"
      ],
      [
        "Ġm",
        "il"
      ],
      [
        "Ġ",
        "est"
      ],
      [
        "d",
        "er"
      ],
      [
        "Ġp",
        "o"
      ],
      [
        "Ġad",
        "d"
      ],
      [
        "Ġman",
        "y"
      ],
      [
        "u",
        "ch"
      ],
      [
        "it",
        "s"
      ],
      [
        "Ġre",
        "p"
      ],
      [
        "t",
        "ing"
      ],
      [
        "Ġf",
        "ound"
      ],
      [
        "ĠL",
        "e"
      ],
      [
        "Ġt",
        "rans"
      ],
      [
        "Ġb",
        "l"
      ],
      [
        "Ġw",
        "rit"
      ],
      [
        "r",
        "ap"
      ],
      [
        "u",
        "ed"
      ],
      [
        "ur",
        "y"
      ],
      [
        "ĠN",
        "orth"
      ],
      [
        "Ġthe",
        "se"
      ],
      [
        "Ġc",
        "an"
      ],
      [
        "Ġde",
        "velop"
      ],
      [
        "Ġap",
        "pe"
      ],
      [
        "un",
        "e"
      ],
      [
        "t",
        "en"
      ],
      [
        "Ġs",
        "ign"
      ],
      [
        "Ġe",
        "le"
      ],
      [
        "r",
        "am"
      ],
      [
        "Ġc",
        "ould"
      ],
      [
        "ac",
        "ed"
      ],
      [
        "Ġm",
        "us"
      ],
      [
        "Ġl",
        "ong"
      ],
      [
        "ut",
        "e"
      ],
      [
        "Ġgro",
        "up"
      ],
      [
        "ist",
        "s"
      ],
      [
        "at",
        "ive"
      ],
      [
        "Ġm",
        "ill"
      ],
      [
        "ĠTh",
        "is"
      ],
      [
        "Ġd",
        "id"
      ],
      [
        "iv",
        "ed"
      ],
      [
        "Ġs",
        "ing"
      ],
      [
        "ĠS",
        "he"
      ],
      [
        "a",
        "h"
      ],
      [
        "er",
        "o"
      ],
      [
        "Ġyear",
        "s"
      ],
      [
        "o",
        "ber"
      ],
      [
        "ig",
        "in"
      ],
      [
        "ĠSe",
        "pt"
      ],
      [
        "Ġkn",
        "own"
      ],
      [
        "Ġd",
        "o"
      ],
      [
        "ĠSept",
        "ember"
      ],
      [
        "f",
        "ul"
      ],
      [
        "is",
        "e"
      ],
      [
        "Ġp",
        "res"
      ],
      [
        "st",
        "ru"
      ],
      [
        "id",
        "ent"
      ],
      [
        "Ġt",
        "er"
      ],
      [
        "he",
        "n"
      ],
      [
        "il",
        "y"
      ],
      [
        "ur",
        "ch"
      ],
      [
        "er",
        "n"
      ],
      [
        "Ġd",
        "ire"
      ],
      [
        "Ġar",
        "t"
      ],
      [
        "Ġret",
        "urn"
      ],
      [
        "e",
        "p"
      ],
      [
        "Ġn",
        "orth"
      ],
      [
        "Ġk",
        "m"
      ],
      [
        "Ġl",
        "ike"
      ],
      [
        "ĠC",
        "ol"
      ],
      [
        "ur",
        "ed"
      ],
      [
        "Ġde",
        "p"
      ],
      [
        "ic",
        "s"
      ],
      [
        "Ġd",
        "own"
      ],
      [
        "Ġre",
        "ce"
      ],
      [
        "ment",
        "s"
      ],
      [
        "Ġle",
        "ad"
      ],
      [
        "er",
        "v"
      ],
      [
        "Ġl",
        "and"
      ],
      [
        "Ġcomp",
        "le"
      ],
      [
        "Ġs",
        "aid"
      ],
      [
        "ra",
        "ft"
      ],
      [
        "iel",
        "d"
      ],
      [
        "ar",
        "ed"
      ],
      [
        "ak",
        "ing"
      ],
      [
        "Ġfe",
        "at"
      ],
      [
        "Ġsm",
        "all"
      ],
      [
        "et",
        "s"
      ],
      [
        "Ġear",
        "ly"
      ],
      [
        "Ġb",
        "ro"
      ],
      [
        "Ġh",
        "ist"
      ],
      [
        "or",
        "n"
      ],
      [
        "Ġp",
        "op"
      ],
      [
        "ĠCom",
        "m"
      ],
      [
        "Ġo",
        "b"
      ],
      [
        "Ġc",
        "re"
      ],
      [
        "an",
        "ge"
      ],
      [
        "op",
        "le"
      ],
      [
        "Ġa",
        "round"
      ],
      [
        "n",
        "ar"
      ],
      [
        "ĠP",
        "ol"
      ],
      [
        "Ġan",
        "y"
      ],
      [
        "x",
        "t"
      ],
      [
        "ar",
        "s"
      ],
      [
        "ir",
        "on"
      ],
      [
        "Ġoff",
        "ic"
      ],
      [
        "al",
        "e"
      ],
      [
        "Ġn",
        "ear"
      ],
      [
        "ĠJ",
        "an"
      ],
      [
        "ĠP",
        "h"
      ],
      [
        "o",
        "h"
      ],
      [
        "os",
        "s"
      ],
      [
        "Ġare",
        "a"
      ],
      [
        "ĠB",
        "l"
      ],
      [
        "Ġp",
        "ers"
      ],
      [
        "aj",
        "or"
      ],
      [
        "Ġlar",
        "ge"
      ],
      [
        "Ġs",
        "et"
      ],
      [
        "Ġsh",
        "ow"
      ],
      [
        "p",
        "le"
      ],
      [
        "id",
        "ed"
      ],
      [
        "aus",
        "e"
      ],
      [
        "ĠA",
        "ug"
      ],
      [
        "Ġser",
        "ies"
      ],
      [
        "ĠAug",
        "ust"
      ],
      [
        "o",
        "ol"
      ],
      [
        "o",
        "ot"
      ],
      [
        "at",
        "her"
      ],
      [
        "her",
        "n"
      ],
      [
        "Ġor",
        "igin"
      ],
      [
        "Ġt",
        "em"
      ],
      [
        "in",
        "t"
      ],
      [
        "Ġg",
        "od"
      ],
      [
        "iz",
        "ed"
      ],
      [
        "Ġsup",
        "port"
      ],
      [
        "k",
        "e"
      ],
      [
        "r",
        "ist"
      ],
      [
        "iv",
        "ision"
      ],
      [
        "u",
        "ally"
      ],
      [
        "e",
        "b"
      ],
      [
        "Ġd",
        "if"
      ],
      [
        "Ġcon",
        "c"
      ],
      [
        "ib",
        "le"
      ],
      [
        "p",
        "an"
      ],
      [
        "os",
        "p"
      ],
      [
        "qu",
        "ad"
      ],
      [
        "t",
        "il"
      ],
      [
        "Ġin",
        "st"
      ],
      [
        "Ġst",
        "art"
      ],
      [
        "ĠJapan",
        "ese"
      ],
      [
        "ĠS",
        "outh"
      ],
      [
        "ct",
        "or"
      ],
      [
        "ĠE",
        "n"
      ],
      [
        "ĠO",
        "ct"
      ],
      [
        "cc",
        "ess"
      ],
      [
        "ĠA",
        "fter"
      ],
      [
        "Ġe",
        "p"
      ],
      [
        "Ġchar",
        "ac"
      ],
      [
        "o",
        "ad"
      ],
      [
        "it",
        "t"
      ],
      [
        "Ġto",
        "ok"
      ],
      [
        "Ġdis",
        "c"
      ],
      [
        "Ġfollow",
        "ing"
      ],
      [
        "Ġw",
        "in"
      ],
      [
        "s",
        "ide"
      ],
      [
        "at",
        "s"
      ],
      [
        "or",
        "ed"
      ],
      [
        "Ġfor",
        "ces"
      ],
      [
        "ĠJ",
        "une"
      ],
      [
        "ĠN",
        "ove"
      ],
      [
        "Ġun",
        "til"
      ],
      [
        "rop",
        "ical"
      ],
      [
        "Ġd",
        "am"
      ],
      [
        "g",
        "est"
      ],
      [
        "Ġp",
        "rom"
      ],
      [
        "Ġst",
        "r"
      ],
      [
        "ain",
        "ing"
      ],
      [
        "Ġpl",
        "an"
      ],
      [
        "ĠLes",
        "nar"
      ],
      [
        "ĠNove",
        "mber"
      ],
      [
        "Ġc",
        "alled"
      ],
      [
        "is",
        "m"
      ],
      [
        "in",
        "a"
      ],
      [
        "Ġs",
        "outh"
      ],
      [
        "ĠB",
        "att"
      ],
      [
        "Ġpos",
        "ition"
      ],
      [
        "ĠC",
        "on"
      ],
      [
        "Ġg",
        "ener"
      ],
      [
        "if",
        "ied"
      ],
      [
        "o",
        "ved"
      ],
      [
        "vi",
        "ew"
      ],
      [
        "ĠAustral",
        "ian"
      ],
      [
        "ĠOct",
        "ober"
      ],
      [
        "Ġt",
        "ro"
      ],
      [
        "Ġg",
        "u"
      ],
      [
        "Ġrele",
        "ased"
      ],
      [
        "l",
        "ed"
      ],
      [
        "Ġg",
        "o"
      ],
      [
        "ren",
        "ch"
      ],
      [
        "Ġop",
        "en"
      ],
      [
        "Ġad",
        "v"
      ],
      [
        "e",
        "v"
      ],
      [
        "Ġc",
        "rit"
      ],
      [
        "Ġb",
        "r"
      ],
      [
        "Ġp",
        "ass"
      ],
      [
        "am",
        "ed"
      ],
      [
        "t",
        "y"
      ],
      [
        "ĠC",
        "ar"
      ],
      [
        "id",
        "ge"
      ],
      [
        "im",
        "es"
      ],
      [
        "ĠI",
        "s"
      ],
      [
        "ip",
        "p"
      ],
      [
        "Ġs",
        "ix"
      ],
      [
        "ĠA",
        "ll"
      ],
      [
        "Ġst",
        "ate"
      ],
      [
        "un",
        "g"
      ],
      [
        "Ġpro",
        "v"
      ],
      [
        "ĠY",
        "ork"
      ],
      [
        "iver",
        "s"
      ],
      [
        "o",
        "on"
      ],
      [
        "Ġo",
        "cc"
      ],
      [
        "Ġb",
        "o"
      ],
      [
        "Ġp",
        "ort"
      ],
      [
        "ĠF",
        "or"
      ],
      [
        "ĠF",
        "rench"
      ],
      [
        "Ġcl",
        "ass"
      ],
      [
        "Ġw",
        "ind"
      ],
      [
        "oc",
        "i"
      ],
      [
        "ward",
        "s"
      ],
      [
        "quad",
        "ron"
      ],
      [
        "c",
        "rib"
      ],
      [
        "n",
        "ed"
      ],
      [
        "Ġinclud",
        "ed"
      ],
      [
        "on",
        "es"
      ],
      [
        "Ġto",
        "p"
      ],
      [
        "Ġk",
        "ill"
      ],
      [
        "Ġpe",
        "ople"
      ],
      [
        "Ġs",
        "ince"
      ],
      [
        "ain",
        "s"
      ],
      [
        "Ġd",
        "ist"
      ],
      [
        "Ġre",
        "port"
      ],
      [
        "od",
        "e"
      ],
      [
        "op",
        "s"
      ],
      [
        "ĠSt",
        "ates"
      ],
      [
        "Ġcomm",
        "and"
      ],
      [
        "Ġf",
        "ive"
      ],
      [
        "ch",
        "ool"
      ],
      [
        "ri",
        "v"
      ],
      [
        "iss",
        "ion"
      ],
      [
        "b",
        "all"
      ],
      [
        "ar",
        "ch"
      ],
      [
        "ur",
        "ther"
      ],
      [
        "Ġgovern",
        "ment"
      ],
      [
        "m",
        "y"
      ],
      [
        "as",
        "h"
      ],
      [
        "Ġre",
        "f"
      ],
      [
        "Ġbe",
        "l"
      ],
      [
        "ate",
        "ly"
      ],
      [
        "olog",
        "y"
      ],
      [
        "l",
        "er"
      ],
      [
        "Ġd",
        "est"
      ],
      [
        "Ġr",
        "un"
      ],
      [
        "Ġsu",
        "ccess"
      ],
      [
        "c",
        "raft"
      ],
      [
        "Ġe",
        "ff"
      ],
      [
        "u",
        "es"
      ],
      [
        "Ġ",
        "iron"
      ],
      [
        "ĠB",
        "r"
      ],
      [
        "ial",
        "ly"
      ],
      [
        "ĠM",
        "e"
      ],
      [
        "Ġcon",
        "f"
      ],
      [
        "ction",
        "s"
      ],
      [
        "Ġus",
        "e"
      ],
      [
        "ir",
        "d"
      ],
      [
        "ut",
        "ion"
      ],
      [
        "iv",
        "es"
      ],
      [
        "Ġv",
        "ar"
      ],
      [
        "Ġship",
        "s"
      ],
      [
        "a",
        "x"
      ],
      [
        "Ġo",
        "wn"
      ],
      [
        "Ġbuil",
        "t"
      ],
      [
        "Ġpubl",
        "ic"
      ],
      [
        "ĠA",
        "d"
      ],
      [
        "Ġst",
        "orm"
      ],
      [
        "Ġpl",
        "ace"
      ],
      [
        "ĠCh",
        "rist"
      ],
      [
        "Ġcons",
        "id"
      ],
      [
        "Ġmus",
        "ic"
      ],
      [
        "u",
        "ary"
      ],
      [
        "Ġwe",
        "ek"
      ],
      [
        "g",
        "y"
      ],
      [
        "Ġs",
        "ame"
      ],
      [
        "Ġc",
        "ount"
      ],
      [
        "as",
        "k"
      ],
      [
        "Ġm",
        "od"
      ],
      [
        "us",
        "s"
      ],
      [
        "ir",
        "ed"
      ],
      [
        "ĠW",
        "orld"
      ],
      [
        "out",
        "e"
      ],
      [
        "Ġmat",
        "ch"
      ],
      [
        "Ġan",
        "n"
      ],
      [
        "if",
        "e"
      ],
      [
        "ĠSc",
        "ient"
      ],
      [
        "oh",
        "n"
      ],
      [
        "il",
        "ity"
      ],
      [
        "em",
        "pt"
      ],
      [
        "Ġep",
        "is"
      ],
      [
        "Ġth",
        "ough"
      ],
      [
        "Ġst",
        "ud"
      ],
      [
        "Ġe",
        "ach"
      ],
      [
        "ĠPh",
        "il"
      ],
      [
        "Ġg",
        "r"
      ],
      [
        "Ġj",
        "ust"
      ],
      [
        "Ġdes",
        "crib"
      ],
      [
        "Ġsing",
        "le"
      ],
      [
        "it",
        "ary"
      ],
      [
        "Ġp",
        "oin"
      ],
      [
        "il",
        "a"
      ],
      [
        "Ġst",
        "ru"
      ],
      [
        "Ġser",
        "v"
      ],
      [
        "u",
        "ro"
      ],
      [
        "Ġt",
        "urn"
      ],
      [
        "en",
        "e"
      ],
      [
        "Ġp",
        "ower"
      ],
      [
        "Ġal",
        "though"
      ],
      [
        "Ġmill",
        "ion"
      ],
      [
        "Ġrece",
        "ived"
      ],
      [
        "ĠR",
        "oute"
      ],
      [
        "Ġplay",
        "ed"
      ],
      [
        "v",
        "ent"
      ],
      [
        "Ġh",
        "al"
      ],
      [
        "Ġe",
        "ast"
      ],
      [
        "ĠW",
        "h"
      ],
      [
        "ĠJ",
        "u"
      ],
      [
        "ag",
        "ed"
      ],
      [
        "ĠE",
        "d"
      ],
      [
        "ord",
        "ing"
      ],
      [
        "ĠDe",
        "ce"
      ],
      [
        "emb",
        "ers"
      ],
      [
        "ĠJan",
        "uary"
      ],
      [
        "ro",
        "w"
      ],
      [
        "Ġpart",
        "ic"
      ],
      [
        "ĠDece",
        "mber"
      ],
      [
        "in",
        "s"
      ],
      [
        "Ġc",
        "our"
      ],
      [
        "an",
        "e"
      ],
      [
        "al",
        "k"
      ],
      [
        "Ġm",
        "ajor"
      ],
      [
        "av",
        "ing"
      ],
      [
        "g",
        "er"
      ],
      [
        "in",
        "ed"
      ],
      [
        "ĠA",
        "pr"
      ],
      [
        "Ġhe",
        "ld"
      ],
      [
        "ĠN",
        "o"
      ],
      [
        "Ġex",
        "t"
      ],
      [
        "Ġcont",
        "ro"
      ],
      [
        "Ġapp",
        "ro"
      ],
      [
        "ĠApr",
        "il"
      ],
      [
        "Ġre",
        "st"
      ],
      [
        "ĠThe",
        "y"
      ],
      [
        "Ġle",
        "ft"
      ],
      [
        "vi",
        "ous"
      ],
      [
        "a",
        "i"
      ],
      [
        "Ġt",
        "y"
      ],
      [
        "ac",
        "hed"
      ],
      [
        "id",
        "es"
      ],
      [
        "ĠN",
        "ero"
      ],
      [
        "em",
        "ent"
      ],
      [
        "ĠJ",
        "ohn"
      ],
      [
        "or",
        "man"
      ],
      [
        "Ġf",
        "ire"
      ],
      [
        "ar",
        "r"
      ],
      [
        "om",
        "in"
      ],
      [
        "ant",
        "ry"
      ],
      [
        "Ġair",
        "craft"
      ],
      [
        "st",
        "em"
      ],
      [
        "ce",
        "pt"
      ],
      [
        "Ġv",
        "i"
      ],
      [
        "Ġim",
        "p"
      ],
      [
        "Ġbuil",
        "d"
      ],
      [
        "ent",
        "ly"
      ],
      [
        "Ġl",
        "ed"
      ],
      [
        "Ġwith",
        "in"
      ],
      [
        "Ġbec",
        "ause"
      ],
      [
        "ĠAn",
        "g"
      ],
      [
        "Ġpers",
        "on"
      ],
      [
        "e",
        "c"
      ],
      [
        "il",
        "d"
      ],
      [
        "ron",
        "t"
      ],
      [
        "Ġm",
        "en"
      ],
      [
        "Ġre",
        "pl"
      ],
      [
        "ĠA",
        "m"
      ],
      [
        "ĠN",
        "ational"
      ],
      [
        "Ġres",
        "p"
      ],
      [
        "Ġ",
        "ed"
      ],
      [
        "Ġt",
        "ri"
      ],
      [
        "Ġm",
        "ay"
      ],
      [
        "ĠT",
        "e"
      ],
      [
        "el",
        "s"
      ],
      [
        "b",
        "y"
      ],
      [
        "Ġb",
        "and"
      ],
      [
        "ĠM",
        "c"
      ],
      [
        "ĠH",
        "owever"
      ],
      [
        "Ġatt",
        "empt"
      ],
      [
        "Ġtr",
        "ack"
      ],
      [
        "ro",
        "y"
      ],
      [
        "ion",
        "al"
      ],
      [
        "Ġre",
        "qu"
      ],
      [
        "Ġev",
        "en"
      ],
      [
        "Ġcontin",
        "ued"
      ],
      [
        "Ġin",
        "s"
      ],
      [
        "Ġd",
        "ue"
      ],
      [
        "Ġe",
        "ver"
      ],
      [
        "ĠG",
        "u"
      ],
      [
        "ord",
        "an"
      ],
      [
        "Ġgun",
        "s"
      ],
      [
        "y",
        "s"
      ],
      [
        "Ġw",
        "est"
      ],
      [
        "Ġf",
        "urther"
      ],
      [
        "Ġp",
        "ost"
      ],
      [
        "ĠA",
        "ir"
      ],
      [
        "Ġn",
        "ow"
      ],
      [
        "Ġfor",
        "mer"
      ],
      [
        "Ġan",
        "other"
      ],
      [
        "ag",
        "ue"
      ],
      [
        "um",
        "ent"
      ],
      [
        "Ġen",
        "g"
      ],
      [
        "Ġtro",
        "ops"
      ],
      [
        "Ġepis",
        "ode"
      ],
      [
        "Ġm",
        "embers"
      ],
      [
        "Ġh",
        "and"
      ],
      [
        "ical",
        "ly"
      ],
      [
        "Ġne",
        "xt"
      ],
      [
        "Ġcent",
        "ury"
      ],
      [
        "Ġs",
        "im"
      ],
      [
        "Ġs",
        "old"
      ],
      [
        "Ġl",
        "ine"
      ],
      [
        "Ġor",
        "gan"
      ],
      [
        "ĠJu",
        "ly"
      ],
      [
        "h",
        "am"
      ],
      [
        "n",
        "er"
      ],
      [
        "Ġcon",
        "stru"
      ],
      [
        "Ġf",
        "t"
      ],
      [
        "en",
        "n"
      ],
      [
        "ur",
        "al"
      ],
      [
        "ist",
        "ed"
      ],
      [
        "i",
        "od"
      ],
      [
        "pe",
        "ct"
      ],
      [
        "g",
        "ed"
      ],
      [
        "re",
        "t"
      ],
      [
        "ĠM",
        "us"
      ],
      [
        "ak",
        "en"
      ],
      [
        "ard",
        "s"
      ],
      [
        "te",
        "nd"
      ],
      [
        "Ġinv",
        "ol"
      ],
      [
        "Ġ",
        "ri"
      ],
      [
        "Ġt",
        "ra"
      ],
      [
        "Ġs",
        "ide"
      ],
      [
        "Ġth",
        "ird"
      ],
      [
        "ut",
        "h"
      ],
      [
        "Ġpre",
        "vious"
      ],
      [
        "Ġfin",
        "al"
      ],
      [
        "p",
        "or"
      ],
      [
        "Ġc",
        "r"
      ],
      [
        "ĠR",
        "iver"
      ],
      [
        "ĠCh",
        "urch"
      ],
      [
        "Ġcharac",
        "ter"
      ],
      [
        "itt",
        "le"
      ],
      [
        "i",
        "us"
      ],
      [
        "Ġw",
        "on"
      ],
      [
        "Ġc",
        "ame"
      ],
      [
        "ab",
        "l"
      ],
      [
        "ĠEn",
        "g"
      ],
      [
        "Ġhal",
        "f"
      ],
      [
        "m",
        "s"
      ],
      [
        "m",
        "ed"
      ],
      [
        "Ġp",
        "h"
      ],
      [
        "Ġn",
        "ort"
      ],
      [
        "Ġn",
        "amed"
      ],
      [
        "ay",
        "s"
      ],
      [
        "iv",
        "ing"
      ],
      [
        "Ġinc",
        "re"
      ],
      [
        "b",
        "le"
      ],
      [
        "al",
        "ion"
      ],
      [
        "a",
        "e"
      ],
      [
        "Ġd",
        "em"
      ],
      [
        "Ġh",
        "ome"
      ],
      [
        "ul",
        "ation"
      ],
      [
        "ĠK",
        "ore"
      ],
      [
        "ĠAustral",
        "ia"
      ],
      [
        "Ġm",
        "uch"
      ],
      [
        "Ġl",
        "ight"
      ],
      [
        "ĠMan",
        "ila"
      ],
      [
        "a",
        "im"
      ],
      [
        "in",
        "k"
      ],
      [
        "ĠP",
        "l"
      ],
      [
        "Ġal",
        "low"
      ],
      [
        "ond",
        "yl"
      ],
      [
        "Ġmil",
        "itary"
      ],
      [
        "is",
        "on"
      ],
      [
        "ic",
        "a"
      ],
      [
        "ĠI",
        "m"
      ],
      [
        "ĠD",
        "ivision"
      ],
      [
        "Ġis",
        "s"
      ],
      [
        "Ġperf",
        "orman"
      ],
      [
        "c",
        "ess"
      ],
      [
        "er",
        "y"
      ],
      [
        "re",
        "ad"
      ],
      [
        "ro",
        "te"
      ],
      [
        "Ġn",
        "ame"
      ],
      [
        "ut",
        "ed"
      ],
      [
        "Ġpos",
        "s"
      ],
      [
        "Ġbel",
        "ie"
      ],
      [
        "b",
        "o"
      ],
      [
        "Ġf",
        "am"
      ],
      [
        "Ġd",
        "el"
      ],
      [
        "Ġl",
        "ast"
      ],
      [
        "Ġfor",
        "ce"
      ],
      [
        "pl",
        "oy"
      ],
      [
        "Ġdest",
        "roy"
      ],
      [
        "Ġt",
        "ropical"
      ],
      [
        "Ġc",
        "are"
      ],
      [
        "om",
        "et"
      ],
      [
        "Ġhe",
        "l"
      ],
      [
        "Ġs",
        "chool"
      ],
      [
        "ad",
        "s"
      ],
      [
        "ol",
        "l"
      ],
      [
        "Ġwh",
        "at"
      ],
      [
        "Ġadd",
        "ition"
      ],
      [
        "Ġc",
        "over"
      ],
      [
        "ou",
        "se"
      ],
      [
        "ĠM",
        "er"
      ],
      [
        "ĠR",
        "oad"
      ],
      [
        "ĠF",
        "ran"
      ],
      [
        "ĠF",
        "eb"
      ],
      [
        "ĠJ",
        "ordan"
      ],
      [
        "ru",
        "ary"
      ],
      [
        "Ġev",
        "ent"
      ],
      [
        "ĠFeb",
        "ruary"
      ],
      [
        "Ġs",
        "ent"
      ],
      [
        "an",
        "c"
      ],
      [
        "Ġst",
        "ill"
      ],
      [
        "res",
        "ent"
      ],
      [
        "Ġmon",
        "th"
      ],
      [
        "m",
        "in"
      ],
      [
        "y",
        "cl"
      ],
      [
        "Ġf",
        "ew"
      ],
      [
        "ĠM",
        "ich"
      ],
      [
        "Ġst",
        "e"
      ],
      [
        "Ġex",
        "p"
      ],
      [
        "ide",
        "o"
      ],
      [
        "Ġro",
        "le"
      ],
      [
        "ren",
        "t"
      ],
      [
        "Ġdef",
        "e"
      ],
      [
        "Ġsy",
        "stem"
      ],
      [
        "re",
        "w"
      ],
      [
        "ĠI",
        "I"
      ],
      [
        "pe",
        "nd"
      ],
      [
        "Ġper",
        "iod"
      ],
      [
        "osp",
        "ondyl"
      ],
      [
        "c",
        "hed"
      ],
      [
        "re",
        "st"
      ],
      [
        "Ġde",
        "ath"
      ],
      [
        "Ġcap",
        "t"
      ],
      [
        "Ġdif",
        "fer"
      ],
      [
        "n",
        "ess"
      ],
      [
        "Ġs",
        "l"
      ],
      [
        "Ġc",
        "ross"
      ],
      [
        "Ġb",
        "ased"
      ],
      [
        "ĠB",
        "ut"
      ],
      [
        "Ġor",
        "d"
      ],
      [
        "Ġres",
        "ult"
      ],
      [
        "Ġperf",
        "orm"
      ],
      [
        "Ġl",
        "ate"
      ],
      [
        "ĠG",
        "ener"
      ],
      [
        "Ġex",
        "pl"
      ],
      [
        "ĠMar",
        "ch"
      ],
      [
        "Ġm",
        "id"
      ],
      [
        "le",
        "et"
      ],
      [
        "Ġr",
        "ight"
      ],
      [
        "Ġbatt",
        "le"
      ],
      [
        "Ġ",
        "Q"
      ],
      [
        "at",
        "ter"
      ],
      [
        "Ġp",
        "at"
      ],
      [
        "le",
        "y"
      ],
      [
        "ĠC",
        "an"
      ],
      [
        "Ġbe",
        "g"
      ],
      [
        "ĠThe",
        "se"
      ],
      [
        "Ġday",
        "s"
      ],
      [
        "Ġdescrib",
        "ed"
      ],
      [
        "l",
        "u"
      ],
      [
        "on",
        "t"
      ],
      [
        "ed",
        "er"
      ],
      [
        "Ġm",
        "ark"
      ],
      [
        "Ġh",
        "um"
      ],
      [
        "s",
        "elf"
      ],
      [
        "it",
        "al"
      ],
      [
        "Ġsh",
        "ot"
      ],
      [
        "u",
        "c"
      ],
      [
        "Ġm",
        "ake"
      ],
      [
        "Ġre",
        "view"
      ],
      [
        "ag",
        "es"
      ],
      [
        "ak",
        "es"
      ],
      [
        "av",
        "es"
      ],
      [
        "av",
        "al"
      ],
      [
        "Ġcont",
        "r"
      ],
      [
        "ens",
        "ive"
      ],
      [
        "Ġest",
        "abl"
      ],
      [
        "Ġhist",
        "ory"
      ],
      [
        "ĠScient",
        "ology"
      ],
      [
        "i",
        "am"
      ],
      [
        "t",
        "he"
      ],
      [
        "Ġs",
        "k"
      ],
      [
        "Ġm",
        "oved"
      ],
      [
        "im",
        "ent"
      ],
      [
        "ant",
        "s"
      ],
      [
        "ĠAr",
        "my"
      ],
      [
        "oy",
        "al"
      ],
      [
        "Ġstr",
        "ong"
      ],
      [
        "Ġe",
        "qu"
      ],
      [
        "se",
        "qu"
      ],
      [
        "Ġgod",
        "s"
      ],
      [
        "e",
        "ter"
      ],
      [
        "Ġs",
        "out"
      ],
      [
        "Ġw",
        "orld"
      ],
      [
        "Ġo",
        "ld"
      ],
      [
        "is",
        "c"
      ],
      [
        "Ġr",
        "ed"
      ],
      [
        "ĠE",
        "m"
      ],
      [
        "ĠK",
        "ing"
      ],
      [
        "ĠGener",
        "al"
      ],
      [
        "l",
        "s"
      ],
      [
        "en",
        "se"
      ],
      [
        "le",
        "ct"
      ],
      [
        "et",
        "r"
      ],
      [
        "Ġkill",
        "ed"
      ],
      [
        "Ġ",
        "if"
      ],
      [
        "Ġw",
        "ay"
      ],
      [
        "ĠT",
        "own"
      ],
      [
        "Ġth",
        "ose"
      ],
      [
        "ĠW",
        "e"
      ],
      [
        "ĠCh",
        "ar"
      ],
      [
        "ik",
        "al"
      ],
      [
        "Ġloc",
        "al"
      ],
      [
        "Ġh",
        "our"
      ],
      [
        "ĠR",
        "ich"
      ],
      [
        "ul",
        "u"
      ],
      [
        "Ġiron",
        "cl"
      ],
      [
        "O",
        "n"
      ],
      [
        "Ġ",
        "es"
      ],
      [
        "Ġt",
        "ank"
      ],
      [
        "Ġbe",
        "h"
      ],
      [
        "ir",
        "c"
      ],
      [
        "Ġg",
        "reat"
      ],
      [
        "ĠIn",
        "f"
      ],
      [
        "Ġcomp",
        "an"
      ],
      [
        "ress",
        "ion"
      ],
      [
        "Ġrep",
        "resent"
      ],
      [
        "Ġappe",
        "ar"
      ],
      [
        "int",
        "ulu"
      ],
      [
        "gy",
        "pt"
      ],
      [
        "i",
        "or"
      ],
      [
        "en",
        "c"
      ],
      [
        "ĠC",
        "ity"
      ],
      [
        "Ġhe",
        "avy"
      ],
      [
        "Ġcomm",
        "un"
      ],
      [
        "rap",
        "h"
      ],
      [
        "ĠPhil",
        "ipp"
      ],
      [
        "p",
        "ite"
      ],
      [
        "as",
        "tern"
      ],
      [
        "Ġm",
        "ove"
      ],
      [
        "ĠT",
        "ikal"
      ],
      [
        "ĠB",
        "y"
      ],
      [
        "et",
        "y"
      ],
      [
        "Ġor",
        "der"
      ],
      [
        "re",
        "et"
      ],
      [
        "Ġw",
        "rote"
      ],
      [
        "ĠS",
        "p"
      ],
      [
        "ĠP",
        "ro"
      ],
      [
        "iv",
        "il"
      ],
      [
        "Ġar",
        "ch"
      ],
      [
        "iz",
        "ation"
      ],
      [
        "Ġt",
        "it"
      ],
      [
        "at",
        "ic"
      ],
      [
        "ĠB",
        "intulu"
      ],
      [
        "us",
        "ed"
      ],
      [
        "ri",
        "ed"
      ],
      [
        "ĠW",
        "ill"
      ],
      [
        "ĠE",
        "gypt"
      ],
      [
        "ĠSt",
        "ate"
      ],
      [
        "Ġj",
        "oin"
      ],
      [
        "hip",
        "s"
      ],
      [
        "g",
        "et"
      ],
      [
        "l",
        "ing"
      ],
      [
        "re",
        "am"
      ],
      [
        "Ġf",
        "ore"
      ],
      [
        "Ġc",
        "ur"
      ],
      [
        "Ġto",
        "t"
      ],
      [
        "il",
        "ar"
      ],
      [
        "om",
        "b"
      ],
      [
        "ĠG",
        "e"
      ],
      [
        "ĠE",
        "uro"
      ],
      [
        "Ġpro",
        "g"
      ],
      [
        "ĠRe",
        "g"
      ],
      [
        "c",
        "hes"
      ],
      [
        "n",
        "ospondyl"
      ],
      [
        "p",
        "ar"
      ],
      [
        "Ġm",
        "m"
      ],
      [
        "id",
        "ian"
      ],
      [
        "Ġg",
        "ames"
      ],
      [
        "el",
        "t"
      ],
      [
        "Ġcom",
        "b"
      ],
      [
        "iv",
        "en"
      ],
      [
        "Ġch",
        "ild"
      ],
      [
        "ĠEuro",
        "pe"
      ],
      [
        "p",
        "ing"
      ],
      [
        "Ġt",
        "w"
      ],
      [
        "Ġf",
        "ight"
      ],
      [
        "Ġof",
        "ten"
      ],
      [
        "ĠS",
        "quadron"
      ],
      [
        "Ġpro",
        "ject"
      ],
      [
        "Ġsh",
        "ort"
      ],
      [
        "Ġne",
        "ver"
      ],
      [
        "ĠPol",
        "ish"
      ],
      [
        "A",
        "A"
      ],
      [
        "m",
        "as"
      ],
      [
        "o",
        "x"
      ],
      [
        "he",
        "st"
      ],
      [
        "Ġs",
        "ite"
      ],
      [
        "it",
        "ted"
      ],
      [
        "an",
        "n"
      ],
      [
        "Ġin",
        "it"
      ],
      [
        "Ġcl",
        "aim"
      ],
      [
        "Ġrem",
        "ained"
      ],
      [
        "Ġdevelop",
        "ed"
      ],
      [
        "at",
        "ure"
      ],
      [
        "Ġf",
        "ront"
      ],
      [
        "Ġc",
        "aus"
      ],
      [
        "Ġl",
        "a"
      ],
      [
        "Ġde",
        "b"
      ],
      [
        "Ġoper",
        "ations"
      ],
      [
        "Ġconsid",
        "ered"
      ],
      [
        "a",
        "u"
      ],
      [
        "re",
        "ak"
      ],
      [
        "Ġb",
        "est"
      ],
      [
        "Ġd",
        "iv"
      ],
      [
        "Ġl",
        "ost"
      ],
      [
        "od",
        "y"
      ],
      [
        "Ġsu",
        "ff"
      ],
      [
        "ivers",
        "ity"
      ],
      [
        "v",
        "ision"
      ],
      [
        "he",
        "ast"
      ],
      [
        "Ġw",
        "ater"
      ],
      [
        "en",
        "ces"
      ],
      [
        "Ġb",
        "ook"
      ],
      [
        "Ġn",
        "ight"
      ],
      [
        "amp",
        "ions"
      ],
      [
        "pos",
        "ed"
      ],
      [
        "Ġreturn",
        "ed"
      ],
      [
        "e",
        "ad"
      ],
      [
        "Ġs",
        "it"
      ],
      [
        "Ġc",
        "ycl"
      ],
      [
        "es",
        "tern"
      ],
      [
        "Ġprodu",
        "ced"
      ],
      [
        "ĠInd",
        "ian"
      ],
      [
        "Ġorigin",
        "al"
      ],
      [
        "Ġp",
        "ur"
      ],
      [
        "ĠC",
        "ent"
      ],
      [
        "ĠThe",
        "re"
      ],
      [
        "ĠN",
        "avy"
      ],
      [
        "iz",
        "e"
      ],
      [
        "Ġdire",
        "ct"
      ],
      [
        "a",
        "ul"
      ],
      [
        "f",
        "ield"
      ],
      [
        "i",
        "um"
      ],
      [
        "p",
        "s"
      ],
      [
        "er",
        "ing"
      ],
      [
        "Ġre",
        "ached"
      ],
      [
        "il",
        "le"
      ],
      [
        "ot",
        "t"
      ],
      [
        "Ġst",
        "and"
      ],
      [
        "ne",
        "y"
      ],
      [
        "Ġest",
        "im"
      ],
      [
        "i",
        "ers"
      ],
      [
        "Ġb",
        "as"
      ],
      [
        "Ġto",
        "wn"
      ],
      [
        "Ġm",
        "ed"
      ],
      [
        "am",
        "b"
      ],
      [
        "ĠH",
        "is"
      ],
      [
        "Ġwith",
        "out"
      ],
      [
        "ĠP",
        "ar"
      ],
      [
        "Ġex",
        "per"
      ],
      [
        "Ġmet",
        "res"
      ],
      [
        "Ġpol",
        "it"
      ],
      [
        "Ġsign",
        "ific"
      ],
      [
        "Ġpres",
        "ent"
      ],
      [
        "Ġdiffer",
        "ent"
      ],
      [
        "A",
        "S"
      ],
      [
        "i",
        "qu"
      ],
      [
        "Ġa",
        "way"
      ],
      [
        "re",
        "en"
      ],
      [
        "Ġw",
        "ill"
      ],
      [
        "Ġl",
        "im"
      ],
      [
        "Ġl",
        "ife"
      ],
      [
        "ĠO",
        "r"
      ],
      [
        "Ġloc",
        "ated"
      ],
      [
        "Ġver",
        "y"
      ],
      [
        "Ġreport",
        "ed"
      ],
      [
        "Ġtot",
        "al"
      ],
      [
        "al",
        "es"
      ],
      [
        "Ġl",
        "ow"
      ],
      [
        "Ġst",
        "ri"
      ],
      [
        "Ġst",
        "ated"
      ],
      [
        "Ġse",
        "en"
      ],
      [
        "Ġv",
        "is"
      ],
      [
        "ab",
        "ly"
      ],
      [
        "Ġsu",
        "g"
      ],
      [
        "Ġro",
        "ad"
      ],
      [
        "ric",
        "t"
      ],
      [
        "Ġpr",
        "im"
      ],
      [
        "Ġinf",
        "lu"
      ],
      [
        "Ġhist",
        "or"
      ],
      [
        "b",
        "or"
      ],
      [
        "f",
        "e"
      ],
      [
        "m",
        "e"
      ],
      [
        "in",
        "ation"
      ],
      [
        "Ġc",
        "amp"
      ],
      [
        "Ġb",
        "ar"
      ],
      [
        "Ġm",
        "ar"
      ],
      [
        "Ġh",
        "owever"
      ],
      [
        "Ġh",
        "aving"
      ],
      [
        "Ġre",
        "al"
      ],
      [
        "ver",
        "s"
      ],
      [
        "em",
        "or"
      ],
      [
        "end",
        "ed"
      ],
      [
        "Ġeff",
        "ect"
      ],
      [
        "a",
        "ut"
      ],
      [
        "ĠC",
        "ount"
      ],
      [
        "os",
        "ed"
      ],
      [
        "Ġcare",
        "er"
      ],
      [
        "r",
        "um"
      ],
      [
        "re",
        "g"
      ],
      [
        "Ġp",
        "ar"
      ],
      [
        "ot",
        "s"
      ],
      [
        "Ġde",
        "cl"
      ],
      [
        "Ġle",
        "g"
      ],
      [
        "Ġwind",
        "s"
      ],
      [
        "Ġsug",
        "gest"
      ],
      [
        "Ġc",
        "irc"
      ],
      [
        "al",
        "th"
      ],
      [
        "Ġm",
        "aking"
      ],
      [
        "ĠB",
        "ur"
      ],
      [
        "ay",
        "ing"
      ],
      [
        "Ġis",
        "land"
      ],
      [
        "ĠW",
        "hen"
      ],
      [
        "ap",
        "e"
      ],
      [
        "Ġpl",
        "aced"
      ],
      [
        "Ġac",
        "ross"
      ],
      [
        "ĠMer",
        "idian"
      ],
      [
        "ĠInf",
        "antry"
      ],
      [
        "m",
        "ar"
      ],
      [
        "at",
        "or"
      ],
      [
        "it",
        "er"
      ],
      [
        "it",
        "her"
      ],
      [
        "Ġm",
        "y"
      ],
      [
        "ĠS",
        "an"
      ],
      [
        "ĠH",
        "igh"
      ],
      [
        "ĠD",
        "uring"
      ],
      [
        "ive",
        "ly"
      ],
      [
        "cc",
        "ording"
      ],
      [
        "Ġform",
        "ed"
      ],
      [
        "ĠChrist",
        "mas"
      ],
      [
        "a",
        "ugh"
      ],
      [
        "c",
        "on"
      ],
      [
        "ur",
        "t"
      ],
      [
        "Ġv",
        "ideo"
      ],
      [
        "fer",
        "red"
      ],
      [
        "Ġsur",
        "v"
      ],
      [
        "Ġact",
        "iv"
      ],
      [
        "Ġdam",
        "age"
      ],
      [
        "Ġpartic",
        "ular"
      ],
      [
        "Ġever",
        "y"
      ],
      [
        "Ġsignific",
        "ant"
      ],
      [
        "Ġt",
        "imes"
      ],
      [
        "Ġf",
        "r"
      ],
      [
        "Ġf",
        "ig"
      ],
      [
        "Ġc",
        "ult"
      ],
      [
        "Ġp",
        "it"
      ],
      [
        "Ġp",
        "ain"
      ],
      [
        "Ġm",
        "i"
      ],
      [
        "ĠA",
        "nd"
      ],
      [
        "ĠC",
        "o"
      ],
      [
        "im",
        "ately"
      ],
      [
        "ĠN",
        "Y"
      ],
      [
        "ĠJ",
        "ack"
      ],
      [
        "ĠSt",
        "ev"
      ],
      [
        "Ġim",
        "port"
      ],
      [
        "ĠGerman",
        "y"
      ],
      [
        "ĠBatt",
        "le"
      ],
      [
        "ĠIs",
        "land"
      ],
      [
        "Ġcount",
        "ry"
      ],
      [
        "ĠStev",
        "ens"
      ],
      [
        "er",
        "ry"
      ],
      [
        "Ġf",
        "re"
      ],
      [
        "is",
        "ter"
      ],
      [
        "ic",
        "es"
      ],
      [
        "ĠA",
        "g"
      ],
      [
        "st",
        "it"
      ],
      [
        "om",
        "an"
      ],
      [
        "ĠR",
        "uss"
      ],
      [
        "Ġr",
        "ange"
      ],
      [
        "ĠO",
        "ff"
      ],
      [
        "ree",
        "k"
      ],
      [
        "Ġhim",
        "self"
      ],
      [
        "Ġperforman",
        "ce"
      ],
      [
        "y",
        "le"
      ],
      [
        "Ġb",
        "ase"
      ],
      [
        "ent",
        "ion"
      ],
      [
        "ĠC",
        "al"
      ],
      [
        "Ġst",
        "ar"
      ],
      [
        "ĠP",
        "r"
      ],
      [
        "ial",
        "s"
      ],
      [
        "Ġro",
        "und"
      ],
      [
        "Ġam",
        "ong"
      ],
      [
        "Ġver",
        "s"
      ],
      [
        "Ġbuild",
        "ing"
      ],
      [
        "en",
        "g"
      ],
      [
        "ĠA",
        "ss"
      ],
      [
        "Ġst",
        "at"
      ],
      [
        "ri",
        "pt"
      ],
      [
        "ber",
        "t"
      ],
      [
        "Ġv",
        "ict"
      ],
      [
        "Ġus",
        "ing"
      ],
      [
        "way",
        "s"
      ],
      [
        "pan",
        "y"
      ],
      [
        "Ġvi",
        "ew"
      ],
      [
        "Ġ",
        "er"
      ],
      [
        "Ġc",
        "as"
      ],
      [
        "Ġp",
        "ut"
      ],
      [
        "Ġn",
        "ational"
      ],
      [
        "ĠF",
        "l"
      ],
      [
        "ra",
        "w"
      ],
      [
        "Ġtr",
        "ad"
      ],
      [
        "Ġspec",
        "ial"
      ],
      [
        "Ġsim",
        "ilar"
      ],
      [
        "ampions",
        "hip"
      ],
      [
        "h",
        "aw"
      ],
      [
        "in",
        "ess"
      ],
      [
        "nd",
        "er"
      ],
      [
        "ar",
        "a"
      ],
      [
        "ĠR",
        "oyal"
      ],
      [
        "ĠSt",
        "e"
      ],
      [
        "ough",
        "t"
      ],
      [
        "Ġser",
        "ved"
      ],
      [
        "Ġev",
        "ac"
      ],
      [
        "fer",
        "ence"
      ],
      [
        "Ġf",
        "oot"
      ],
      [
        "Ġg",
        "iven"
      ],
      [
        "Ġst",
        "ory"
      ],
      [
        "el",
        "a"
      ],
      [
        "us",
        "h"
      ],
      [
        "Ġy",
        "ou"
      ],
      [
        "Ġun",
        "its"
      ],
      [
        "Ġte",
        "le"
      ],
      [
        "Ġem",
        "b"
      ],
      [
        "d",
        "ition"
      ],
      [
        "Ġa",
        "ction"
      ],
      [
        "Ġw",
        "ent"
      ],
      [
        "Ġp",
        "ress"
      ],
      [
        "Ġe",
        "ight"
      ],
      [
        "Ġg",
        "l"
      ],
      [
        "ĠH",
        "ar"
      ],
      [
        "Ġpro",
        "f"
      ],
      [
        "oun",
        "g"
      ],
      [
        "act",
        "ion"
      ],
      [
        "ĠUn",
        "iversity"
      ],
      [
        "Ġrel",
        "ig"
      ],
      [
        "ĠAl",
        "though"
      ],
      [
        "Ġprom",
        "ot"
      ],
      [
        "Ġmod",
        "ern"
      ],
      [
        "Ġconstru",
        "ction"
      ],
      [
        "Ġ",
        "ve"
      ],
      [
        "Ġt",
        "est"
      ],
      [
        "Ġf",
        "ac"
      ],
      [
        "Ġc",
        "ut"
      ],
      [
        "ĠW",
        "ith"
      ],
      [
        "Ġle",
        "vel"
      ],
      [
        "end",
        "es"
      ],
      [
        "Ġreg",
        "ion"
      ],
      [
        "Ġob",
        "s"
      ],
      [
        "ĠBatt",
        "alion"
      ],
      [
        "Ġsuccess",
        "ful"
      ],
      [
        "ĠChurch",
        "ill"
      ],
      [
        "ĠWill",
        "iam"
      ],
      [
        "g",
        "r"
      ],
      [
        "n",
        "a"
      ],
      [
        "y",
        "n"
      ],
      [
        "Ġt",
        "ake"
      ],
      [
        "Ġs",
        "ound"
      ],
      [
        "ĠT",
        "r"
      ],
      [
        "Ġg",
        "round"
      ],
      [
        "ĠH",
        "ill"
      ],
      [
        "ri",
        "e"
      ],
      [
        "port",
        "s"
      ],
      [
        "ric",
        "k"
      ],
      [
        "ail",
        "ed"
      ],
      [
        "Ġtem",
        "nospondyl"
      ],
      [
        "Ġbeh",
        "ind"
      ],
      [
        "Ġa",
        "uth"
      ],
      [
        "at",
        "ch"
      ],
      [
        "Ġf",
        "av"
      ],
      [
        "en",
        "ced"
      ],
      [
        "Ġe",
        "l"
      ],
      [
        "ĠR",
        "h"
      ],
      [
        "ĠP",
        "er"
      ],
      [
        "ĠP",
        "ark"
      ],
      [
        "ri",
        "end"
      ],
      [
        "ĠSt",
        "reet"
      ],
      [
        "Ġag",
        "re"
      ],
      [
        "a",
        "ur"
      ],
      [
        "f",
        "ic"
      ],
      [
        "g",
        "es"
      ],
      [
        "m",
        "ond"
      ],
      [
        "Ġc",
        "le"
      ],
      [
        "Ġm",
        "iss"
      ],
      [
        "le",
        "t"
      ],
      [
        "Ġl",
        "aw"
      ],
      [
        "ĠG",
        "r"
      ],
      [
        "se",
        "nd"
      ],
      [
        "ĠSe",
        "c"
      ],
      [
        "Ġmil",
        "es"
      ],
      [
        "Ġpop",
        "ulation"
      ],
      [
        "eder",
        "al"
      ],
      [
        "l",
        "ess"
      ],
      [
        "Ġa",
        "ff"
      ],
      [
        "Ġw",
        "ant"
      ],
      [
        "en",
        "es"
      ],
      [
        "ing",
        "ton"
      ],
      [
        "Ġto",
        "o"
      ],
      [
        "et",
        "h"
      ],
      [
        "ĠF",
        "ey"
      ],
      [
        "Ġprodu",
        "ction"
      ],
      [
        "Ġsold",
        "iers"
      ],
      [
        "Ġfam",
        "ily"
      ],
      [
        "ĠCount",
        "y"
      ],
      [
        "k",
        "i"
      ],
      [
        "Ġ",
        "nd"
      ],
      [
        "Ġf",
        "ind"
      ],
      [
        "ac",
        "y"
      ],
      [
        "Ġpro",
        "te"
      ],
      [
        "Ġcl",
        "ose"
      ],
      [
        "Ġfollow",
        "ed"
      ],
      [
        "Ġpe",
        "ak"
      ],
      [
        "Ġdevelop",
        "ment"
      ],
      [
        "Ġinvol",
        "ved"
      ],
      [
        "Ġa",
        "v"
      ],
      [
        "Ġd",
        "et"
      ],
      [
        "le",
        "cted"
      ],
      [
        "Ġe",
        "y"
      ],
      [
        "ĠR",
        "ock"
      ],
      [
        "ĠW",
        "est"
      ],
      [
        "ĠJ",
        "ew"
      ],
      [
        "ap",
        "p"
      ],
      [
        "Ġro",
        "ute"
      ],
      [
        "ĠDe",
        "p"
      ],
      [
        "ĠBrit",
        "ain"
      ],
      [
        "Ġsub",
        "sequ"
      ],
      [
        "Ġrecord",
        "ed"
      ],
      [
        "Ġsy",
        "n"
      ],
      [
        "Ġcre",
        "w"
      ],
      [
        "Ġcour",
        "t"
      ],
      [
        "ĠPhilipp",
        "ines"
      ],
      [
        "p",
        "ir"
      ],
      [
        "t",
        "ain"
      ],
      [
        "u",
        "ation"
      ],
      [
        "v",
        "ol"
      ],
      [
        "at",
        "ives"
      ],
      [
        "Ġr",
        "ad"
      ],
      [
        "ĠO",
        "ne"
      ],
      [
        "Ġsh",
        "ould"
      ],
      [
        "Ġplay",
        "er"
      ],
      [
        "Ġfl",
        "o"
      ],
      [
        "ĠAmer",
        "ica"
      ],
      [
        "Ġthrough",
        "out"
      ],
      [
        "Ġrele",
        "ase"
      ],
      [
        "Ġcontro",
        "l"
      ],
      [
        "v",
        "es"
      ],
      [
        "Ġh",
        "it"
      ],
      [
        "Ġn",
        "aval"
      ],
      [
        "ĠM",
        "endes"
      ],
      [
        "ĠB",
        "o"
      ],
      [
        "ĠD",
        "es"
      ],
      [
        "Ġk",
        "e"
      ],
      [
        "Ġle",
        "ast"
      ],
      [
        "oun",
        "ter"
      ],
      [
        "og",
        "raph"
      ],
      [
        "Ġhum",
        "an"
      ],
      [
        "a",
        "ign"
      ],
      [
        "c",
        "ent"
      ],
      [
        "d",
        "om"
      ],
      [
        "e",
        "pend"
      ],
      [
        "w",
        "ork"
      ],
      [
        "Ġs",
        "aw"
      ],
      [
        "is",
        "ing"
      ],
      [
        "Ġd",
        "oll"
      ],
      [
        "Ġh",
        "ig"
      ],
      [
        "ĠA",
        "f"
      ],
      [
        "ad",
        "o"
      ],
      [
        "ly",
        "the"
      ],
      [
        "ĠB",
        "ro"
      ],
      [
        "Ġg",
        "old"
      ],
      [
        "Ġst",
        "age"
      ],
      [
        "ĠL",
        "ond"
      ],
      [
        "ĠLe",
        "ague"
      ],
      [
        "Ġstart",
        "ed"
      ],
      [
        "Ġann",
        "oun"
      ],
      [
        "Ġtit",
        "le"
      ],
      [
        "g",
        "o"
      ],
      [
        "r",
        "ation"
      ],
      [
        "s",
        "h"
      ],
      [
        "Ġ",
        "ide"
      ],
      [
        "it",
        "ar"
      ],
      [
        "Ġf",
        "ace"
      ],
      [
        "Ġb",
        "us"
      ],
      [
        "Ġto",
        "ur"
      ],
      [
        "ĠS",
        "l"
      ],
      [
        "ĠS",
        "o"
      ],
      [
        "Ġg",
        "ave"
      ],
      [
        "ri",
        "or"
      ],
      [
        "Ġr",
        "ul"
      ],
      [
        "Ġvar",
        "ious"
      ],
      [
        "i",
        "ence"
      ],
      [
        "t",
        "ar"
      ],
      [
        "on",
        "ic"
      ],
      [
        "Ġw",
        "ide"
      ],
      [
        "Ġh",
        "old"
      ],
      [
        "ĠM",
        "al"
      ],
      [
        "ĠM",
        "ark"
      ],
      [
        "Ġg",
        "et"
      ],
      [
        "ĠE",
        "l"
      ],
      [
        "ĠE",
        "ast"
      ],
      [
        "Ġch",
        "ang"
      ],
      [
        "ĠCom",
        "pany"
      ],
      [
        "Ġpol",
        "ice"
      ],
      [
        "Ġwrit",
        "ten"
      ],
      [
        "Ġpoin",
        "t"
      ],
      [
        "ĠTown",
        "send"
      ],
      [
        "Ġc",
        "or"
      ],
      [
        "Ġm",
        "ov"
      ],
      [
        "Ġre",
        "b"
      ],
      [
        "Ġl",
        "ess"
      ],
      [
        "ur",
        "g"
      ],
      [
        "ig",
        "an"
      ],
      [
        "ut",
        "es"
      ],
      [
        "ĠP",
        "ort"
      ],
      [
        "ch",
        "n"
      ],
      [
        "um",
        "b"
      ],
      [
        "ran",
        "g"
      ],
      [
        "Ġbec",
        "ome"
      ],
      [
        "ĠRe",
        "p"
      ],
      [
        "Ġbatt",
        "les"
      ],
      [
        "Ġfeat",
        "ures"
      ],
      [
        "Ġdisc",
        "over"
      ],
      [
        "ĠLond",
        "on"
      ],
      [
        "c",
        "her"
      ],
      [
        "c",
        "ial"
      ],
      [
        "l",
        "ine"
      ],
      [
        "t",
        "o"
      ],
      [
        "Ġf",
        "elt"
      ],
      [
        "Ġm",
        "ember"
      ],
      [
        "ĠA",
        "ccording"
      ],
      [
        "ĠM",
        "ount"
      ],
      [
        "Ġan",
        "t"
      ],
      [
        "art",
        "ment"
      ],
      [
        "Ġint",
        "ens"
      ],
      [
        "Ġro",
        "ck"
      ],
      [
        "m",
        "ost"
      ],
      [
        "it",
        "ive"
      ],
      [
        "as",
        "ion"
      ],
      [
        "Ġm",
        "or"
      ],
      [
        "ic",
        "o"
      ],
      [
        "ul",
        "pt"
      ],
      [
        "ĠD",
        "u"
      ],
      [
        "ers",
        "haw"
      ],
      [
        "Ġv",
        "ol"
      ],
      [
        "Ġch",
        "art"
      ],
      [
        "ĠY",
        "ear"
      ],
      [
        "ph",
        "oon"
      ],
      [
        "ollow",
        "ing"
      ],
      [
        "Ġcent",
        "ral"
      ],
      [
        "Ġcrit",
        "ic"
      ],
      [
        "Ġresp",
        "ons"
      ],
      [
        "ĠCan",
        "ad"
      ],
      [
        "Ġestim",
        "ated"
      ],
      [
        "f",
        "ord"
      ],
      [
        "Ġw",
        "ood"
      ],
      [
        "Ġc",
        "ivil"
      ],
      [
        "Ġh",
        "om"
      ],
      [
        "Ġre",
        "n"
      ],
      [
        "ly",
        "ing"
      ],
      [
        "Ġst",
        "yle"
      ],
      [
        "ord",
        "s"
      ],
      [
        "Ġcomp",
        "et"
      ],
      [
        "Ġsc",
        "ulpt"
      ],
      [
        "Ġpubl",
        "ished"
      ],
      [
        "Ġbeg",
        "in"
      ],
      [
        "Ġpolit",
        "ical"
      ],
      [
        "Ġtemnospondyl",
        "s"
      ],
      [
        "n",
        "y"
      ],
      [
        "Ġs",
        "quadron"
      ],
      [
        "Ġf",
        "un"
      ],
      [
        "Ġf",
        "ather"
      ],
      [
        "Ġf",
        "leet"
      ],
      [
        "Ġf",
        "riend"
      ],
      [
        "Ġc",
        "ase"
      ],
      [
        "Ġp",
        "ie"
      ],
      [
        "Ġto",
        "wards"
      ],
      [
        "Ġm",
        "ur"
      ],
      [
        "ĠM",
        "in"
      ],
      [
        "Ġwith",
        "d"
      ],
      [
        "ĠJ",
        "ames"
      ],
      [
        "ist",
        "ic"
      ],
      [
        "Ġnot",
        "ed"
      ],
      [
        "ie",
        "f"
      ],
      [
        "Ġsc",
        "ene"
      ],
      [
        "Ġne",
        "ed"
      ],
      [
        "Ġear",
        "l"
      ],
      [
        "Ġmon",
        "ument"
      ],
      [
        "Ġorigin",
        "ally"
      ],
      [
        "ĠMc",
        "C"
      ],
      [
        "Ġnort",
        "hern"
      ],
      [
        "Ġdestroy",
        "ed"
      ],
      [
        "f",
        "all"
      ],
      [
        "m",
        "b"
      ],
      [
        "Ġs",
        "w"
      ],
      [
        "at",
        "a"
      ],
      [
        "ro",
        "du"
      ],
      [
        "Ġm",
        "ph"
      ],
      [
        "ĠS",
        "y"
      ],
      [
        "ĠS",
        "pan"
      ],
      [
        "Ġl",
        "ack"
      ],
      [
        "Ġl",
        "oss"
      ],
      [
        "ur",
        "ity"
      ],
      [
        "ĠM",
        "ad"
      ],
      [
        "ĠN",
        "B"
      ],
      [
        "ri",
        "a"
      ],
      [
        "Ġse",
        "e"
      ],
      [
        "Ġr",
        "ain"
      ],
      [
        "op",
        "h"
      ],
      [
        "Ġwork",
        "s"
      ],
      [
        "Ġhead",
        "s"
      ],
      [
        "Ġhigh",
        "way"
      ],
      [
        "Ġserv",
        "ice"
      ],
      [
        "ĠGe",
        "or"
      ],
      [
        "Ġimport",
        "ant"
      ],
      [
        "a",
        "ff"
      ],
      [
        "at",
        "ors"
      ],
      [
        "ar",
        "ly"
      ],
      [
        "Ġb",
        "omb"
      ],
      [
        "Ġd",
        "ied"
      ],
      [
        "ay",
        "er"
      ],
      [
        "em",
        "y"
      ],
      [
        "ĠE",
        "x"
      ],
      [
        "all",
        "s"
      ],
      [
        "Ġsong",
        "s"
      ],
      [
        "ĠLes",
        "ter"
      ],
      [
        "Ġdesign",
        "ed"
      ],
      [
        "Ġspec",
        "ies"
      ],
      [
        "Ġappe",
        "ared"
      ],
      [
        "Ġpop",
        "ular"
      ],
      [
        "Ġord",
        "ered"
      ],
      [
        "Ġestabl",
        "ished"
      ],
      [
        "Ġauth",
        "or"
      ],
      [
        "r",
        "ing"
      ],
      [
        "v",
        "ing"
      ],
      [
        "al",
        "d"
      ],
      [
        "Ġp",
        "ra"
      ],
      [
        "Ġh",
        "ost"
      ],
      [
        "ĠA",
        "ward"
      ],
      [
        "ĠC",
        "reek"
      ],
      [
        "ac",
        "es"
      ],
      [
        "Ġon",
        "ce"
      ],
      [
        "ĠP",
        "e"
      ],
      [
        "em",
        "s"
      ],
      [
        "ĠO",
        "per"
      ],
      [
        "iv",
        "id"
      ],
      [
        "ab",
        "or"
      ],
      [
        "Ġinclud",
        "e"
      ],
      [
        "ĠUn",
        "ion"
      ],
      [
        "Ġdec",
        "ided"
      ],
      [
        "Ġpo",
        "et"
      ],
      [
        "Ġocc",
        "up"
      ],
      [
        "Ġstru",
        "ct"
      ],
      [
        "Ġri",
        "ver"
      ],
      [
        "Ġsout",
        "hern"
      ],
      [
        "e",
        "um"
      ],
      [
        "o",
        "le"
      ],
      [
        "u",
        "z"
      ],
      [
        "y",
        "ing"
      ],
      [
        "Ġf",
        "ar"
      ],
      [
        "ur",
        "b"
      ],
      [
        "ĠB",
        "est"
      ],
      [
        "ĠB",
        "lythe"
      ],
      [
        "ĠR",
        "ad"
      ],
      [
        "ĠO",
        "l"
      ],
      [
        "ĠHe",
        "ad"
      ],
      [
        "ress",
        "ed"
      ],
      [
        "Ġcol",
        "on"
      ],
      [
        "ĠMe",
        "x"
      ],
      [
        "ĠMich",
        "igan"
      ],
      [
        "Ġcaus",
        "ed"
      ],
      [
        "fic",
        "ult"
      ],
      [
        "ĠSpan",
        "ish"
      ],
      [
        "m",
        "a"
      ],
      [
        "m",
        "en"
      ],
      [
        "r",
        "ated"
      ],
      [
        "Ġt",
        "en"
      ],
      [
        "he",
        "re"
      ],
      [
        "Ġf",
        "ull"
      ],
      [
        "Ġin",
        "j"
      ],
      [
        "Ġm",
        "ag"
      ],
      [
        "ĠS",
        "up"
      ],
      [
        "ad",
        "es"
      ],
      [
        "Ġl",
        "ist"
      ],
      [
        "Ġcom",
        "mer"
      ],
      [
        "Ġab",
        "le"
      ],
      [
        "Ġab",
        "ove"
      ],
      [
        "Ġplay",
        "ers"
      ],
      [
        "Ġsign",
        "ed"
      ],
      [
        "Ġcomple",
        "ted"
      ],
      [
        "Ġcre",
        "ated"
      ],
      [
        "ĠKore",
        "an"
      ],
      [
        "enc",
        "y"
      ],
      [
        "a",
        "el"
      ],
      [
        "Ġt",
        "re"
      ],
      [
        "Ġs",
        "low"
      ],
      [
        "Ġc",
        "oin"
      ],
      [
        "Ġd",
        "ivision"
      ],
      [
        "ĠS",
        "m"
      ],
      [
        "ĠS",
        "ome"
      ],
      [
        "Ġfor",
        "t"
      ],
      [
        "Ġat",
        "tend"
      ],
      [
        "ĠL",
        "ittle"
      ],
      [
        "our",
        "t"
      ],
      [
        "Ġun",
        "it"
      ],
      [
        "Ġte",
        "chn"
      ],
      [
        "ound",
        "ed"
      ],
      [
        "ĠIt",
        "al"
      ],
      [
        "Ġinter",
        "n"
      ],
      [
        "Ġbl",
        "ock"
      ],
      [
        "Ġfeat",
        "ured"
      ],
      [
        "Ġdif",
        "ficult"
      ],
      [
        "Ġinst",
        "ead"
      ],
      [
        "Ġdam",
        "aged"
      ],
      [
        "Ġocc",
        "ur"
      ],
      [
        "ĠFor",
        "ce"
      ],
      [
        "Ġthough",
        "t"
      ],
      [
        "ĠRich",
        "mond"
      ],
      [
        "Ġcompan",
        "y"
      ],
      [
        "f",
        "or"
      ],
      [
        "g",
        "a"
      ],
      [
        "Ġt",
        "aken"
      ],
      [
        "en",
        "ed"
      ],
      [
        "an",
        "ces"
      ],
      [
        "Ġh",
        "ow"
      ],
      [
        "id",
        "ing"
      ],
      [
        "ĠR",
        "aj"
      ],
      [
        "Ġcon",
        "du"
      ],
      [
        "ĠD",
        "o"
      ],
      [
        "ri",
        "es"
      ],
      [
        "ĠG",
        "reat"
      ],
      [
        "Ġr",
        "ank"
      ],
      [
        "ap",
        "s"
      ],
      [
        "od",
        "es"
      ],
      [
        "Ġcom",
        "ment"
      ],
      [
        "Ġare",
        "as"
      ],
      [
        "Ġar",
        "ri"
      ],
      [
        "ĠV",
        "ict"
      ],
      [
        "ren",
        "g"
      ],
      [
        "Ġen",
        "c"
      ],
      [
        "ines",
        "e"
      ],
      [
        "Ġass",
        "oci"
      ],
      [
        "Ġme",
        "et"
      ],
      [
        "Ġco",
        "ast"
      ],
      [
        "Ġent",
        "ire"
      ],
      [
        "Ġcomple",
        "te"
      ],
      [
        "Ġbro",
        "ad"
      ],
      [
        "ĠBl",
        "ack"
      ],
      [
        "Ġbo",
        "ats"
      ],
      [
        "Ġstru",
        "ck"
      ],
      [
        "Ġmonth",
        "s"
      ],
      [
        "etr",
        "arch"
      ],
      [
        "Ġes",
        "c"
      ],
      [
        "ivid",
        "ual"
      ],
      [
        "R",
        "A"
      ],
      [
        "g",
        "round"
      ],
      [
        "i",
        "ber"
      ],
      [
        "Ġ",
        "ident"
      ],
      [
        "Ġs",
        "omet"
      ],
      [
        "Ġc",
        "ru"
      ],
      [
        "as",
        "ter"
      ],
      [
        "ĠT",
        "etrarch"
      ],
      [
        "Ġl",
        "ook"
      ],
      [
        "am",
        "ent"
      ],
      [
        "Ġcon",
        "v"
      ],
      [
        "Ġde",
        "ities"
      ],
      [
        "Ġse",
        "ven"
      ],
      [
        "ĠCh",
        "inese"
      ],
      [
        "pl",
        "ay"
      ],
      [
        "ign",
        "ed"
      ],
      [
        "Ġcent",
        "er"
      ],
      [
        "Ġfe",
        "et"
      ],
      [
        "Ġsur",
        "round"
      ],
      [
        "Ġqu",
        "ick"
      ],
      [
        "Ġadd",
        "ed"
      ],
      [
        "Ġgener",
        "al"
      ],
      [
        "Ġrepl",
        "aced"
      ],
      [
        "med",
        "i"
      ],
      [
        "Ġperform",
        "ed"
      ],
      [
        "Ġtrad",
        "ition"
      ],
      [
        "Ġannoun",
        "ced"
      ],
      [
        "w",
        "est"
      ],
      [
        "Ġf",
        "if"
      ],
      [
        "Ġc",
        "ert"
      ],
      [
        "as",
        "ing"
      ],
      [
        "Ġl",
        "ittle"
      ],
      [
        "ĠC",
        "or"
      ],
      [
        "Ġe",
        "ither"
      ],
      [
        "ĠH",
        "er"
      ],
      [
        "ul",
        "f"
      ],
      [
        "Ġde",
        "ploy"
      ],
      [
        "ill",
        "o"
      ],
      [
        "iv",
        "a"
      ],
      [
        "Ġcol",
        "le"
      ],
      [
        "ask",
        "et"
      ],
      [
        "ĠWh",
        "ile"
      ],
      [
        "Ġdefe",
        "ated"
      ],
      [
        "f",
        "orm"
      ],
      [
        "n",
        "el"
      ],
      [
        "u",
        "ck"
      ],
      [
        "Ġa",
        "ud"
      ],
      [
        "Ġa",
        "ward"
      ],
      [
        "or",
        "ing"
      ],
      [
        "ĠA",
        "c"
      ],
      [
        "ĠC",
        "ro"
      ],
      [
        "om",
        "en"
      ],
      [
        "ĠM",
        "iss"
      ],
      [
        "ĠG",
        "A"
      ],
      [
        "wo",
        "od"
      ],
      [
        "Ġbec",
        "om"
      ],
      [
        "Ġcol",
        "l"
      ],
      [
        "Ġinv",
        "est"
      ],
      [
        "ific",
        "ation"
      ],
      [
        "Ġwrit",
        "ing"
      ],
      [
        "Ġopen",
        "ing"
      ],
      [
        "Ġprog",
        "ram"
      ],
      [
        "c",
        "ast"
      ],
      [
        "v",
        "ille"
      ],
      [
        "Ġ",
        "X"
      ],
      [
        "it",
        "ect"
      ],
      [
        "Ġf",
        "ell"
      ],
      [
        "ĠT",
        "y"
      ],
      [
        "ĠT",
        "em"
      ],
      [
        "ĠT",
        "ru"
      ],
      [
        "Ġl",
        "ive"
      ],
      [
        "Ġst",
        "reng"
      ],
      [
        "Ġse",
        "ction"
      ],
      [
        "Ġpro",
        "cess"
      ],
      [
        "ish",
        "ing"
      ],
      [
        "ach",
        "ing"
      ],
      [
        "ĠSh",
        "iva"
      ],
      [
        "ĠComm",
        "and"
      ],
      [
        "ĠComm",
        "ission"
      ],
      [
        "Ġpoin",
        "ts"
      ],
      [
        "ĠEng",
        "land"
      ],
      [
        "Ġcontr",
        "act"
      ],
      [
        "Ġhour",
        "s"
      ],
      [
        "Ġla",
        "un"
      ],
      [
        "Ġtele",
        "vision"
      ],
      [
        "asket",
        "ball"
      ],
      [
        "t",
        "ies"
      ],
      [
        "or",
        "ies"
      ],
      [
        "is",
        "er"
      ],
      [
        "ĠT",
        "wo"
      ],
      [
        "st",
        "er"
      ],
      [
        "ĠB",
        "ar"
      ],
      [
        "ĠB",
        "el"
      ],
      [
        "Ġg",
        "en"
      ],
      [
        "ĠP",
        "ac"
      ],
      [
        "Ġr",
        "a"
      ],
      [
        "op",
        "e"
      ],
      [
        "Ġk",
        "ing"
      ],
      [
        "ra",
        "f"
      ],
      [
        "Ġev",
        "ents"
      ],
      [
        "rough",
        "t"
      ],
      [
        "Ġtr",
        "aining"
      ],
      [
        "Ġfour",
        "th"
      ],
      [
        "Ġind",
        "ividual"
      ],
      [
        "Ġeff",
        "ort"
      ],
      [
        "Ġstud",
        "io"
      ],
      [
        "Ġimp",
        "ro"
      ],
      [
        "bo",
        "ard"
      ],
      [
        "iqu",
        "e"
      ],
      [
        "h",
        "u"
      ],
      [
        "u",
        "k"
      ],
      [
        "Ġs",
        "um"
      ],
      [
        "it",
        "ing"
      ],
      [
        "Ġc",
        "e"
      ],
      [
        "al",
        "and"
      ],
      [
        "Ġh",
        "ouse"
      ],
      [
        "Ġth",
        "reat"
      ],
      [
        "ĠS",
        "en"
      ],
      [
        "Ġe",
        "astern"
      ],
      [
        "id",
        "s"
      ],
      [
        "Ġal",
        "most"
      ],
      [
        "ill",
        "ery"
      ],
      [
        "Ġpro",
        "b"
      ],
      [
        "Ġv",
        "oc"
      ],
      [
        "ĠCh",
        "ina"
      ],
      [
        "Ġint",
        "rodu"
      ],
      [
        "ell",
        "ig"
      ],
      [
        "Ġarm",
        "y"
      ],
      [
        "Ġarm",
        "our"
      ],
      [
        "Ġind",
        "ic"
      ],
      [
        "Ġpartic",
        "ip"
      ],
      [
        "Ġcamp",
        "aign"
      ],
      [
        "Ġbus",
        "iness"
      ],
      [
        "c",
        "o"
      ],
      [
        "c",
        "om"
      ],
      [
        "Ġa",
        "ver"
      ],
      [
        "Ġf",
        "oc"
      ],
      [
        "Ġf",
        "act"
      ],
      [
        "Ġc",
        "ast"
      ],
      [
        "Ġh",
        "on"
      ],
      [
        "ou",
        "l"
      ],
      [
        "ĠM",
        "ed"
      ],
      [
        "ĠP",
        "at"
      ],
      [
        "ĠG",
        "l"
      ],
      [
        "Ġpro",
        "t"
      ],
      [
        "Ġpl",
        "at"
      ],
      [
        "per",
        "or"
      ],
      [
        "Ġout",
        "side"
      ],
      [
        "ll",
        "ed"
      ],
      [
        "Ġother",
        "s"
      ],
      [
        "ĠAustral",
        "ians"
      ],
      [
        "olog",
        "ical"
      ],
      [
        "Ġcar",
        "ried"
      ],
      [
        "Ġcomple",
        "x"
      ],
      [
        "Ġprov",
        "ided"
      ],
      [
        "Ġweek",
        "s"
      ],
      [
        "Ġposs",
        "ible"
      ],
      [
        "ĠKing",
        "dom"
      ],
      [
        "ĠAf",
        "ric"
      ],
      [
        "ĠRep",
        "ubl"
      ],
      [
        "Ġmur",
        "der"
      ],
      [
        "ĠVict",
        "or"
      ],
      [
        "d",
        "le"
      ],
      [
        "h",
        "ib"
      ],
      [
        "Ġa",
        "ge"
      ],
      [
        "ĠC",
        "are"
      ],
      [
        "ĠM",
        "on"
      ],
      [
        "Ġbe",
        "low"
      ],
      [
        "ir",
        "al"
      ],
      [
        "Ġas",
        "k"
      ],
      [
        "Ġst",
        "op"
      ],
      [
        "ĠH",
        "ol"
      ],
      [
        "ĠN",
        "az"
      ],
      [
        "ĠL",
        "a"
      ],
      [
        "if",
        "fe"
      ],
      [
        "art",
        "y"
      ],
      [
        "Ġk",
        "il"
      ],
      [
        "Ġim",
        "age"
      ],
      [
        "Ġinter",
        "est"
      ],
      [
        "Ġapp",
        "oin"
      ],
      [
        "Ġem",
        "ploy"
      ],
      [
        "ĠJew",
        "ish"
      ],
      [
        "c",
        "ing"
      ],
      [
        "j",
        "illo"
      ],
      [
        "k",
        "en"
      ],
      [
        "o",
        "ff"
      ],
      [
        "o",
        "ice"
      ],
      [
        "s",
        "hip"
      ],
      [
        "Ġm",
        "ount"
      ],
      [
        "ir",
        "st"
      ],
      [
        "Ġg",
        "ood"
      ],
      [
        "ĠD",
        "ay"
      ],
      [
        "se",
        "c"
      ],
      [
        "Ġv",
        "al"
      ],
      [
        "Ġun",
        "s"
      ],
      [
        "og",
        "n"
      ],
      [
        "ry",
        "ing"
      ],
      [
        "pl",
        "es"
      ],
      [
        "per",
        "ial"
      ],
      [
        "Ġpre",
        "vent"
      ],
      [
        "ĠRe",
        "c"
      ],
      [
        "Ġlar",
        "gest"
      ],
      [
        "Ġattack",
        "ed"
      ],
      [
        "Ġtrans",
        "port"
      ],
      [
        "Ġgroup",
        "s"
      ],
      [
        "Ġlead",
        "ing"
      ],
      [
        "Ġoffic",
        "ers"
      ],
      [
        "Ġgo",
        "al"
      ],
      [
        "Ġrequ",
        "est"
      ],
      [
        "Ġbelie",
        "ved"
      ],
      [
        "Ġsuff",
        "ered"
      ],
      [
        "aut",
        "y"
      ],
      [
        "Ġvers",
        "ion"
      ],
      [
        "a",
        "ult"
      ],
      [
        "Ġt",
        "or"
      ],
      [
        "Ġt",
        "ur"
      ],
      [
        "Ġf",
        "ederal"
      ],
      [
        "Ġc",
        "al"
      ],
      [
        "Ġm",
        "ix"
      ],
      [
        "Ġl",
        "ines"
      ],
      [
        "id",
        "ence"
      ],
      [
        "Ġst",
        "one"
      ],
      [
        "ĠO",
        "ther"
      ],
      [
        "Ġsh",
        "oot"
      ],
      [
        "ight",
        "s"
      ],
      [
        "Ġcomm",
        "on"
      ],
      [
        "ull",
        "s"
      ],
      [
        "Ġvar",
        "i"
      ],
      [
        "Ġironcl",
        "ads"
      ],
      [
        "Ġflo",
        "or"
      ],
      [
        "o",
        "e"
      ],
      [
        "Ġf",
        "ree"
      ],
      [
        "Ġc",
        "he"
      ],
      [
        "Ġp",
        "riv"
      ],
      [
        "Ġd",
        "ri"
      ],
      [
        "Ġh",
        "y"
      ],
      [
        "ĠA",
        "b"
      ],
      [
        "ent",
        "ial"
      ],
      [
        "ad",
        "ed"
      ],
      [
        "ĠC",
        "ourt"
      ],
      [
        "ĠM",
        "ong"
      ],
      [
        "ĠB",
        "ill"
      ],
      [
        "im",
        "in"
      ],
      [
        "ĠN",
        "e"
      ],
      [
        "Ġcon",
        "dition"
      ],
      [
        "ĠG",
        "ib"
      ],
      [
        "ĠU",
        "K"
      ],
      [
        "Ġex",
        "ist"
      ],
      [
        "ph",
        "ib"
      ],
      [
        "Ġrem",
        "oved"
      ],
      [
        "Ġcharac",
        "ters"
      ],
      [
        "Ġcur",
        "rent"
      ],
      [
        "Ġfight",
        "ing"
      ],
      [
        "Ġsubsequ",
        "ently"
      ],
      [
        "t",
        "r"
      ],
      [
        "Ġb",
        "reak"
      ],
      [
        "Ġn",
        "ine"
      ],
      [
        "ĠM",
        "or"
      ],
      [
        "ĠB",
        "ig"
      ],
      [
        "ig",
        "ade"
      ],
      [
        "ce",
        "ed"
      ],
      [
        "Ġrec",
        "ogn"
      ],
      [
        "olog",
        "ists"
      ],
      [
        "ĠMar",
        "ine"
      ],
      [
        "Ġpr",
        "in"
      ],
      [
        "ven",
        "ue"
      ],
      [
        "Ġart",
        "illery"
      ],
      [
        "Ġturn",
        "ed"
      ],
      [
        "ĠBut",
        "ler"
      ],
      [
        "Ġchild",
        "ren"
      ],
      [
        "ĠAss",
        "oci"
      ],
      [
        "Ġagre",
        "ed"
      ],
      [
        "ĠTru",
        "jillo"
      ],
      [
        "ellig",
        "ence"
      ],
      [
        "ĠMong",
        "ol"
      ],
      [
        "b",
        "e"
      ],
      [
        "on",
        "y"
      ],
      [
        "at",
        "ers"
      ],
      [
        "ar",
        "ily"
      ],
      [
        "Ġm",
        "ass"
      ],
      [
        "Ġd",
        "ou"
      ],
      [
        "Ġre",
        "ve"
      ],
      [
        "ac",
        "ing"
      ],
      [
        "ur",
        "ric"
      ],
      [
        "ĠB",
        "all"
      ],
      [
        "un",
        "k"
      ],
      [
        "ĠW",
        "W"
      ],
      [
        "Ġse",
        "par"
      ],
      [
        "Ġan",
        "c"
      ],
      [
        "um",
        "n"
      ],
      [
        "Ġr",
        "idge"
      ],
      [
        "ĠU",
        "B"
      ],
      [
        "ĠU",
        "p"
      ],
      [
        "ĠU",
        "nder"
      ],
      [
        "ant",
        "a"
      ],
      [
        "cl",
        "iffe"
      ],
      [
        "Ġcont",
        "rib"
      ],
      [
        "ĠY",
        "ou"
      ],
      [
        "Ġshe",
        "ll"
      ],
      [
        "Ġcons",
        "pir"
      ],
      [
        "Ġgro",
        "w"
      ],
      [
        "Ġrequ",
        "ired"
      ],
      [
        "ĠMus",
        "ic"
      ],
      [
        "Ġprevious",
        "ly"
      ],
      [
        "Ġnort",
        "heast"
      ],
      [
        "Ġevent",
        "ually"
      ],
      [
        "Ġjoin",
        "ed"
      ],
      [
        "ĠReg",
        "iment"
      ],
      [
        "Ġbegin",
        "ning"
      ],
      [
        "Ġarri",
        "ved"
      ],
      [
        "urric",
        "ane"
      ],
      [
        "M",
        "A"
      ],
      [
        "n",
        "ow"
      ],
      [
        "n",
        "ect"
      ],
      [
        "r",
        "is"
      ],
      [
        "in",
        "o"
      ],
      [
        "Ġf",
        "ield"
      ],
      [
        "Ġc",
        "reat"
      ],
      [
        "Ġp",
        "ast"
      ],
      [
        "Ġm",
        "ot"
      ],
      [
        "Ġm",
        "ult"
      ],
      [
        "ĠT",
        "im"
      ],
      [
        "Ġre",
        "action"
      ],
      [
        "ĠA",
        "ct"
      ],
      [
        "Ġfor",
        "ced"
      ],
      [
        "ĠP",
        "et"
      ],
      [
        "ĠF",
        "u"
      ],
      [
        "ĠF",
        "in"
      ],
      [
        "pe",
        "c"
      ],
      [
        "ĠCh",
        "ampionship"
      ],
      [
        "Ġres",
        "pect"
      ],
      [
        "Ġsc",
        "ript"
      ],
      [
        "Ġup",
        "on"
      ],
      [
        "Ġac",
        "cept"
      ],
      [
        "Ġmin",
        "ute"
      ],
      [
        "Ġdo",
        "es"
      ],
      [
        "erv",
        "a"
      ],
      [
        "Ġconc",
        "ern"
      ],
      [
        "Ġallow",
        "ed"
      ],
      [
        "Ġtank",
        "s"
      ],
      [
        "ĠEgypt",
        "ian"
      ],
      [
        "ĠRuss",
        "ian"
      ],
      [
        "ĠNB",
        "A"
      ],
      [
        "ĠOper",
        "ation"
      ],
      [
        "ĠPac",
        "ific"
      ],
      [
        "m",
        "ing"
      ],
      [
        "u",
        "el"
      ],
      [
        "w",
        "in"
      ],
      [
        "Ġ",
        "z"
      ],
      [
        "Ġt",
        "aking"
      ],
      [
        "Ġs",
        "ol"
      ],
      [
        "Ġc",
        "ou"
      ],
      [
        "es",
        "h"
      ],
      [
        "ar",
        "ing"
      ],
      [
        "Ġb",
        "orn"
      ],
      [
        "Ġb",
        "rought"
      ],
      [
        "Ġp",
        "en"
      ],
      [
        "Ġp",
        "il"
      ],
      [
        "Ġre",
        "ad"
      ],
      [
        "id",
        "ents"
      ],
      [
        "em",
        "eter"
      ],
      [
        "ĠF",
        "irst"
      ],
      [
        "Ġde",
        "ter"
      ],
      [
        "ĠG",
        "overn"
      ],
      [
        "Ġpro",
        "ble"
      ],
      [
        "ass",
        "ic"
      ],
      [
        "ran",
        "ch"
      ],
      [
        "Ġres",
        "ul"
      ],
      [
        "Ġad",
        "ap"
      ],
      [
        "Ġdis",
        "s"
      ],
      [
        "Ġrem",
        "aining"
      ],
      [
        "Ġsec",
        "urity"
      ],
      [
        "Ġnew",
        "s"
      ],
      [
        "Ġfin",
        "ished"
      ],
      [
        "Ġkn",
        "ow"
      ],
      [
        "Ġacc",
        "om"
      ],
      [
        "Ġinf",
        "antry"
      ],
      [
        "Ġoper",
        "ation"
      ],
      [
        "ĠAt",
        "t"
      ],
      [
        "Ġdep",
        "ression"
      ],
      [
        "Ġset",
        "t"
      ],
      [
        "Ġeng",
        "ine"
      ],
      [
        "Ġdel",
        "iver"
      ],
      [
        "Ġironcl",
        "ad"
      ],
      [
        "AA",
        "F"
      ],
      [
        "Ġstri",
        "ke"
      ],
      [
        "ĠMex",
        "ico"
      ],
      [
        "c",
        "er"
      ],
      [
        "l",
        "ish"
      ],
      [
        "he",
        "ad"
      ],
      [
        "Ġs",
        "elf"
      ],
      [
        "Ġin",
        "ch"
      ],
      [
        "al",
        "ed"
      ],
      [
        "ic",
        "ted"
      ],
      [
        "Ġl",
        "o"
      ],
      [
        "Ġl",
        "if"
      ],
      [
        "Ġn",
        "ove"
      ],
      [
        "ĠH",
        "ist"
      ],
      [
        "ĠR",
        "AAF"
      ],
      [
        "ĠP",
        "al"
      ],
      [
        "ch",
        "ange"
      ],
      [
        "Ġwh",
        "ite"
      ],
      [
        "ĠF",
        "il"
      ],
      [
        "um",
        "ents"
      ],
      [
        "ore",
        "n"
      ],
      [
        "ĠK",
        "ershaw"
      ],
      [
        "Ġcl",
        "ub"
      ],
      [
        "Ġsc",
        "ored"
      ],
      [
        "Ġplay",
        "ing"
      ],
      [
        "Ġinter",
        "se"
      ],
      [
        "ang",
        "u"
      ],
      [
        "Ġposition",
        "s"
      ],
      [
        "Ġvi",
        "ol"
      ],
      [
        "Ġappear",
        "ance"
      ],
      [
        "Ġav",
        "ail"
      ],
      [
        "ĠRaj",
        "ne"
      ],
      [
        "A",
        "fter"
      ],
      [
        "N",
        "A"
      ],
      [
        "b",
        "on"
      ],
      [
        "d",
        "ing"
      ],
      [
        "Ġs",
        "aying"
      ],
      [
        "it",
        "z"
      ],
      [
        "Ġb",
        "asketball"
      ],
      [
        "Ġm",
        "ach"
      ],
      [
        "Ġd",
        "en"
      ],
      [
        "ĠT",
        "o"
      ],
      [
        "il",
        "ities"
      ],
      [
        "ĠS",
        "ch"
      ],
      [
        "ĠP",
        "res"
      ],
      [
        "Ġde",
        "ad"
      ],
      [
        "Ġan",
        "im"
      ],
      [
        "Ġr",
        "ap"
      ],
      [
        "Ġr",
        "ather"
      ],
      [
        "qu",
        "ar"
      ],
      [
        "qu",
        "are"
      ],
      [
        "oc",
        "r"
      ],
      [
        "ib",
        "ility"
      ],
      [
        "Ġman",
        "ag"
      ],
      [
        "amp",
        "le"
      ],
      [
        "Ġind",
        "ust"
      ],
      [
        "Ġdec",
        "ision"
      ],
      [
        "ĠChar",
        "les"
      ],
      [
        "Ġcommun",
        "ity"
      ],
      [
        "Ġprof",
        "ess"
      ],
      [
        "ĠDo",
        "ctor"
      ],
      [
        "A",
        "R"
      ],
      [
        "F",
        "C"
      ],
      [
        "Ġw",
        "ounded"
      ],
      [
        "Ġp",
        "air"
      ],
      [
        "Ġm",
        "ater"
      ],
      [
        "Ġd",
        "on"
      ],
      [
        "ĠS",
        "u"
      ],
      [
        "ĠD",
        "on"
      ],
      [
        "ĠD",
        "av"
      ],
      [
        "Ġde",
        "al"
      ],
      [
        "Ġse",
        "x"
      ],
      [
        "all",
        "ing"
      ],
      [
        "pe",
        "cted"
      ],
      [
        "Ġv",
        "ill"
      ],
      [
        "Ġex",
        "ec"
      ],
      [
        "Ġint",
        "ended"
      ],
      [
        "ral",
        "tar"
      ],
      [
        "Ġrem",
        "ain"
      ],
      [
        "Ġwork",
        "ed"
      ],
      [
        "Ġsub",
        "ject"
      ],
      [
        "az",
        "ine"
      ],
      [
        "Ġinf",
        "orm"
      ],
      [
        "Ġcrit",
        "ics"
      ],
      [
        "Ġcommand",
        "er"
      ],
      [
        "por",
        "ary"
      ],
      [
        "ĠEng",
        "lish"
      ],
      [
        "Ġfav",
        "or"
      ],
      [
        "ĠSo",
        "vi"
      ],
      [
        "Ġinvest",
        "ig"
      ],
      [
        "Ġc",
        "ost"
      ],
      [
        "an",
        "ced"
      ],
      [
        "Ġb",
        "ad"
      ],
      [
        "ic",
        "les"
      ],
      [
        "Ġh",
        "ous"
      ],
      [
        "ĠS",
        "ar"
      ],
      [
        "ĠS",
        "onic"
      ],
      [
        "st",
        "r"
      ],
      [
        "Ġl",
[...]
