{
  "version": "1.0",
  "truncation": null,
  "padding": null,
  "added_tokens": [
    {
      "id": 0,
      "content": "<pad>",
      "single_word": false,
      "lstrip": false,
      "rstrip": false,
      "normalized": false,
      "special": true
    },
    {
      "id": 1,
      "content": "<unk>",
      "single_word": false,
      "lstrip": false,
      "rstrip": false,
      "normalized": false,
      "special": true
    },
    {
      "id": 2,
      "content": "<bos>",
      "single_word": false,
      "lstrip": false,
      "rstrip": false,
      "normalized": false,
      "special": true
    },
    {
      "id": 3,
      "content": "<eos>",
      "single_word": false,
      "lstrip": false,
      "rstrip": false,
      "normalized": false,
      "special": true
    }
  ],
  "normalizer": null,
  "pre_tokenizer": {
    "type": "Split",
    "pattern": {
      "Regex": " ?[A-Za-z]+"
    },
    "behavior": "Isolated",
    "invert": false
  },
  "post_processor": null,
  "decoder": {
    "type": "Fuse"
  },
  "model": {
    "type": "BPE",
    "dropout": null,
    "unk_token": "<unk>",
    "continuing_subword_prefix": null,
    "end_of_word_suffix": null,
    "fuse_unk": false,
    "byte_fallback": false,
    "ignore_merges": false,
    "vocab": {
      "<pad>": 0,
      "<unk>": 1,
      "<bos>": 2,
      "<eos>": 3,
      " ": 4,
      "A": 5,
      "B": 6,
      "C": 7,
      "D": 8,
      "E": 9,
      "F": 10,
      "G": 11,
      "H": 12,
      "I": 13,
      "J": 14,
      "K": 15,
      "L": 16,
      "M": 17,
      "N": 18,
      "O": 19,
      "P": 20,
      "Q": 21,
      "R": 22,
      "S": 23,
      "T": 24,
      "U": 25,
      "V": 26,
      "W": 27,
      "X": 28,
      "Y": 29,
      "Z": 30,
      "a": 31,
      "b": 32,
      "c": 33,
      "d": 34,
      "e": 35,
      "f": 36,
      "g": 37,
      "h": 38,
      "i": 39,
      "j": 40,
      "k": 41,
      "l": 42,
      "m": 43,
      "n": 44,
      "o": 45,
      "p": 46,
      "q": 47,
      "r": 48,
      "s": 49,
      "t": 50,
      "u": 51,
      "v": 52,
      "w": 53,
      "x": 54,
      "y": 55,
      "z": 56,
      " t": 57,
      "he": 58,
      " a": 59,
      "in": 60,
      " the": 61,
      "er": 62,
      "on": 63,
      " s": 64,
      "ed": 65,
      "re": 66,
      " w": 67,
      " o": 68,
      "nd": 69,
      "at": 70,
      "or": 71,
      "it": 72,
      "en": 73,
      " f": 74,
      " c": 75,
      "es": 76,
      "an": 77,
      "ar": 78,
      "is": 79,
      " of": 80,
      " b": 81,
      "al": 82,
      " in": 83,
      " p": 84,
      "as": 85,
      "ing": 86,
      " and": 87,
      " to": 88,
      "ro": 89,
      " m": 90,
      "ic": 91,
      " d": 92,
      " h": 93,
      "ion": 94,
      "ou": 95,
      "le": 96,
      " th": 97,
      " T": 98,
      "il": 99,
      " re": 100,
      " S": 101,
      " A": 102,
      "st": 103,
      "ent": 104,
      "ad": 105,
      " l": 106,
      " C": 107,
      " e": 108,
      " n": 109,
      "ac": 110,
      "ly": 111,
      "am": 112,
      "om": 113,
      "ur": 114,
      " M": 115,
      " was": 116,
      " B": 117,
      "ol": 118,
      "ec": 119,
      " on": 120,
      "ir": 121,
      "el": 122,
      "id": 123,
      " g": 124,
      "et": 125,
      "im": 126,
      "ig": 127,
      "iv": 128,
      " for": 129,
      "ot": 130,
      "ut": 131,
      " I": 132,
      "ter": 133,
      "ow": 134,
      " The": 135,
      " as": 136,
      "us": 137,
      " st": 138,
      "ay": 139,
      "ith": 140,
      " H": 141,
      "em": 142,
      "un": 143,
      " he": 144,
      " be": 145,
      " R": 146,
      " P": 147,
      "ver": 148,
      " N": 149,
      "ce": 150,
      "ch": 151,
      "ation": 152,
      "th": 153,
      " with": 154,
      "ul": 155,
      " that": 156,
      "and": 157,
      " at": 158,
      " al": 159,
      " D": 160,
      " by": 161,
      " F": 162,
      " wh": 163,
      " con": 164,
      "os": 165,
      " an": 166,
      " r": 167,
      "ct": 168,
      "ain": 169,
      "ers": 170,
      " L": 171,
      " W": 172,
      "av": 173,
      " G": 174,
      " J": 175,
      " is": 176,
      "the": 177,
      "rom": 178,
      "ag": 179,
      "um": 180,
      " it": 181,
      "ere": 182,
      "ist": 183,
      "est": 184,
      "ri": 185,
      "ap": 186,
      "od": 187,
      " E": 188,
      " de": 189,
      " were": 190,
      "op": 191,
      "ate": 192,
      "res": 193,
      " from": 194,
      "up": 195,
      " com": 196,
      "igh": 197,
      " O": 198,
      "ill": 199,
      "if": 200,
      "ted": 201,
      " his": 202,
      " se": 203,
      "ber": 204,
      "ld": 205,
      "ak": 206,
      "ew": 207,
      "ts": 208,
      "ong": 209,
      " v": 210,
      "ip": 211,
      "ich": 212,
      " U": 213,
      "ore": 214,
      "ian": 215,
      " pro": 216,
      "all": 217,
      " K": 218,
      "te": 219,
      "ies": 220,
      "gh": 221,
      "qu": 222,
      "se": 223,
      "oc": 224,
      "ity": 225,
      "ated": 226,
      " pl": 227,
      " sh": 228,
      "ard": 229,
      "ive": 230,
      "ab": 231,
      "ud": 232,
      "ge": 233,
      "ust": 234,
      "our": 235,
      "ra": 236,
      "ear": 237,
      " ex": 238,
      "ack": 239,
      " had": 240,
      " or": 241,
      " k": 242,
      "und": 243,
      "ess": 244,
      "ame": 245,
      "ort": 246,
      "cl": 247,
      "art": 248,
      " su": 249,
      "ia": 250,
      " In": 251,
      "ov": 252,
      " ch": 253,
      " St": 254,
      "ast": 255,
      " Ch": 256,
      "ment": 257,
      " are": 258,
      "ant": 259,
      "ost": 260,
      "ial": 261,
      "nt": 262,
      " which": 263,
      " ar": 264,
      "ish": 265,
      "rit": 266,
      "ther": 267,
      "ine": 268,
      "ary": 269,
      "ord": 270,
      "to": 271,
      " not": 272,
      "her": 273,
      "ight": 274,
      "ng": 275,
      " y": 276,
      "ry": 277,
      " le": 278,
      "ru": 279,
      "The": 280,
      "pl": 281,
      "so": 282,
      "ep": 283,
      "og": 284,
      "ect": 285,
      " un": 286,
      "ide": 287,
      "ave": 288,
      "ass": 289,
      "ond": 290,
      "ell": 291,
      "fter": 292,
      "ie": 293,
      "wo": 294,
      " He": 295,
      " ro": 296,
      "ions": 297,
      "ue": 298,
      " sp": 299,
      "ff": 300,
      "ign": 301,
      "per": 302,
      "ical": 303,
      " V": 304,
      "own": 305,
      "ure": 306,
      "ran": 307,
      "cc": 308,
      " fir": 309,
      "pp": 310,
      "ould": 311,
      "ous": 312,
      "mer": 313,
      " cont": 314,
      "man": 315,
      "ork": 316,
      " their": 317,
      "ome": 318,
      " but": 319,
      " its": 320,
      "ime": 321,
      " cl": 322,
      " also": 323,
      "ree": 324,
      "ke": 325,
      " ab": 326,
      " whe": 327,
      "out": 328,
      "age": 329,
      " ag": 330,
      "hed": 331,
      "low": 332,
      "ire": 333,
      "ub": 334,
      " per": 335,
      " ad": 336,
      " Th": 337,
      " one": 338,
      "ach": 339,
      "uring": 340,
      "ater": 341,
      " res": 342,
      " first": 343,
      "ugh": 344,
      " co": 345,
      "ral": 346,
      " two": 347,
      " sc": 348,
      "ok": 349,
      "ib": 350,
      " us": 351,
      "iz": 352,
      "ember": 353,
      " been": 354,
      "for": 355,
      " en": 356,
      "ile": 357,
      "ll": 358,
      " j": 359,
      "aw": 360,
      " has": 361,
      " comp": 362,
      " Y": 363,
      "ound": 364,
      "ough": 365,
      " rec": 366,
      "ence": 367,
      "ition": 368,
      "ally": 369,
      " i": 370,
      " im": 371,
      "ens": 372,
      "clud": 373,
      "ron": 374,
      " have": 375,
      "erv": 376,
      " off": 377,
      "ne": 378,
      "pt": 379,
      " att": 380,
      " after": 381,
      "are": 382,
      "ace": 383,
      "iss": 384,
      "att": 385,
      " te": 386,
      " her": 387,
      "ark": 388,
      "ult": 389,
      "io": 390,
      " bec": 391,
      " over": 392,
      "ade": 393,
      " des": 394,
      " we": 395,
      " who": 396,
      " up": 397,
      " It": 398,
      " this": 399,
      "ind": 400,
      " tr": 401,
      "ss": 402,
      " ev": 403,
      "ft": 404,
      " out": 405,
      "ction": 406,
      "we": 407,
      " part": 408,
      "act": 409,
      "ric": 410,
      "ress": 411,
      " they": 412,
      "ces": 413,
      "orth": 414,
      "urn": 415,
      " man": 416,
      "end": 417,
      "ced": 418,
      "ice": 419,
      "ied": 420,
      "land": 421,
      " app": 422,
      " comm": 423,
      "du": 424,
      " dis": 425,
      "ons": 426,
      " time": 427,
      "ward": 428,
      " play": 429,
      " go": 430,
      "ations": 431,
      " pre": 432,
      " Un": 433,
      "old": 434,
      "one": 435,
      " ne": 436,
      "ance": 437,
      " into": 438,
      "outh": 439,
      "ite": 440,
      " year": 441,
      "ph": 442,
      " includ": 443,
      "les": 444,
      " rem": 445,
      "ilm": 446,
      "rough": 447,
      "ered": 448,
      "ose": 449,
      "port": 450,
      " pr": 451,
      "ount": 452,
      " po": 453,
      "ited": 454,
      "gan": 455,
      "ail": 456,
      "ory": 457,
      " all": 458,
      "hip": 459,
      " other": 460,
      " und": 461,
      "ors": 462,
      "rop": 463,
      "vi": 464,
      "round": 465,
      "ents": 466,
      "int": 467,
      " him": 468,
      "oy": 469,
      "ang": 470,
      "way": 471,
      " sec": 472,
      "ase": 473,
      "ased": 474,
      "of": 475,
      "ve": 476,
      " Ar": 477,
      "tern": 478,
      "ates": 479,
      " cons": 480,
      "ines": 481,
      "amp": 482,
      " Aust": 483,
      " would": 484,
      " again": 485,
      "ks": 486,
      " more": 487,
      " fl": 488,
      "ning": 489,
      "por": 490,
      " ear": 491,
      " during": 492,
      " US": 493,
      " def": 494,
      "wn": 495,
      " she": 496,
      " film": 497,
      "uil": 498,
      "ans": 499,
      " them": 500,
      "eat": 501,
      "ollow": 502,
      "able": 503,
      "oth": 504,
      "fer": 505,
      "vel": 506,
      " sup": 507,
      " work": 508,
      " three": 509,
      " Brit": 510,
      "rib": 511,
      "red": 512,
      "lic": 513,
      "ob": 514,
      " bet": 515,
      " dec": 516,
      "reat": 517,
      " pos": 518,
      " under": 519,
      "med": 520,
      "In": 521,
      " most": 522,
      " air": 523,
      " only": 524,
      "ason": 525,
      "meric": 526,
      "ision": 527,
      " Com": 528,
      "ren": 529,
      " num": 530,
      "ug": 531,
      " ret": 532,
      " pe": 533,
      "ick": 534,
      " ass": 535,
      "az": 536,
      " end": 537,
      " cent": 538,
      "oun": 539,
      " New": 540,
      " new": 541,
      "ake": 542,
      " fin": 543,
      "ings": 544,
      "ik": 545,
      "ix": 546,
      " inter": 547,
      " reg": 548,
      "ual": 549,
      " sub": 550,
      " col": 551,
      "fore": 552,
      "use": 553,
      "olog": 554,
      " gro": 555,
      "ween": 556,
      " kn": 557,
      " me": 558,
      " day": 559,
      "ational": 560,
      "ever": 561,
      "aid": 562,
      "aj": 563,
      "ck": 564,
      " head": 565,
      " Z": 566,
      "ls": 567,
      " about": 568,
      " when": 569,
      " act": 570,
      " Americ": 571,
      " ship": 572,
      "ict": 573,
      " four": 574,
      " Sh": 575,
      " am": 576,
      " rel": 577,
      " Al": 578,
      " Mar": 579,
      " Ger": 580,
      " car": 581,
      "ike": 582,
      " so": 583,
      "ved": 584,
      " war": 585,
      "ener": 586,
      " inv": 587,
      " later": 588,
      " Austral": 589,
      "bum": 590,
      "eg": 591,
      " mon": 592,
      "vern": 593,
      "ock": 594,
      " no": 595,
      " bo": 596,
      "ood": 597,
      " sur": 598,
      " Sc": 599,
      "orm": 600,
      "ns": 601,
      " lar": 602,
      "der": 603,
      "ained": 604,
      " team": 605,
      " mov": 606,
      " while": 607,
      " some": 608,
      " On": 609,
      " through": 610,
      "lect": 611,
      "ters": 612,
      " ac": 613,
      "ating": 614,
      " War": 615,
      "als": 616,
      " where": 617,
      " song": 618,
      " than": 619,
      "emb": 620,
      " follow": 621,
      " city": 622,
      "ient": 623,
      "ities": 624,
      " rep": 625,
      " sever": 626,
      " buil": 627,
      "ived": 628,
      " char": 629,
      " Ind": 630,
      " made": 631,
      " high": 632,
      "ey": 633,
      " game": 634,
      " inc": 635,
      " acc": 636,
      " loc": 637,
      "air": 638,
      "ped": 639,
      " int": 640,
      " between": 641,
      "avy": 642,
      "ific": 643,
      " produ": 644,
      " number": 645,
      "ty": 646,
      " em": 647,
      " arm": 648,
      " Jap": 649,
      " gun": 650,
      "ank": 651,
      " rele": 652,
      " Man": 653,
      " season": 654,
      " before": 655,
      " being": 656,
      "me": 657,
      "ular": 658,
      "ai": 659,
      "iel": 660,
      "its": 661,
      "rans": 662,
      " German": 663,
      "ept": 664,
      "ower": 665,
      " album": 666,
      " used": 667,
      "orld": 668,
      " fo": 669,
      " British": 670,
      "pr": 671,
      " there": 672,
      "ese": 673,
      " record": 674,
      "other": 675,
      "ert": 676,
      "ians": 677,
      "ince": 678,
      "uch": 679,
      " batt": 680,
      " At": 681,
      " second": 682,
      "ting": 683,
      "ven": 684,
      " As": 685,
      " against": 686,
      " ent": 687,
      " ser": 688,
      " pol": 689,
      "ames": 690,
      "son": 691,
      "velop": 692,
      " qu": 693,
      " sm": 694,
      " met": 695,
      " Les": 696,
      " Japan": 697,
      "ious": 698,
      " Cl": 699,
      "elf": 700,
      "eb": 701,
      "ier": 702,
      " mat": 703,
      "ised": 704,
      "iver": 705,
      "ned": 706,
      "ished": 707,
      " back": 708,
      " May": 709,
      "ea": 710,
      " then": 711,
      " oper": 712,
      " pub": 713,
      " ind": 714,
      "ram": 715,
      "ath": 716,
      " both": 717,
      "ross": 718,
      " An": 719,
      " such": 720,
      "hes": 721,
      "ement": 722,
      " contin": 723,
      " serv": 724,
      "ury": 725,
      " attack": 726,
      " ver": 727,
      "ton": 728,
      " dep": 729,
      " sy": 730,
      "led": 731,
      "ten": 732,
      " well": 733,
      " cap": 734,
      " do": 735,
      " mil": 736,
      " main": 737,
      "une": 738,
      "ures": 739,
      "ise": 740,
      " est": 741,
      "by": 742,
      " bl": 743,
      " spec": 744,
      "rap": 745,
      "ued": 746,
      "ero": 747,
      " along": 748,
      " many": 749,
      "ful": 750,
      " add": 751,
      " min": 752,
      "eter": 753,
      "ute": 754,
      "ists": 755,
      "alled": 756,
      "xt": 757,
      "ins": 758,
      "ms": 759,
      " can": 760,
      " Sp": 761,
      "though": 762,
      " inf": 763,
      " became": 764,
      " United": 765,
      " several": 766,
      "pen": 767,
      "usic": 768,
      "ah": 769,
      "oss": 770,
      "ev": 771,
      " long": 772,
      " Ro": 773,
      "ple": 774,
      " sign": 775,
      " began": 776,
      "owever": 777,
      " North": 778,
      " perfor": 779,
      "hn": 780,
      " bel": 781,
      " did": 782,
      " km": 783,
      " She": 784,
      "stru": 785,
      " This": 786,
      " wa": 787,
      " ca": 788,
      "aced": 789,
      "ured": 790,
      "irect": 791,
      "ined": 792,
      "ern": 793,
      "igin": 794,
      " design": 795,
      " these": 796,
      " writ": 797,
      " found": 798,
      "ily": 799,
      "ets": 800,
      " ter": 801,
      "ics": 802,
      "ident": 803,
      "urch": 804,
      " art": 805,
      " mill": 806,
      " govern": 807,
      " group": 808,
      " sing": 809,
      "ative": 810,
      "ange": 811,
      "nar": 812,
      " ob": 813,
      " bro": 814,
      " Sept": 815,
      " American": 816,
      "sp": 817,
      " could": 818,
      " Le": 819,
      "ane": 820,
      " develop": 821,
      "raft": 822,
      "co": 823,
      "tle": 824,
      "rew": 825,
      " land": 826,
      "ield": 827,
      " trans": 828,
      "ull": 829,
      "osp": 830,
      " Col": 831,
      " Bl": 832,
      "any": 833,
      " pop": 834,
      " star": 835,
      "ople": 836,
      " feat": 837,
      " pres": 838,
      " Jo": 839,
      " exp": 840,
      " like": 841,
      " Br": 842,
      " Pol": 843,
      "sh": 844,
      " Ph": 845,
      "aking": 846,
      " years": 847,
      " known": 848,
      " rece": 849,
      " including": 850,
      "ina": 851,
      " hist": 852,
      "iron": 853,
      "orn": 854,
      " lead": 855,
      " north": 856,
      "ale": 857,
      " any": 858,
      " Comm": 859,
      " return": 860,
      "ajor": 861,
      " Nov": 862,
      " resp": 863,
      " early": 864,
      "ont": 865,
      " set": 866,
      " lo": 867,
      "ode": 868,
      "ivers": 869,
      "tend": 870,
      "ool": 871,
      "osed": 872,
      " comple": 873,
      " said": 874,
      " br": 875,
      "ided": 876,
      "ized": 877,
      " offic": 878,
      " small": 879,
      " tem": 880,
      " show": 881,
      "ible": 882,
      "ually": 883,
      " pers": 884,
      " Ste": 885,
      " Aug": 886,
      "hen": 887,
      " inst": 888,
      " around": 889,
      " god": 890,
      " unt": 891,
      "yl": 892,
      " near": 893,
      " gu": 894,
      " September": 895,
      " ep": 896,
      " area": 897,
      " Oct": 898,
      " tro": 899,
      "my": 900,
      "side": 901,
      "ional": 902,
      "quad": 903,
      "ek": 904,
      "arch": 905,
      " dif": 906,
      "used": 907,
      "ef": 908,
      "pe": 909,
      " prom": 910,
      " Car": 911,
      "ung": 912,
      "ler": 913,
      "ism": 914,
      " Is": 915,
      "ccess": 916,
      " appear": 917,
      " large": 918,
      " series": 919,
      "ex": 920,
      " south": 921,
      "ored": 922,
      "ection": 923,
      "view": 924,
      "ding": 925,
      "ather": 926,
      " All": 927,
      "ected": 928,
      " June": 929,
      " Chr": 930,
      "ober": 931,
      " South": 932,
      " imp": 933,
      "iet": 934,
      " six": 935,
      "ats": 936,
      " took": 937,
      "idge": 938,
      "ops": 939,
      "ause": 940,
      " dam": 941,
      " No": 942,
      " plan": 943,
      " down": 944,
      "oon": 945,
      "ivision": 946,
      " For": 947,
      " Batt": 948,
      "ified": 949,
      "ipp": 950,
      " occ": 951,
      "amed": 952,
      " str": 953,
      " conc": 954,
      "aining": 955,
      " adv": 956,
      "crib": 957,
      " crit": 958,
      " pass": 959,
      "ax": 960,
      "ars": 961,
      "imes": 962,
      "ives": 963,
      " until": 964,
      "ject": 965,
      " direct": 966,
      " state": 967,
      "thern": 968,
      "gy": 969,
      "ash": 970,
      " form": 971,
      " August": 972,
      "ues": 973,
      "ila": 974,
      " After": 975,
      " eff": 976,
      " forces": 977,
      " origin": 978,
      " use": 979,
      "be": 980,
      " open": 981,
      " Jan": 982,
      "rench": 983,
      "bo": 984,
      "ird": 985,
      "eneral": 986,
      " Lesnar": 987,
      " wind": 988,
      "ains": 989,
      " var": 990,
      "ones": 991,
      "ove": 992,
      "uary": 993,
      " called": 994,
      "row": 995,
      "oll": 996,
      " gr": 997,
      "ments": 998,
      "ner": 999,
      "tal": 1000,
      " fe": 1001,
      " run": 1002,
      "ately": 1003,
      "oute": 1004,
      " Ad": 1005,
      " Wh": 1006,
      " York": 1007,
      "ropical": 1008,
      " bas": 1009,
      " charac": 1010,
      "ead": 1011,
      "ired": 1012,
      "chool": 1013,
      "ife": 1014,
      " Japanese": 1015,
      " win": 1016,
      "ology": 1017,
      "ball": 1018,
      " since": 1019,
      "ati": 1020,
      " five": 1021,
      " Am": 1022,
      "urther": 1023,
      " Dec": 1024,
      "ission": 1025,
      " own": 1026,
      " Co": 1027,
      " each": 1028,
      " conf": 1029,
      " vi": 1030,
      "mp": 1031,
      " dist": 1032,
      " dest": 1033,
      " Ed": 1034,
      " prov": 1035,
      "tion": 1036,
      " cr": 1037,
      " kill": 1038,
      " you": 1039,
      " class": 1040,
      "ported": 1041,
      " October": 1042,
      "quadron": 1043,
      "craft": 1044,
      "iving": 1045,
      "uth": 1046,
      "uss": 1047,
      " Ju": 1048,
      "abl": 1049,
      " iron": 1050,
      "gest": 1051,
      " ref": 1052,
      " command": 1053,
      "wards": 1054,
      " November": 1055,
      "ble": 1056,
      " top": 1057,
      " place": 1058,
      "ially": 1059,
      "itary": 1060,
      " la": 1061,
      " ann": 1062,
      "ys": 1063,
      " ty": 1064,
      " same": 1065,
      "anc": 1066,
      " hal": 1067,
      " Con": 1068,
      " French": 1069,
      " people": 1070,
      "min": 1071,
      "esp": 1072,
      " mod": 1073,
      " storm": 1074,
      " epis": 1075,
      "au": 1076,
      " stru": 1077,
      " States": 1078,
      " just": 1079,
      " ships": 1080,
      " Scient": 1081,
      " match": 1082,
      " ed": 1083,
      "ged": 1084,
      "was": 1085,
      " port": 1086,
      "ays": 1087,
      " public": 1088,
      " par": 1089,
      "ild": 1090,
      "ility": 1091,
      " led": 1092,
      "ards": 1093,
      " ext": 1094,
      " fr": 1095,
      " success": 1096,
      "ery": 1097,
      " power": 1098,
      " may": 1099,
      " rest": 1100,
      "ution": 1101,
      "ording": 1102,
      "ought": 1103,
      " released": 1104,
      " men": 1105,
      " east": 1106,
      " Mc": 1107,
      " stre": 1108,
      " Route": 1109,
      " Phil": 1110,
      " nor": 1111,
      " included": 1112,
      " following": 1113,
      "vent": 1114,
      " music": 1115,
      "ads": 1116,
      " ele": 1117,
      " They": 1118,
      " held": 1119,
      "aged": 1120,
      "ourt": 1121,
      " built": 1122,
      "pril": 1123,
      " tri": 1124,
      "ared": 1125,
      "roy": 1126,
      "ects": 1127,
      " stud": 1128,
      " appro": 1129,
      " turn": 1130,
      "enc": 1131,
      " major": 1132,
      " now": 1133,
      "els": 1134,
      " World": 1135,
      "antry": 1136,
      "vious": 1137,
      " count": 1138,
      "stem": 1139,
      "ument": 1140,
      " left": 1141,
      " played": 1142,
      " single": 1143,
      "ham": 1144,
      "ently": 1145,
      " Gu": 1146,
      " describ": 1147,
      " consid": 1148,
      " Australian": 1149,
      "na": 1150,
      "arr": 1151,
      " due": 1152,
      "omin": 1153,
      " fire": 1154,
      " ha": 1155,
      "aving": 1156,
      "ront": 1157,
      " Christ": 1158,
      " dr": 1159,
      " repl": 1160,
      " Ang": 1161,
      "ached": 1162,
      "ural": 1163,
      " Nero": 1164,
      "ague": 1165,
      "aken": 1166,
      "ordan": 1167,
      " eng": 1168,
      " even": 1169,
      " west": 1170,
      " ph": 1171,
      " hand": 1172,
      "iod": 1173,
      " memb": 1174,
      " April": 1175,
      " contro": 1176,
      " sim": 1177,
      " ft": 1178,
      " within": 1179,
      "ius": 1180,
      "uc": 1181,
      " came": 1182,
      " mi": 1183,
      " Air": 1184,
      " Bo": 1185,
      "rest": 1186,
      " requ": 1187,
      "omet": 1188,
      " partic": 1189,
      " next": 1190,
      " side": 1191,
      "ret": 1192,
      " band": 1193,
      " track": 1194,
      "On": 1195,
      " line": 1196,
      " January": 1197,
      "ger": 1198,
      "rs": 1199,
      " Pl": 1200,
      " attem": 1201,
      " troops": 1202,
      "ps": 1203,
      " sl": 1204,
      "ene": 1205,
      " post": 1206,
      " third": 1207,
      " Eng": 1208,
      " prot": 1209,
      " invol": 1210,
      " government": 1211,
      "iam": 1212,
      " because": 1213,
      " July": 1214,
      "ean": 1215,
      "mit": 1216,
      "ycl": 1217,
      " tw": 1218,
      "read": 1219,
      " won": 1220,
      " dem": 1221,
      " late": 1222,
      " name": 1223,
      " incre": 1224,
      " er": 1225,
      " sold": 1226,
      "itions": 1227,
      "ittle": 1228,
      " much": 1229,
      " ever": 1230,
      " former": 1231,
      " II": 1232,
      " beg": 1233,
      "ically": 1234,
      "aim": 1235,
      "de": 1236,
      "lu": 1237,
      "alk": 1238,
      " person": 1239,
      " Q": 1240,
      " fam": 1241,
      "ison": 1242,
      " organ": 1243,
      " support": 1244,
      " guns": 1245,
      " half": 1246,
      "com": 1247,
      "ness": 1248,
      " del": 1249,
      "ouse": 1250,
      " iss": 1251,
      "isted": 1252,
      " Kore": 1253,
      " episode": 1254,
      " sou": 1255,
      " wit": 1256,
      " few": 1257,
      " further": 1258,
      "ots": 1259,
      " Re": 1260,
      " poss": 1261,
      " million": 1262,
      " named": 1263,
      " National": 1264,
      " Feb": 1265,
      " Ge": 1266,
      "oci": 1267,
      " John": 1268,
      "ched": 1269,
      "uted": 1270,
      "ploy": 1271,
      " century": 1272,
      " received": 1273,
      "ny": 1274,
      "ring": 1275,
      "ship": 1276,
      " cre": 1277,
      " home": 1278,
      " But": 1279,
      "etr": 1280,
      "iven": 1281,
      "vers": 1282,
      " allow": 1283,
      "ideo": 1284,
      " role": 1285,
      " final": 1286,
      "mb": 1287,
      " Mer": 1288,
      " aircraft": 1289,
      "hat": 1290,
      "ling": 1291,
      " wi": 1292,
      "atter": 1293,
      "ley": 1294,
      "cted": 1295,
      "aval": 1296,
      "leet": 1297,
      " force": 1298,
      " Pro": 1299,
      " Fran": 1300,
      " Church": 1301,
      " jo": 1302,
      " belie": 1303,
      " care": 1304,
      "ides": 1305,
      " Manila": 1306,
      "ink": 1307,
      " sk": 1308,
      " mid": 1309,
      " However": 1310,
      "resent": 1311,
      "men": 1312,
      "self": 1313,
      " div": 1314,
      " hum": 1315,
      " light": 1316,
      "ulation": 1317,
      " what": 1318,
      "sequ": 1319,
      "form": 1320,
      " month": 1321,
      " capt": 1322,
      "ospond": 1323,
      " December": 1324,
      " if": 1325,
      "here": 1326,
      " pat": 1327,
      " make": 1328,
      " Te": 1329,
      " although": 1330,
      "aves": 1331,
      "ruary": 1332,
      "fe": 1333,
      " sent": 1334,
      "alion": 1335,
      " another": 1336,
      " spe": 1337,
      " event": 1338,
      "oyal": 1339,
      "con": 1340,
      "pted": 1341,
      " Can": 1342,
      " constru": 1343,
      "ages": 1344,
      " death": 1345,
      " continued": 1346,
      " members": 1347,
      "ae": 1348,
      "ior": 1349,
      "par": 1350,
      "rt": 1351,
      "ital": 1352,
      " still": 1353,
      "ulu": 1354,
      "akes": 1355,
      " expl": 1356,
      " ord": 1357,
      " position": 1358,
      "atic": 1359,
      " Mich": 1360,
      " red": 1361,
      " disc": 1362,
      " days": 1363,
      "wh": 1364,
      "eder": 1365,
      " cross": 1366,
      " previous": 1367,
      "ikal": 1368,
      "AA": 1369,
      "urt": 1370,
      "ech": 1371,
      " Jordan": 1372,
      " Eu": 1373,
      "bert": 1374,
      " contr": 1375,
      " result": 1376,
      "ize": 1377,
      " character": 1378,
      "ma": 1379,
      "mas": 1380,
      "rote": 1381,
      " mark": 1382,
      " Town": 1383,
      "omb": 1384,
      "irc": 1385,
      " gener": 1386,
      " River": 1387,
      " Division": 1388,
      "ffic": 1389,
      "gypt": 1390,
      " school": 1391,
      " way": 1392,
      " based": 1393,
      "iment": 1394,
      "cept": 1395,
      " We": 1396,
      " Char": 1397,
      " Road": 1398,
      "li": 1399,
      " tit": 1400,
      "reg": 1401,
      " old": 1402,
      " These": 1403,
      "ried": 1404,
      " King": 1405,
      " State": 1406,
      " moved": 1407,
      "lo": 1408,
      " init": 1409,
      "ille": 1410,
      " equ": 1411,
      " Go": 1412,
      " order": 1413,
      " military": 1414,
      " mm": 1415,
      " mar": 1416,
      " hour": 1417,
      "urre": 1418,
      " By": 1419,
      " ste": 1420,
      "intulu": 1421,
      " Army": 1422,
      " establ": 1423,
      " beh": 1424,
      " local": 1425,
      "raph": 1426,
      " addition": 1427,
      " destroy": 1428,
      "sc": 1429,
      "ask": 1430,
      "amb": 1431,
      " Bur": 1432,
      "elt": 1433,
      " great": 1434,
      " heavy": 1435,
      " Pr": 1436,
      " Par": 1437,
      " Will": 1438,
      " gods": 1439,
      " described": 1440,
      "AS": 1441,
      "ges": 1442,
      "oot": 1443,
      " Tikal": 1444,
      " last": 1445,
      "vered": 1446,
      "ape": 1447,
      "ody": 1448,
      " Or": 1449,
      " arch": 1450,
      " period": 1451,
      "ney": 1452,
      "tended": 1453,
      "cent": 1454,
      "ering": 1455,
      " pur": 1456,
      " hi": 1457,
      " low": 1458,
      " City": 1459,
      " Reg": 1460,
      "app": 1461,
      " March": 1462,
      " battle": 1463,
      " system": 1464,
      " differ": 1465,
      "ches": 1466,
      "fic": 1467,
      "tr": 1468,
      " tra": 1469,
      " world": 1470,
      "ature": 1471,
      "ense": 1472,
      " lost": 1473,
      "irst": 1474,
      "ivil": 1475,
      " Rich": 1476,
      " Australia": 1477,
      "sion": 1478,
      "eng": 1479,
      " best": 1480,
      " Be": 1481,
      " stat": 1482,
      " Egypt": 1483,
      " deb": 1484,
      " prop": 1485,
      " You": 1486,
      "bor": 1487,
      "vens": 1488,
      "vision": 1489,
      " tropical": 1490,
      " opp": 1491,
      "idian": 1492,
      "ensive": 1493,
      "iers": 1494,
      "with": 1495,
      "yls": 1496,
      "hest": 1497,
      " sit": 1498,
      "reen": 1499,
      " fore": 1500,
      "ann": 1501,
      " hel": 1502,
      " arr": 1503,
      "ression": 1504,
      " February": 1505,
      "mar": 1506,
      "onic": 1507,
      " fight": 1508,
      " med": 1509,
      "ilar": 1510,
      " eas": 1511,
      " stri": 1512,
      " vis": 1513,
      " prog": 1514,
      " Inf": 1515,
      "ublic": 1516,
      " performan": 1517,
      " history": 1518,
      " ironcl": 1519,
      "aul": 1520,
      "go": 1521,
      "iqu": 1522,
      "line": 1523,
      "nder": 1524,
      " fre": 1525,
      " bre": 1526,
      " review": 1527,
      " His": 1528,
      " General": 1529,
      " comb": 1530,
      " exper": 1531,
      " never": 1532,
      " book": 1533,
      "ox": 1534,
      " site": 1535,
      " wrote": 1536,
      " lim": 1537,
      "ush": 1538,
      " NY": 1539,
      " killed": 1540,
      "ium": 1541,
      " often": 1542,
      " total": 1543,
      " those": 1544,
      " Af": 1545,
      " Im": 1546,
      "emor": 1547,
      "inc": 1548,
      "ences": 1549,
      " real": 1550,
      " Bintulu": 1551,
      " ra": 1552,
      "theast": 1553,
      "ampions": 1554,
      " estim": 1555,
      " Europ": 1556,
      "field": 1557,
      "get": 1558,
      " water": 1559,
      "atio": 1560,
      " fro": 1561,
      " camp": 1562,
      " bar": 1563,
      " Ma": 1564,
      "ott": 1565,
      "rict": 1566,
      " prim": 1567,
      " Philipp": 1568,
      "nospond": 1569,
      " front": 1570,
      "ara": 1571,
      "ales": 1572,
      "alth": 1573,
      "str": 1574,
      "ela": 1575,
      " short": 1576,
      " child": 1577,
      " strong": 1578,
      "ki": 1579,
      "la": 1580,
      " away": 1581,
      " fig": 1582,
      " cycl": 1583,
      "rodu": 1584,
      " San": 1585,
      " life": 1586,
      " start": 1587,
      " conv": 1588,
      " sug": 1589,
      " suff": 1590,
      " road": 1591,
      "ization": 1592,
      " Polish": 1593,
      "tic": 1594,
      "erry": 1595,
      "ator": 1596,
      " my": 1597,
      " di": 1598,
      " Tr": 1599,
      " Ag": 1600,
      "stit": 1601,
      " games": 1602,
      "ival": 1603,
      " seen": 1604,
      "ably": 1605,
      " Stre": 1606,
      " leg": 1607,
      " claim": 1608,
      " week": 1609,
      " commun": 1610,
      " polit": 1611,
      " publ": 1612,
      " very": 1613,
      "pany": 1614,
      "iter": 1615,
      " cas": 1616,
      " ins": 1617,
      " pit": 1618,
      " There": 1619,
      " stated": 1620,
      " Har": 1621,
      " Navy": 1622,
      "ights": 1623,
      "ective": 1624,
      " histor": 1625,
      "ither": 1626,
      "ants": 1627,
      "anks": 1628,
      " mor": 1629,
      " Cal": 1630,
      " night": 1631,
      " stand": 1632,
      " range": 1633,
      " shot": 1634,
      " represent": 1635,
      " influ": 1636,
      "iety": 1637,
      "his": 1638,
      " will": 1639,
      "enn": 1640,
      " fac": 1641,
      "isc": 1642,
      " base": 1643,
      " town": 1644,
      " Squadron": 1645,
      " When": 1646,
      "raw": 1647,
      "ways": 1648,
      "lected": 1649,
      " career": 1650,
      "haw": 1651,
      "oo": 1652,
      " ap": 1653,
      " circ": 1654,
      "estern": 1655,
      " ma": 1656,
      " tha": 1657,
      " Fl": 1658,
      " surv": 1659,
      "ds": 1660,
      "eal": 1661,
      "tain": 1662,
      "ving": 1663,
      "atch": 1664,
      "ister": 1665,
      "oman": 1666,
      " Rep": 1667,
      "ferred": 1668,
      " among": 1669,
      " developed": 1670,
      " Scientology": 1671,
      "ves": 1672,
      "yn": 1673,
      "esc": 1674,
      " too": 1675,
      " gl": 1676,
      " formed": 1677,
      "aying": 1678,
      " Rh": 1679,
      " Po": 1680,
      "umb": 1681,
      "ials": 1682,
      " located": 1683,
      " promot": 1684,
      "gr": 1685,
      "mond": 1686,
      " however": 1687,
      " Cent": 1688,
      " el": 1689,
      "imately": 1690,
      " Dep": 1691,
      " vict": 1692,
      "action": 1693,
      " activ": 1694,
      " Island": 1695,
      "St": 1696,
      "less": 1697,
      "ming": 1698,
      "work": 1699,
      " take": 1700,
      "ination": 1701,
      " rev": 1702,
      " reported": 1703,
      " Se": 1704,
      "eth": 1705,
      " Rec": 1706,
      "ccording": 1707,
      " point": 1708,
      " produced": 1709,
      " foot": 1710,
      " present": 1711,
      " damage": 1712,
      " winds": 1713,
      " times": 1714,
      "iness": 1715,
      " went": 1716,
      " fi": 1717,
      " cou": 1718,
      " pain": 1719,
      " given": 1720,
      " High": 1721,
      " Russ": 1722,
      " Per": 1723,
      " Nor": 1724,
      " island": 1725,
      "ria": 1726,
      " video": 1727,
      " region": 1728,
      " emb": 1729,
      " Battle": 1730,
      "eated": 1731,
      "orts": 1732,
      " put": 1733,
      " det": 1734,
      " hit": 1735,
      " though": 1736,
      " And": 1737,
      "ention": 1738,
      "ado": 1739,
      "eck": 1740,
      "ayer": 1741,
      " Gr": 1742,
      " Jack": 1743,
      "reek": 1744,
      " returned": 1745,
      "iversity": 1746,
      " view": 1747,
      "cess": 1748,
      "most": 1749,
      " test": 1750,
      " av": 1751,
      " cult": 1752,
      "ices": 1753,
      " having": 1754,
      " Ass": 1755,
      " law": 1756,
      " ey": 1757,
      " sty": 1758,
      "that": 1759,
      " During": 1760,
      " Fey": 1761,
      " remained": 1762,
      "ificant": 1763,
      " metres": 1764,
      " nd": 1765,
      "tar": 1766,
      " aff": 1767,
      " fav": 1768,
      " making": 1769,
      "ica": 1770,
      " hig": 1771,
      "lear": 1772,
      " Count": 1773,
      "uty": 1774,
      " Royal": 1775,
      "ctor": 1776,
      " prof": 1777,
      "send": 1778,
      "ief": 1779,
      "endes": 1780,
      "uthor": 1781,
      "aur": 1782,
      "ying": 1783,
      " sound": 1784,
      "ream": 1785,
      " bu": 1786,
      " miss": 1787,
      "aded": 1788,
      "acy": 1789,
      " get": 1790,
      " story": 1791,
      " Hill": 1792,
      "ems": 1793,
      " Du": 1794,
      " right": 1795,
      " With": 1796,
      " One": 1797,
      " level": 1798,
      " close": 1799,
      " using": 1800,
      " import": 1801,
      " evac": 1802,
      "ailed": 1803,
      " flo": 1804,
      " peak": 1805,
      " relig": 1806,
      " across": 1807,
      "cher": 1808,
      "dom": 1809,
      " ce": 1810,
      " cut": 1811,
      "ros": 1812,
      " how": 1813,
      " reached": 1814,
      "urg": 1815,
      " without": 1816,
      "ries": 1817,
      "ports": 1818,
      "ollowing": 1819,
      "ference": 1820,
      " Stevens": 1821,
      " original": 1822,
      " considered": 1823,
      " find": 1824,
      " crew": 1825,
      " press": 1826,
      " mo": 1827,
      " Sl": 1828,
      " Sec": 1829,
      " Jew": 1830,
      "play": 1831,
      " agre": 1832,
      " syn": 1833,
      " Infantry": 1834,
      "eks": 1835,
      " sw": 1836,
      "itar": 1837,
      " face": 1838,
      " gold": 1839,
      " rad": 1840,
      " West": 1841,
      "rior": 1842,
      " round": 1843,
      "rang": 1844,
      " Indian": 1845,
      " every": 1846,
      " different": 1847,
      "ampionship": 1848,
      "iec": 1849,
      "ked": 1850,
      "inning": 1851,
      "enes": 1852,
      " tour": 1853,
      " eight": 1854,
      " Mal": 1855,
      " ground": 1856,
      " sta": 1857,
      " Park": 1858,
      "ript": 1859,
      " units": 1860,
      " tele": 1861,
      " miles": 1862,
      " human": 1863,
      " William": 1864,
      " suggest": 1865,
      "aign": 1866,
      "ua": 1867,
      " action": 1868,
      "ints": 1869,
      " fri": 1870,
      "urb": 1871,
      "igan": 1872,
      " De": 1873,
      " Lond": 1874,
      "ords": 1875,
      "ounter": 1876,
      " building": 1877,
      " Germany": 1878,
      " modern": 1879,
      " country": 1880,
      " family": 1881,
      " u": 1882,
      " ide": 1883,
      "ping": 1884,
      "inted": 1885,
      " saw": 1886,
      "enced": 1887,
      " far": 1888,
      " cor": 1889,
      "ising": 1890,
      " bus": 1891,
      " Mark": 1892,
      " rul": 1893,
      "oved": 1894,
      " route": 1895,
      "rick": 1896,
      " title": 1897,
      "ford": 1898,
      "serv": 1899,
      "itive": 1900,
      " doll": 1901,
      " stage": 1902,
      " placed": 1903,
      "raf": 1904,
      "phoon": 1905,
      " involved": 1906,
      "ience": 1907,
      "po": 1908,
      "su": 1909,
      " fun": 1910,
      "ico": 1911,
      " naval": 1912,
      "lythe": 1913,
      "omm": 1914,
      " Ne": 1915,
      " Em": 1916,
      " East": 1917,
      " should": 1918,
      "epend": 1919,
      " control": 1920,
      "ederal": 1921,
      "een": 1922,
      "ties": 1923,
      " wood": 1924,
      "ata": 1925,
      " cal": 1926,
      " court": 1927,
      "asion": 1928,
      " hom": 1929,
      "let": 1930,
      " Ac": 1931,
      " national": 1932,
      " gave": 1933,
      " Do": 1934,
      "ershaw": 1935,
      " ve": 1936,
      " trad": 1937,
      " disco": 1938,
      " player": 1939,
      "ounced": 1940,
      " operations": 1941,
      " Meridian": 1942,
      "Ch": 1943,
      "ators": 1944,
      " cour": 1945,
      " member": 1946,
      " Mad": 1947,
      " Mendes": 1948,
      "iva": 1949,
      "ivid": 1950,
      " Rock": 1951,
      " NB": 1952,
      "artment": 1953,
      " least": 1954,
      "igned": 1955,
      " become": 1956,
      " subsequ": 1957,
      " America": 1958,
      " release": 1959,
      " special": 1960,
      " McC": 1961,
      "fall": 1962,
      "nel": 1963,
      "rd": 1964,
      "rn": 1965,
      "ration": 1966,
      "uation": 1967,
      "wa": 1968,
      " mur": 1969,
      " Award": 1970,
      " less": 1971,
      " elect": 1972,
      "lying": 1973,
      "ecut": 1974,
      "emy": 1975,
      " Year": 1976,
      " similar": 1977,
      " Street": 1978,
      "RA": 1979,
      "lm": 1980,
      " sect": 1981,
      " felt": 1982,
      " died": 1983,
      " Sen": 1984,
      " Sup": 1985,
      "ster": 1986,
      " Min": 1987,
      "olution": 1988,
      "ements": 1989,
      " Ear": 1990,
      "oph": 1991,
      " see": 1992,
      " vol": 1993,
      " cover": 1994,
      " scul": 1995,
      " decl": 1996,
      " heads": 1997,
      " followed": 1998,
      " young": 1999,
      " successful": 2000,
      "ha": 2001,
      "not": 2002,
      " son": 2003,
      " wide": 2004,
      "anish": 2005,
      " intern": 2006,
      " pra": 2007,
      " mag": 2008,
      " mph": 2009,
      " Mount": 2010,
      "utes": 2011,
      " James": 2012,
      "uments": 2013,
      "ope": 2014,
      " Oper": 2015,
      " project": 2016,
      " himself": 2017,
      " served": 2018,
      " Canad": 2019,
      " ten": 2020,
      "ony": 2021,
      "atin": 2022,
      " fil": 2023,
      " case": 2024,
      " inj": 2025,
      " host": 2026,
      " Sy": 2027,
      " Cor": 2028,
      "aces": 2029,
      " Mex": 2030,
      "echn": 2031,
      " Her": 2032,
      "ulf": 2033,
      " rain": 2034,
      " La": 2035,
      " Jos": 2036,
      " Ex": 2037,
      " noted": 2038,
      " unit": 2039,
      " scene": 2040,
      " need": 2041,
      " central": 2042,
      " songs": 2043,
      " League": 2044,
      "ency": 2045,
      " Christmas": 2046,
      " soldiers": 2047,
      " Geor": 2048,
      "uz": 2049,
      "west": 2050,
      " tre": 2051,
      "atives": 2052,
      " fif": 2053,
      " fleet": 2054,
      " civil": 2055,
      " bomb": 2056,
      "ald": 2057,
      " ho": 2058,
      " li": 2059,
      " Best": 2060,
      " fort": 2061,
      " Rad": 2062,
      "osing": 2063,
      "abor": 2064,
      " supp": 2065,
      " features": 2066,
      " critic": 2067,
      " various": 2068,
      " behind": 2069,
      " performance": 2070,
      " esc": 2071,
      "nce": 2072,
      "ili": 2073,
      " reb": 2074,
      " Some": 2075,
      "ades": 2076,
      " lack": 2077,
      " Me": 2078,
      " once": 2079,
      " Pe": 2080,
      " Port": 2081,
      " cond": 2082,
      " ru": 2083,
      "cture": 2084,
      " kil": 2085,
      "ograph": 2086,
      " Ital": 2087,
      " monument": 2088,
      " attempt": 2089,
      "augh": 2090,
      "nal": 2091,
      "sed": 2092,
      " author": 2093,
      " full": 2094,
      " hold": 2095,
      " Ty": 2096,
      " Bar": 2097,
      " Bul": 2098,
      " withd": 2099,
      " GA": 2100,
      "illo": 2101,
      "alls": 2102,
      " include": 2103,
      "useum": 2104,
      " police": 2105,
      " population": 2106,
      " started": 2107,
      " Churchill": 2108,
      " Townsend": 2109,
      " County": 2110,
      " London": 2111,
      " X": 2112,
      "can": 2113,
      "ken": 2114,
      "were": 2115,
      " father": 2116,
      "ances": 2117,
      " Bro": 2118,
      "iding": 2119,
      " gen": 2120,
      "arty": 2121,
      " chang": 2122,
      " Head": 2123,
      "merc": 2124,
      " Union": 2125,
      "hips": 2126,
      " works": 2127,
      " Britain": 2128,
      " Although": 2129,
      " battles": 2130,
      " Lester": 2131,
      " written": 2132,
      " Battalion": 2133,
      " occup": 2134,
      " particular": 2135,
      "lt": 2136,
      "oice": 2137,
      "iti": 2138,
      " fell": 2139,
      "ington": 2140,
      " Two": 2141,
      " Sm": 2142,
      " Su": 2143,
      "ste": 2144,
      " loss": 2145,
      " Raj": 2146,
      " Little": 2147,
      "istic": 2148,
      "odes": 2149,
      " able": 2150,
      " entire": 2151,
      " species": 2152,
      " caused": 2153,
      " development": 2154,
      "etrarch": 2155,
      "nospondyls": 2156,
      "dle": 2157,
      "now": 2158,
      "off": 2159,
      " sum": 2160,
      " wer": 2161,
      " cru": 2162,
      " ba": 2163,
      " Tem": 2164,
      "ament": 2165,
      "omen": 2166,
      "urity": 2167,
      " Mon": 2168,
      " Bel": 2169,
      " Pen": 2170,
      " condu": 2171,
      " river": 2172,
      "erson": 2173,
      " Great": 2174,
      "ounded": 2175,
      "inese": 2176,
      " Company": 2177,
      " highway": 2178,
      " originally": 2179,
      " Korean": 2180,
      " ordered": 2181,
      " estimated": 2182,
      "ividual": 2183,
      "After": 2184,
      "ground": 2185,
      "hib": 2186,
      "pir": 2187,
      "tt": 2188,
      " aud": 2189,
      " slow": 2190,
      " foc": 2191,
      "iser": 2192,
      "roup": 2193,
      " To": 2194,
      " Tru": 2195,
      " list": 2196,
      " Pac": 2197,
      " conn": 2198,
      " comment": 2199,
      " above": 2200,
      "ressed": 2201,
      " poet": 2202,
      " coll": 2203,
      " know": 2204,
      " boats": 2205,
      " quick": 2206,
      " popular": 2207,
      " complete": 2208,
      " Philippines": 2209,
      "cer": 2210,
      "ded": 2211,
      "ville": 2212,
      " age": 2213,
      " award": 2214,
      "ican": 2215,
      " hon": 2216,
      "leg": 2217,
      " ren": 2218,
      " Creek": 2219,
      " Blythe": 2220,
      " deploy": 2221,
      " areas": 2222,
      "aching": 2223,
      " enc": 2224,
      " compet": 2225,
      "ended": 2226,
      " colon": 2227,
      " intens": 2228,
      " significant": 2229,
      " broad": 2230,
      " featured": 2231,
      " Force": 2232,
      " occur": 2233,
      " feet": 2234,
      " While": 2235,
      " months": 2236,
      " style": 2237,
      " friend": 2238,
      "ael": 2239,
      "ka": 2240,
      "ket": 2241,
      "uck": 2242,
      "head": 2243,
      " sa": 2244,
      " piec": 2245,
      " thought": 2246,
      " According": 2247,
      " Cro": 2248,
      "urric": 2249,
      " Med": 2250,
      "unt": 2251,
      "ula": 2252,
      " Fu": 2253,
      " rank": 2254,
      "iffe": 2255,
      " seven": 2256,
      "ocal": 2257,
      "wood": 2258,
      " coast": 2259,
      " remain": 2260,
      " meet": 2261,
      " surround": 2262,
      " army": 2263,
      " published": 2264,
      "ault": 2265,
      "day": 2266,
      "ee": 2267,
      "nes": 2268,
      "over": 2269,
      "win": 2270,
      " aver": 2271,
      "iting": 2272,
      " free": 2273,
      " towards": 2274,
      " mot": 2275,
      " Tim": 2276,
      " live": 2277,
      " Mor": 2278,
      " Miss": 2279,
      " Bea": 2280,
      "iral": 2281,
      " Day": 2282,
      "ested": 2283,
      " UB": 2284,
      " UK": 2285,
      " China": 2286,
      "ishing": 2287,
      "ogn": 2288,
      " commit": 2289,
      " decided": 2290,
      "medi": 2291,
      " signed": 2292,
      " designed": 2293,
      " respons": 2294,
      " look": 2295,
      "board": 2296,
      " laun": 2297,
      "espite": 2298,
      " struck": 2299,
      " hours": 2300,
      "urrent": 2301,
      " z": 2302,
      "As": 2303,
      "from": 2304,
      "had": 2305,
      "ole": 2306,
      "ti": 2307,
      "uel": 2308,
      " tank": 2309,
      " techn": 2310,
      "ino": 2311,
      " somet": 2312,
      " wid": 2313,
      " fit": 2314,
      " che": 2315,
      " creat": 2316,
      "asing": 2317,
      "aster": 2318,
      " Sch": 2319,
      " Act": 2320,
      "ote": 2321,
      " Pet": 2322,
      " Naz": 2323,
      " En": 2324,
      " prob": 2325,
      "rying": 2326,
      "ibr": 2327,
      " company": 2328,
      "erva": 2329,
      " goal": 2330,
      " University": 2331,
      " recorded": 2332,
      " service": 2333,
      " added": 2334,
      " instead": 2335,
      "jillo": 2336,
      "lan": 2337,
      " taken": 2338,
      " af": 2339,
      " soc": 2340,
      "ories": 2341,
      " cert": 2342,
      " insp": 2343,
      " mount": 2344,
      " dur": 2345,
      "ential": 2346,
      " either": 2347,
      "ids": 2348,
      "ivate": 2349,
      "peror": 2350,
      " Vict": 2351,
      " players": 2352,
      " points": 2353,
      " earl": 2354,
      " invest": 2355,
      " production": 2356,
      "venue": 2357,
      " Command": 2358,
      " appeared": 2359,
      " construction": 2360,
      "ficult": 2361,
      " political": 2362,
      " important": 2363,
      "MA": 2364,
      "cing": 2365,
      "lish": 2366,
      "oke": 2367,
      " tor": 2368,
      "rea": 2369,
      " pil": 2370,
      " dro": 2371,
      " hy": 2372,
      " Care": 2373,
      "acing": 2374,
      " Hol": 2375,
      " Dan": 2376,
      "illery": 2377,
      " process": 2378,
      " king": 2379,
      "ellig": 2380,
      "perial": 2381,
      " desp": 2382,
      " weeks": 2383,
      " associ": 2384,
      " move": 2385,
      " throughout": 2386,
      " Spanish": 2387,
      " impro": 2388,
      "ique": 2389,
      " Afric": 2390,
      " floor": 2391,
      "NA": 2392,
      "lin": 2393,
      "tor": 2394,
      " squadron": 2395,
      "rec": 2396,
      " wan": 2397,
      " cast": 2398,
      " incl": 2399,
      " Tetrarch": 2400,
      " Court": 2401,
      " Bill": 2402,
      "ecess": 2403,
      "unk": 2404,
      " Lo": 2405,
      "assic": 2406,
      " trav": 2407,
      "phib": 2408,
      " Shiva": 2409,
      " Black": 2410,
      " announced": 2411,
      "AAF": 2412,
      " program": 2413,
      " Europe": 2414,
      " murder": 2415,
      " ident": 2416,
      "br": 2417,
      "ga": 2418,
      "mon": 2419,
      "wer": 2420,
      "esh": 2421,
      " born": 2422,
      " dou": 2423,
      " house": 2424,
      " Ant": 2425,
      " nov": 2426,
      " Music": 2427,
      " Bu": 2428,
      " Big": 2429,
      " general": 2430,
      "igade": 2431,
      " stone": 2432,
      " Dr": 2433,
      " anc": 2434,
      " Off": 2435,
      " separ": 2436,
      "teen": 2437,
      " pla": 2438,
      " exist": 2439,
      " chart": 2440,
      "anta": 2441,
      "ples": 2442,
      " image": 2443,
      " becom": 2444,
      " events": 2445,
      " appo": 2446,
      " good": 2447,
      " complex": 2448,
      " England": 2449,
      "AR": 2450,
      "FC": 2451,
      "WE": 2452,
      "bon": 2453,
      "mi": 2454,
      "ona": 2455,
      " sch": 2456,
      " field": 2457,
      " mass": 2458,
      " mult": 2459,
      " division": 2460,
      " Ab": 2461,
      "idence": 2462,
      "oted": 2463,
      " stop": 2464,
      " almost": 2465,
      " Fin": 2466,
      " El": 2467,
      " deities": 2468,
      " sex": 2469,
      " Up": 2470,
      "ocr": 2471,
      " Chinese": 2472,
      " upon": 2473,
      " defeat": 2474,
      " center": 2475,
      " grow": 2476,
      " build": 2477,
      " version": 2478,
      " below": 2479,
      " groups": 2480,
      " observ": 2481,
      " damaged": 2482,
      " concer": 2483,
      " streng": 2484,
      " created": 2485,
      " Republic": 2486,
      " Jewish": 2487,
      "During": 2488,
      "cast": 2489,
      "eep": 2490,
      "hing": 2491,
      "iber": 2492,
      " si": 2493,
      "oring": 2494,
      " clear": 2495,
      " inch": 2496,
      "rol": 2497,
      " threat": 2498,
      " lif": 2499,
      " little": 2500,
      "imin": 2501,
      " Pal": 2502,
      "ceed": 2503,
      " Gl": 2504,
      "aps": 2505,
      " come": 2506,
      " val": 2507,
      " Kr": 2508,
      " rock": 2509,
      "key": 2510,
      " fourth": 2511,
      " carried": 2512,
      " replaced": 2513,
      " Qu": 2514,
      " southern": 2515,
      " established": 2516,
      " destroyed": 2517,
      " Richmond": 2518,
      " campaign": 2519,
      "urricane": 2520,
      " sol": 2521,
      " self": 2522,
      " section": 2523,
      " ox": 2524,
      "aters": 2525,
      "arian": 2526,
      " pen": 2527,
      " mix": 2528,
      " read": 2529,
      "ama": 2530,
      "ayed": 2531,
      " RAAF": 2532,
      " Pat": 2533,
      "ands": 2534,
      " ridge": 2535,
      "quar": 2536,
      "ogue": 2537,
      " recogn": 2538,
      " defeated": 2539,
      " colle": 2540,
      " Marine": 2541,
      " writing": 2542,
      " northern": 2543,
      " particip": 2544,
      " contract": 2545,
      " NBA": 2546,
      "gn": 2547,
      " tanks": 2548,
      "edy": 2549,
      " wo": 2550,
      " fact": 2551,
      " pa": 2552,
      " den": 2553,
      "iles": 2554,
      " Sou": 2555,
      " lines": 2556,
      " Ca": 2557,
      " nine": 2558,
      "oti": 2559,
      " HM": 2560,
      " Don": 2561,
      " anim": 2562,
      " seas": 2563,
      "ongol": 2564,
      " Kn": 2565,
      " exc": 2566,
      " outside": 2567,
      "rought": 2568,
      " others": 2569,
      "angu": 2570,
      " shell": 2571,
      "azine": 2572,
      "ological": 2573,
      " armour": 2574,
      " minute": 2575,
      " typ": 2576,
      " eastern": 2577,
      " agreed": 2578,
      "die": 2579,
      "van": 2580,
      " taking": 2581,
      "onna": 2582,
      " bad": 2583,
      " diss": 2584,
      " reve": 2585,
      " Sar": 2586,
      " Sov": 2587,
      " Serv": 2588,
      " heav": 2589,
      " Dav": 2590,
      " whi": 2591,
      "ctions": 2592,
      " Gib": 2593,
      "apt": 2594,
      " deal": 2595,
      "ateg": 2596,
      "quare": 2597,
      " shoot": 2598,
      "aby": 2599,
      " key": 2600,
      "cliffe": 2601,
      " club": 2602,
      " env": 2603,
      " training": 2604,
      " removed": 2605,
      " conspir": 2606,
      "pedo": 2607,
      " polic": 2608,
      " individual": 2609,
      " does": 2610,
      " studio": 2611,
      " engine": 2612,
      " joined": 2613,
      " Michigan": 2614,
      " strike": 2615,
      " suffered": 2616,
      "rum": 2617,
      "uk": 2618,
      " sus": 2619,
      "ened": 2620,
      " cop": 2621,
      " pal": 2622,
      " pair": 2623,
      " mater": 2624,
      " deter": 2625,
      " thro": 2626,
      "enth": 2627,
      " ly": 2628,
      "omas": 2629,
      " Met": 2630,
      " forced": 2631,
      " Hor": 2632,
      "emeter": 2633,
      " Pres": 2634,
      " Dod": 2635,
      " rap": 2636,
      "elled": 2637,
      "ranch": 2638,
      " contrib": 2639,
      " scored": 2640,
      " prevent": 2641,
      "ample": 2642,
      "ounc": 2643,
      "everal": 2644,
      " largest": 2645,
      "ification": 2646,
      " employ": 2647,
      " indic": 2648,
      " indust": 2649,
      " black": 2650,
      " completed": 2651,
      " officers": 2652,
      " turned": 2653,
      "burg": 2654,
      "han": 2655,
      " aw": 2656,
      " sail": 2657,
      "rem": 2658,
      "itz": 2659,
      "ana": 2660,
      " pow": 2661,
      " past": 2662,
      " mach": 2663,
      " Ten": 2664,
      "ilities": 2665,
      " Sw": 2666,
      " Ball": 2667,
      "change": 2668,
      "thing": 2669,
      " white": 2670,
      "umn": 2671,
      " sea": 2672,
      "alling": 2673,
      "ession": 2674,
      "assy": 2675,
      "cluded": 2676,
      " weap": 2677,
      " films": 2678,
      " suppl": 2679,
      " opening": 2680,
      " viol": 2681,
      " Butler": 2682,
      " fighting": 2683,
      " ironclads": 2684,
      " Victor": 2685,
      " ult": 2686,
      "At": 2687,
      "bs": 2688,
      "den": 2689,
      "ien": 2690,
      "nts": 2691,
      "ta": 2692,
      "zo": 2693,
      " trib": 2694,
      "inent": 2695,
      "oned": 2696,
      " wor": 2697,
      " cost": 2698,
      " body": 2699,
      "oug": 2700,
      " reaction": 2701,
      " So": 2702,
      " latter": 2703,
      " names": 2704,
      " Mo": 2705,
      " How": 2706,
      " Nerva": 2707,
      " First": 2708,
      "rie": 2709,
      " commerc": 2710,
      " Under": 2711,
      " proble": 2712,
      " Intern": 2713,
      " arg": 2714,
      "elling": 2715,
      " manag": 2716,
      " common": 2717,
      "porary": 2718,
      " worked": 2719,
      " qual": 2720,
      " Another": 2721,
      "ippi": 2722,
      " possible": 2723,
      "ships": 2724,
      " Kingdom": 2725,
      " Egyptian": 2726,
      " break": 2727,
      " business": 2728,
      " tradition": 2729,
      " sculpt": 2730,
      " Mexico": 2731,
      " novel": 2732,
      "lly": 2733,
      "pts": 2734,
      "ses": 2735,
      "val": 2736,
      " sil": 2737,
      " saying": 2738,
      " fem": 2739,
      " federal": 2740,
      "arily": 2741,
      " don": 2742,
      " hous": 2743,
      "lex": 2744,
      " Sonic": 2745,
      " AD": 2746,
      " non": 2747,
      "idents": 2748,
      " Hist": 2749,
      " Hall": 2750,
      " Hung": 2751,
      "anding": 2752,
      " rd": 2753,
      " WWE": 2754,
      "ago": 2755,
      "ests": 2756,
      "rial": 2757,
      " Other": 2758,
      "eway": 2759,
      " vill": 2760,
      "oren": 2761,
      " Kershaw": 2762,
      "ears": 2763,
      " Int": 2764,
      " change": 2765,
      "orks": 2766,
      " numb": 2767,
      "ounts": 2768,
      " armor": 2769,
      " operation": 2770,
      " continu": 2771,
      " attacked": 2772,
      " artillery": 2773,
      " basket": 2774,
      " provided": 2775,
      " avail": 2776,
      " Trujillo": 2777,
      " Pacific": 2778,
      "II": 2779,
      "che": 2780,
      "gg": 2781,
      "hu": 2782,
      "pet": 2783,
      "uf": 2784,
      " tim": 2785,
      " tons": 2786,
      " aer": 2787,
      "onse": 2788,
      " size": 2789,
      "ita": 2790,
      "itors": 2791,
      " pound": 2792,
      " told": 2793,
      " rear": 2794,
      " Sim": 2795,
      "stant": 2796,
      " CR": 2797,
      " Red": 2798,
      " Fleet": 2799,
      " rather": 2800,
      " Gold": 2801,
      "agan": 2802,
      "aprang": 2803,
      " UFC": 2804,
      "ude": 2805,
      " yards": 2806,
      " resul": 2807,
      "lled": 2808,
      " neg": 2809,
      " flood": 2810,
      " Zeal": 2811,
      "ossal": 2812,
      " passed": 2813,
      " allowed": 2814,
      " believed": 2815,
      " Charl": 2816,
      " debut": 2817,
      " casual": 2818,
      " favor": 2819,
      " Rajne": 2820,
      "Al": 2821,
      "ele": 2822,
      "vis": 2823,
      "war": 2824,
      "well": 2825,
      " op": 2826,
      " current": 2827,
      "astern": 2828,
      "icted": 2829,
      " hor": 2830,
      " thr": 2831,
      " Tro": 2832,
      " rein": 2833,
      " report": 2834,
      "imum": 2835,
      " Dist": 2836,
      " Despite": 2837,
      " whose": 2838,
      " Gore": 2839,
      " dead": 2840,
      " let": 2841,
      "pped": 2842,
      " coach": 2843,
      "ronic": 2844,
      " playing": 2845,
      " pract": 2846,
      "vernment": 2847,
      " Scott": 2848,
      " introdu": 2849,
      " leading": 2850,
      " Commission": 2851,
      " critics": 2852,
      " typhoon": 2853,
      " northeast": 2854,
      " issued": 2855,
      "while": 2856,
      " Charles": 2857,
      " initially": 2858,
      " archit": 2859,
      " ironclad": 2860,
      " Russian": 2861,
      " Associ": 2862,
      " eye": 2863,
      " Doctor": 2864,
      "He": 2865,
      "bar": 2866,
      "ez": 2867,
      "jects": 2868,
      "pro": 2869,
      "sen": 2870,
      "uced": 2871,
      " aut": 2872,
      "rent": 2873,
      " wounded": 2874,
      "aton": 2875,
      "ena": 2876,
      " ball": 2877,
      "aled": 2878,
      " mus": 2879,
      " langu": 2880,
      " Rick": 2881,
      " Pre": 2882,
      " Nak": 2883,
      " Long": 2884,
      "rian": 2885,
      "aper": 2886,
      " deep": 2887,
      " Os": 2888,
      "ongs": 2889,
      " vess": 2890,
      " weaken": 2891,
      "oney": 2892,
      " assass": 2893,
      " finished": 2894,
      " regular": 2895,
      " infantry": 2896,
      " performed": 2897,
      " term": 2898,
      " temnospondyls": 2899,
      " difficult": 2900,
      " Carol": 2901,
      " directed": 2902,
      " runs": 2903,
      " Angel": 2904,
      "ready": 2905,
      " beginning": 2906,
      "alky": 2907,
      "conom": 2908,
      "ength": 2909,
      " arrived": 2910,
      " children": 2911,
      " Department": 2912,
      "eckham": 2913,
      " dollar": 2914,
      " subsequently": 2915,
      "ecutive": 2916,
      " Early": 2917,
      " investig": 2918,
      "ging": 2919,
      "ho": 2920,
      "like": 2921,
      " sat": 2922,
      " wife": 2923,
      " purch": 2924,
      " Tur": 2925,
      " Ser": 2926,
      " School": 2927,
      "ador": 2928,
      " nomin": 2929,
      "ams": 2930,
      " Major": 2931,
      " asked": 2932,
      " Hu": 2933,
      " Roman": 2934,
      " Paul": 2935,
      " Wash": 2936,
      " Wales": 2937,
      " Jim": 2938,
      " sequ": 2939,
      "tee": 2940,
      " plat": 2941,
      " keep": 2942,
      " Val": 2943,
      " aband": 2944,
      " adop": 2945,
      "ibility": 2946,
      " remaining": 2947,
      "ampion": 2948,
      " inters": 2949,
      " soon": 2950,
      " India": 2951,
      " depression": 2952,
      " speed": 2953,
      " previously": 2954,
      " equip": 2955,
      " primary": 2956,
      " Second": 2957,
      " quickly": 2958,
      " Mississ": 2959,
      " earlier": 2960,
      " Carey": 2961,
      "elligence": 2962,
      " despite": 2963,
      "down": 2964,
      "ht": 2965,
      "miral": 2966,
      "nown": 2967,
      "ris": 2968,
      "rated": 2969,
      "err": 2970,
      " cam": 2971,
      " bri": 2972,
      " ple": 2973,
      "ases": 2974,
      " mer": 2975,
      " memor": 2976,
      " dark": 2977,
      " har": 2978,
      "ented": 2979,
      " liter": 2980,
      " Mir": 2981,
      " Mongol": 2982,
      " Ba": 2983,
      " Ho": 2984,
      " Hit": 2985,
      " Four": 2986,
      " Fort": 2987,
      " whic": 2988,
      " dev": 2989,
      "illa": 2990,
      "ocks": 2991,
      "ability": 2992,
      "eph": 2993,
      "ralia": 2994,
      " pred": 2995,
      " private": 2996,
      " decision": 2997,
      " ended": 2998,
      " Australians": 2999,
      " teams": 3000,
      " Club": 3001,
      " guitar": 3002,
      " appearance": 3003,
      " opened": 3004,
      " commander": 3005,
      " required": 3006,
      " Que": 3007,
      " Regiment": 3008,
      " figure": 3009,
      " highest": 3010,
      "stein": 3011,
      " wanted": 3012,
      " ill": 3013,
      "Man": 3014,
      "pre": 3015,
      "rm": 3016,
      " tar": 3017,
      " sen": 3018,
      "atal": 3019,
      "atory": 3020,
      " cur": 3021,
      " cred": 3022,
      " brought": 3023,
      " hol": 3024,
      " Tour": 3025,
      " Sea": 3026,
      " Camp": 3027,
      "amar": 3028,
      " My": 3029,
      " Most": 3030,
      " forward": 3031,
      "ows": 3032,
      "usion": 3033,
      "cend": 3034,
      " race": 3035,
      " Latin": 3036,
      " Western": 3037,
      " JMA": 3038,
      "ods": 3039,
      " compl": 3040,
      "ills": 3041,
      "ify": 3042,
      " Ke": 3043,
      " exam": 3044,
      " script": 3045,
      " security": 3046,
      " supported": 3047,
      " submar": 3048,
      "ologists": 3049,
      " block": 3050,
      " minutes": 3051,
      " terms": 3052,
      " response": 3053,
      " captured": 3054,
      " eventually": 3055,
      " morning": 3056,
      " Operation": 3057,
      " torpedo": 3058,
      "Sh": 3059,
      "des": 3060,
      "dition": 3061,
      "lar": 3062,
      "pan": 3063,
      "tions": 3064,
      " ach": 3065,
      "era": 3066,
      " fa": 3067,
      " ben": 3068,
      " bur": 3069,
      " pot": 3070,
      " pay": 3071,
      " prior": 3072,
      "road": 3073,
      "oul": 3074,
      " Mil": 3075,
      " Ben": 3076,
      " station": 3077,
      "ully": 3078,
      "ulated": 3079,
      "oses": 3080,
      "illion": 3081,
      "berg": 3082,
      "allen": 3083,
      " Championship": 3084,
      "order": 3085,
      "rance": 3086,
      " closed": 3087,
      " That": 3088,
      " scenes": 3089,
      "oys": 3090,
      " defend": 3091,
      " mostly": 3092,
      " mean": 3093,
      " meas": 3094,
      " invasion": 3095,
      " battalion": 3096,
      "struction": 3097,
      "atively": 3098,
      " effect": 3099,
      " characters": 3100,
      " Eddie": 3101,
      " approach": 3102,
      " Angle": 3103,
      " III": 3104,
      " Michael": 3105,
      " Young": 3106,
      " help": 3107,
      "gether": 3108,
      " television": 3109,
      " wooden": 3110,
      " Senate": 3111,
      " George": 3112,
      " kilomet": 3113,
      " susp": 3114,
      "ios": 3115,
      "ky": 3116,
      "mun": 3117,
      "sel": 3118,
      " tur": 3119,
      "erous": 3120,
      " sides": 3121,
      " failed": 3122,
      " cm": 3123,
      "aring": 3124,
      "isl": 3125,
      " pan": 3126,
      " hav": 3127,
      " hurricane": 3128,
      " Cr": 3129,
      " econom": 3130,
      " Mid": 3131,
      " Mart": 3132,
      "otes": 3133,
      " Ra": 3134,
      " Rob": 3135,
      "very": 3136,
      " Dev": 3137,
      " ran": 3138,
      " rail": 3139,
      "ainst": 3140,
      " Game": 3141,
      " Emp": 3142,
      "aker": 3143,
      " Sta": 3144,
      " spent": 3145,
      " itself": 3146,
      " abs": 3147,
      "raltar": 3148,
      " immedi": 3149,
      " working": 3150,
      " better": 3151,
      " positions": 3152,
      " repair": 3153,
      " Brigade": 3154,
      " Conf": 3155,
      "mitted": 3156,
      " increased": 3157,
      " issue": 3158,
      " France": 3159,
      " limited": 3160,
      " embassy": 3161,
      " religious": 3162,
      " praised": 3163,
      " lyric": 3164,
      "OT": 3165,
      "ely": 3166,
      "graf": 3167,
      "hich": 3168,
      "jona": 3169,
      "king": 3170,
      "ximately": 3171,
      " tru": 3172,
      " women": 3173,
      " flying": 3174,
      "arter": 3175,
      " might": 3176,
      " mother": 3177,
      " hard": 3178,
      " thi": 3179,
      "ils": 3180,
      " Avenue": 3181,
      "ading": 3182,
      " Cap": 3183,
      " nat": 3184,
      " Bob": 3185,
      "olis": 3186,
      "irid": 3187,
      " gre": 3188,
      "etween": 3189,
      " step": 3190,
      " Dem": 3191,
      " Derry": 3192,
      " Lie": 3193,
      "aven": 3194,
      "odies": 3195,
      " Olm": 3196,
      " search": 3197,
      "raz": 3198,
      " example": 3199,
      " Valky": 3200,
      " screen": 3201,
      " trade": 3202,
      "weight": 3203,
      " commission": 3204,
      "nings": 3205,
      " theme": 3206,
      "ounted": 3207,
      " surf": 3208,
      " movement": 3209,
      " Clark": 3210,
      " attacks": 3211,
      " transport": 3212,
      " Blue": 3213,
      " official": 3214,
      " advance": 3215,
      " director": 3216,
      "minist": 3217,
      " English": 3218,
      " Team": 3219,
      " Rhodes": 3220,
      " fifth": 3221,
      " David": 3222,
      " basketball": 3223,
      "bour": 3224,
      "har": 3225,
      "lam": 3226,
      "reme": 3227,
      " word": 3228,
      " fans": 3229,
      "anced": 3230,
      "isers": 3231,
      " dow": 3232,
      " date": 3233,
      " draw": 3234,
      " dyn": 3235,
      " Ta": 3236,
      " Tor": 3237,
      " Turn": 3238,
      " length": 3239,
      " necess": 3240,
      "olay": 3241,
      " gam": 3242,
      "imb": 3243,
      "imeter": 3244,
      " forms": 3245,
      "ushed": 3246,
      " states": 3247,
      " House": 3248,
      " already": 3249,
      " Def": 3250,
      " Lou": 3251,
      " Later": 3252,
      " Group": 3253,
      "ume": 3254,
      "ght": 3255,
      " plot": 3256,
      "ively": 3257,
      " except": 3258,
      "acks": 3259,
      "under": 3260,
      " perf": 3261,
      " sched": 3262,
      " enough": 3263,
      " jud": 3264,
      " offered": 3265,
      " disp": 3266,
      " prep": 3267,
      "osek": 3268,
      " flight": 3269,
      " super": 3270,
      " positive": 3271,
      " amphib": 3272,
      " according": 3273,
      " entered": 3274,
      " matches": 3275,
      " brother": 3276,
      " planned": 3277,
      " educ": 3278,
      " phot": 3279,
      " Koreans": 3280,
      "urtado": 3281,
      " purp": 3282,
      " community": 3283,
      " ranked": 3284,
      " Beauty": 3285,
      " Zealand": 3286,
      " language": 3287,
      " brief": 3288,
      " achie": 3289,
      " ut": 3290,
      "NL": 3291,
      "cis": 3292,
      "hy": 3293,
      "rain": 3294,
      " treat": 3295,
      "itor": 3296,
      " counter": 3297,
      " intended": 3298,
      " tomb": 3299,
      "rog": 3300,
      " du": 3301,
      " domin": 3302,
      "oud": 3303,
      " refer": 3304,
      " Museum": 3305,
      " got": 3306,
      " Its": 3307,
      "uses": 3308,
      "anded": 3309,
      " Following": 3310,
      " conver": 3311,
      " Loren": 3312,
      " Wal": 3313,
      "aped": 3314,
      " Eaton": 3315,
      "ipal": 3316,
      " suc": 3317,
      " Starr": 3318,
      " Thomas": 3319,
      " reserv": 3320,
      " compan": 3321,
      " regard": 3322,
      " relations": 3323,
      " accom": 3324,
      " location": 3325,
      " maint": 3326,
      " broken": 3327,
      " officer": 3328,
      " shows": 3329,
      " conflic": 3330,
      " provide": 3331,
      " attempted": 3332,
      " personal": 3333,
      "formation": 3334,
      " raised": 3335,
      " Center": 3336,
      " victory": 3337,
      " occurred": 3338,
      " average": 3339,
      " probably": 3340,
      "cy": 3341,
      "gin": 3342,
      "mm": 3343,
      "mes": 3344,
      "ya": 3345,
      " aim": 3346,
      "inct": 3347,
      " cer": 3348,
      " cemeter": 3349,
      " dire": 3350,
      "outs": 3351,
      " Sal": 3352,
      " Sing": 3353,
      " Bost": 3354,
      " onto": 3355,
      " Ham": 3356,
      "eman": 3357,
      "emporary": 3358,
      " Na": 3359,
      "istance": 3360,
      "ift": 3361,
      " selected": 3362,
      " proper": 3363,
      "ecting": 3364,
      " Heavy": 3365,
      " fired": 3366,
      " clos": 3367,
      " jour": 3368,
      "lands": 3369,
      " going": 3370,
      " poor": 3371,
      " Art": 3372,
      " ending": 3373,
      " larger": 3374,
      " Atl": 3375,
      " minor": 3376,
      " Columb": 3377,
      " concert": 3378,
      " majority": 3379,
      " Frank": 3380,
      " join": 3381,
      " status": 3382,
      "ectively": 3383,
      " staff": 3384,
      " strength": 3385,
      " environ": 3386,
      "ouncil": 3387,
      " Rajneesh": 3388,
      " Washington": 3389,
      " esp": 3390,
      "aud": 3391,
      "eed": 3392,
      "ores": 3393,
      "rin": 3394,
      "rac": 3395,
      " tell": 3396,
      " sal": 3397,
      " want": 3398,
      " western": 3399,
      " fund": 3400,
      " ban": 3401,
      " together": 3402,
      " mouth": 3403,
      " think": 3404,
      "adem": 3405,
      " Bond": 3406,
      "iday": 3407,
      "ette": 3408,
      "uture": 3409,
      " Hen": 3410,
      " always": 3411,
      " anti": 3412,
      "ership": 3413,
      " Jul": 3414,
      "umed": 3415,
      " comedy": 3416,
      " Kent": 3417,
      " plans": 3418,
      " Stud": 3419,
      " rout": 3420,
      "cluding": 3421,
      " overall": 3422,
      " evidence": 3423,
      " party": 3424,
      " prec": 3425,
      " Arch": 3426,
      " consist": 3427,
      " finally": 3428,
      " interview": 3429,
      " Ali": 3430,
      " acce": 3431,
      "uchi": 3432,
      " governor": 3433,
      " bring": 3434,
      " nearly": 3435,
      " effort": 3436,
      " structure": 3437,
      " consider": 3438,
      "which": 3439,
      " schools": 3440,
      " steel": 3441,
      " Imag": 3442,
      "aughter": 3443,
      " Smith": 3444,
      " launched": 3445,
      " appointed": 3446,
      " Soviet": 3447,
      " rapid": 3448,
      " District": 3449,
      " Turner": 3450,
      "Aust": 3451,
      "gs": 3452,
      "mese": 3453,
      "rup": 3454,
      "sy": 3455,
      "writ": 3456,
      "ze": 3457,
      " aft": 3458,
      " sem": 3459,
      " sour": 3460,
      "ites": 3461,
      "ari": 3462,
      " bi": 3463,
      " bass": 3464,
      " inte": 3465,
      " Ak": 3466,
      "enty": 3467,
      " Cold": 3468,
      "acon": 3469,
      " BC": 3470,
      " Beckham": 3471,
      "ecial": 3472,
      "ima": 3473,
      "using": 3474,
      "emed": 3475,
      " Peter": 3476,
      " Nosek": 3477,
      "ander": 3478,
      " FI": 3479,
      " Offic": 3480,
      " Oreg": 3481,
      " Kaw": 3482,
      " Star": 3483,
      "antic": 3484,
      " league": 3485,
      " Ver": 3486,
      "formed": 3487,
      "arent": 3488,
      "arked": 3489,
      " dism": 3490,
      " Arm": 3491,
      "uilding": 3492,
      "eath": 3493,
      " regime": 3494,
      "ologist": 3495,
      " highly": 3496,
      " access": 3497,
      " capital": 3498,
      "rapped": 3499,
      " perform": 3500,
      " termin": 3501,
      " transferred": 3502,
      "ospital": 3503,
      " Poland": 3504,
      " grad": 3505,
      " Admiral": 3506,
      " winning": 3507,
      " Imperial": 3508,
      " Northern": 3509,
      " radio": 3510,
      " idea": 3511,
      "ibrary": 3512,
      " double": 3513,
      " weapons": 3514,
      "BC": 3515,
      "dress": 3516,
      "gers": 3517,
      "los": 3518,
      "more": 3519,
      "ror": 3520,
      "ray": 3521,
      "tes": 3522,
      "tong": 3523,
      "uan": 3524,
      "yram": 3525,
      " says": 3526,
      "orted": 3527,
      " flow": 3528,
      " crow": 3529,
      "aries": 3530,
      "icle": 3531,
      " TNA": 3532,
      " emer": 3533,
      "lyn": 3534,
      " Mat": 3535,
      " Mel": 3536,
      " Mag": 3537,
      " Bon": 3538,
      "ola": 3539,
      "irt": 3540,
      " stra": 3541,
      " Hot": 3542,
      " Pa": 3543,
      " From": 3544,
      " whom": 3545,
      "osition": 3546,
      " anal": 3547,
      "agogue": 3548,
      " deg": 3549,
      " Over": 3550,
      " sevent": 3551,
      " shown": 3552,
      " exhib": 3553,
      "essional": 3554,
      "asty": 3555,
      " lear": 3556,
      "ector": 3557,
      " covered": 3558,
      " enemy": 3559,
      " acqu": 3560,
      " product": 3561,
      " metal": 3562,
      " longer": 3563,
      " designated": 3564,
      " feature": 3565,
      " Bridge": 3566,
      " Stein": 3567,
      " increase": 3568,
      " personnel": 3569,
      " steam": 3570,
      " additional": 3571,
      " frequ": 3572,
      " appl": 3573,
      " evacu": 3574,
      " discovered": 3575,
      " Italian": 3576,
      " Type": 3577,
      " particularly": 3578,
      "quarters": 3579,
      " International": 3580,
      " sculpture": 3581,
      " casualties": 3582,
      " reinfor": 3583,
      " Mississippi": 3584,
      " Olmec": 3585,
      " Valkyria": 3586,
      "Works": 3587,
      "gress": 3588,
      "ij": 3589,
      "oid": 3590,
      "ook": 3591,
      "rth": 3592,
      "ws": 3593,
      "onwe": 3594,
      "edic": 3595,
      "reak": 3596,
      "nds": 3597,
      " batter": 3598,
      "also": 3599,
      "roll": 3600,
      " Tra": 3601,
      " Soc": 3602,
      " nature": 3603,
      " giving": 3604,
      "tere": 3605,
      "ithic": 3606,
      "unction": 3607,
      " Pop": 3608,
      " Natives": 3609,
      " Dar": 3610,
      " Los": 3611,
      " Je": 3612,
      "umber": 3613,
      "ummer": 3614,
      "apa": 3615,
      "iple": 3616,
      " Storm": 3617,
      " office": 3618,
      " remains": 3619,
      "aily": 3620,
      "ansas": 3621,
      " meant": 3622,
      " alongside": 3623,
      " landing": 3624,
      " Joh": 3625,
      " sett": 3626,
      " smaller": 3627,
      " running": 3628,
      " White": 3629,
      " annual": 3630,
      " parts": 3631,
      " phys": 3632,
      " media": 3633,
      " combined": 3634,
      " cyclone": 3635,
      " claimed": 3636,
      " Records": 3637,
      " Slayer": 3638,
      " Canada": 3639,
      " supply": 3640,
      " Bulls": 3641,
      " associated": 3642,
      " becoming": 3643,
      " Gibraltar": 3644,
      " available": 3645,
      " lyrics": 3646,
      "back": 3647,
      "kes": 3648,
      "light": 3649,
      "mber": 3650,
      "no": 3651,
      "nam": 3652,
      "rst": 3653,
      "sing": 3654,
      "set": 3655,
      " theat": 3656,
      "erd": 3657,
      " sust": 3658,
      "rel": 3659,
      " caves": 3660,
      "esnar": 3661,
      "ali": 3662,
      "alle": 3663,
      " da": 3664,
      " reach": 3665,
      " Sa": 3666,
      " Som": 3667,
      " lower": 3668,
      " nar": 3669,
      "aches": 3670,
      "uri": 3671,
      " Mean": 3672,
      " Both": 3673,
      "ecially": 3674,
      " beat": 3675,
      " Pagan": 3676,
      "uld": 3677,
      " als": 3678,
      " Wil": 3679,
      "aguchi": 3680,
      " End": 3681,
      " via": 3682,
      " Stone": 3683,
      " yet": 3684,
      " leaving": 3685,
      " Video": 3686,
      " adap": 3687,
      " imag": 3688,
      "vey": 3689,
      " Arjona": 3690,
      " flank": 3691,
      "merican": 3692,
      " peace": 3693,
      "aza": 3694,
      "ikamar": 3695,
      " subject": 3696,
      "ega": 3697,
      " leader": 3698,
      " critical": 3699,
      " extr": 3700,
      " trial": 3701,
      "mitt": 3702,
      " increasing": 3703,
      " middle": 3704,
      " crossing": 3705,
      " marked": 3706,
      " traffic": 3707,
      " proposed": 3708,
      " combat": 3709,
      " experi": 3710,
      " European": 3711,
      " figures": 3712,
      " pitcher": 3713,
      " represented": 3714,
      " influence": 3715,
      " course": 3716,
      " Super": 3717,
      " withdraw": 3718,
      " Croat": 3719,
      " Africa": 3720,
      " Tetrarchs": 3721,
      " President": 3722,
      " ultimately": 3723,
      " commercial": 3724,
      " houses": 3725,
      " numbers": 3726,
      " Ricky": 3727,
      " Lorenzo": 3728,
      "car": 3729,
      "fire": 3730,
      "mission": 3731,
      "nter": 3732,
      "right": 3733,
      "time": 3734,
      " tal": 3735,
      "hel": 3736,
      "inter": 3737,
      " fan": 3738,
      " cave": 3739,
      " mention": 3740,
      " hop": 3741,
      " thick": 3742,
      "adel": 3743,
      " lab": 3744,
      " lik": 3745,
      " laid": 3746,
      " Mi": 3747,
      " Bh": 3748,
      "ecause": 3749,
      "iring": 3750,
      "ida": 3751,
      "ivity": 3752,
      " Ire": 3753,
      "anda": 3754,
      "andy": 3755,
      " attend": 3756,
      " Furtado": 3757,
      " Jane": 3758,
      "iff": 3759,
      " shr": 3760,
      " arrest": 3761,
      "assador": 3762,
      "mance": 3763,
      "ught": 3764,
      " coin": 3765,
      " recon": 3766,
      "ension": 3767,
      " prepar": 3768,
      "roughout": 3769,
      " poems": 3770,
      " defense": 3771,
      "obe": 3772,
      " deck": 3773,
      " amb": 3774,
      " continue": 3775,
      " continues": 3776,
      " vers": 3777,
      "ernand": 3778,
      " broke": 3779,
      " bridge": 3780,
      " Chris": 3781,
      " elements": 3782,
      " hands": 3783,
      " era": 3784,
      " pattern": 3785,
      " generally": 3786,
      " establish": 3787,
      "ootball": 3788,
      " archae": 3789,
      " reviews": 3790,
      " paint": 3791,
      " detail": 3792,
      " magazine": 3793,
      " Mountain": 3794,
      " Radcliffe": 3795,
      " Temple": 3796,
      " conducted": 3797,
      " Billboard": 3798,
      " travel": 3799,
      " Office": 3800,
      " schol": 3801,
      " policy": 3802,
      " resulted": 3803,
      " Hitler": 3804,
      " Empire": 3805,
      " Oregon": 3806,
      "ca": 3807,
      "hi": 3808,
      "hile": 3809,
      "jo": 3810,
      "lers": 3811,
      "ni": 3812,
      "uct": 3813,
      " ta": 3814,
      " ti": 3815,
      " tax": 3816,
      " task": 3817,
      " au": 3818,
      " wall": 3819,
      " woman": 3820,
      " oil": 3821,
      "itt": 3822,
      "enant": 3823,
      " fle": 3824,
      " faced": 3825,
      " fully": 3826,
      " future": 3827,
      " bat": 3828,
      " max": 3829,
      " makes": 3830,
      " doc": 3831,
      " done": 3832,
      " dram": 3833,
      "lege": 3834,
      " things": 3835,
      " Tri": 3836,
      " Sur": 3837,
      "ston": 3838,
      " link": 3839,
      " na": 3840,
      " net": 3841,
      " Bay": 3842,
      "olved": 3843,
      " Hed": 3844,
      "unic": 3845,
      " Press": 3846,
      " alth": 3847,
      " Light": 3848,
      " Lake": 3849,
      " Gall": 3850,
      "aks": 3851,
      " vocal": 3852,
      " cha": 3853,
      "ntown": 3854,
      "ishop": 3855,
      "hers": 3856,
      " room": 3857,
      " Var": 3858,
      "rania": 3859,
      "ously": 3860,
      "ralian": 3861,
      " score": 3862,
      " ens": 3863,
      " upper": 3864,
      " eve": 3865,
      "urned": 3866,
      "phia": 3867,
      "viation": 3868,
      " earth": 3869,
      "licop": 3870,
      " albums": 3871,
      " meth": 3872,
      "fully": 3873,
      " likely": 3874,
      " northwest": 3875,
      " largely": 3876,
      " vari": 3877,
      " feel": 3878,
      " refused": 3879,
      " type": 3880,
      " struct": 3881,
      " turns": 3882,
      " Book": 3883,
      " tracks": 3884,
      " slight": 3885,
      " allowing": 3886,
      " Burmese": 3887,
      "borne": 3888,
      " situation": 3889,
      " cele": 3890,
      " homes": 3891,
      " Canadian": 3892,
      " Corps": 3893,
      " rainfall": 3894,
      " People": 3895,
      " battleships": 3896,
      " summer": 3897,
      " deployed": 3898,
      " intensity": 3899,
      " pilot": 3900,
      " material": 3901,
      " supplies": 3902,
      " female": 3903,
      "ufact": 3904,
      " Boston": 3905,
      "ikamaru": 3906,
      " ess": 3907,
      "WC": 3908,
      "bra": 3909,
      "cle": 3910,
      "chest": 3911,
      "ridge": 3912,
      "tly": 3913,
      " aid": 3914,
      " wr": 3915,
      " wins": 3916,
      " fast": 3917,
      " fail": 3918,
      " foll": 3919,
      " male": 3920,
      " money": 3921,
      " TV": 3922,
      " Times": 3923,
      " Tropical": 3924,
      " Saprang": 3925,
      " Ap": 3926,
      " Amer": 3927,
      "amber": 3928,
      " Mr": 3929,
      " Men": 3930,
      " ge": 3931,
      " give": 3932,
      "eton": 3933,
      " Iron": 3934,
      " Hy": 3935,
      "unte": 3936,
      " RA": 3937,
      " Rev": 3938,
      " Dream": 3939,
      " Film": 3940,
      " Field": 3941,
      " rare": 3942,
      "aint": 3943,
      " Ga": 3944,
      " Ja": 3945,
      " Ele": 3946,
      "resh": 3947,
      "illed": 3948,
      " seg": 3949,
      " UN": 3950,
      "rawn": 3951,
      "undred": 3952,
      " Chan": 3953,
      "ruit": 3954,
      " unsu": 3955,
      " compared": 3956,
      " reco": 3957,
      "arker": 3958,
      " upgr": 3959,
      "inds": 3960,
      "orship": 3961,
      " earned": 3962,
      " assault": 3963,
      " collect": 3964,
      " Zap": 3965,
      " actually": 3966,
      " Sholay": 3967,
      " carved": 3968,
      " moving": 3969,
      " Independ": 3970,
      " produce": 3971,
      " arms": 3972,
      " Many": 3973,
      " records": 3974,
      " recording": 3975,
      " Classic": 3976,
      " door": 3977,
      " Lead": 3978,
      " Commonwe": 3979,
      " temple": 3980,
      " Allied": 3981,
      " passing": 3982,
      " portion": 3983,
      " divine": 3984,
      " constructed": 3985,
      " discuss": 3986,
      "ASA": 3987,
      " helped": 3988,
      " freeway": 3989,
      " injury": 3990,
      " Joseph": 3991,
      " changes": 3992,
      " audience": 3993,
      " piece": 3994,
      " sometimes": 3995,
      " fitted": 3996,
      " architect": 3997,
      "An": 3998,
      "Bob": 3999,
      "Following": 4000,
      "Th": 4001,
      "TWC": 4002,
      "US": 4003,
      "ba": 4004,
      "bl": 4005,
      "eir": 4006,
      "gu": 4007,
      "hab": 4008,
      "lor": 4009,
      "pass": 4010,
      "vement": 4011,
      "yan": 4012,
      " sq": 4013,
      " sac": 4014,
      " sun": 4015,
      "rey": 4016,
      " our": 4017,
      "itation": 4018,
      "enburg": 4019,
      "isions": 4020,
      " pri": 4021,
      " pick": 4022,
      " toward": 4023,
      " touch": 4024,
      " mis": 4025,
      " mas": 4026,
      " mob": 4027,
      " hill": 4028,
      " Trans": 4029,
      " Si": 4030,
      " Ay": 4031,
      " Awards": 4032,
      "stead": 4033,
      " Civil": 4034,
      "acan": 4035,
      "lymp": 4036,
      "urst": 4037,
      " Mass": 4038,
      " grew": 4039,
      " bee": 4040,
      " Pot": 4041,
      "aging": 4042,
      " Ol": 4043,
      " voc": 4044,
      " Kir": 4045,
      " exit": 4046,
      " Inter": 4047,
      "anti": 4048,
      " armed": 4049,
      "ritish": 4050,
      " Three": 4051,
      " whole": 4052,
      "phas": 4053,
      " prison": 4054,
      "uild": 4055,
      "uilt": 4056,
      " assemb": 4057,
      "azirid": 4058,
      " News": 4059,
      " news": 4060,
      " interest": 4061,
      " colossal": 4062,
      "iction": 4063,
      " Marc": 4064,
      " board": 4065,
      " Clara": 4066,
      " Maya": 4067,
      " Lee": 4068,
      " instr": 4069,
      " prominent": 4070,
      " appears": 4071,
      "espread": 4072,
      " edge": 4073,
      " request": 4074,
      " issues": 4075,
      "mbol": 4076,
      " initial": 4077,
      " purs": 4078,
      "track": 4079,
      " influenced": 4080,
      " surviving": 4081,
      " Central": 4082,
      " activities": 4083,
      " Islands": 4084,
      " football": 4085,
      " Highway": 4086,
      " culture": 4087,
      " synagogue": 4088,
      " Markgraf": 4089,
      " declared": 4090,
      " genus": 4091,
      " focus": 4092,
      " commented": 4093,
      " certain": 4094,
      " heavily": 4095
    },
    "merges": [
      [
        " ",
        "t"
      ],
      [
        "h",
        "e"
      ],
      [
        " ",
        "a"
      ],
      [
        "i",
        "n"
      ],
      [
        " t",
        "he"
      ],
      [
        "e",
        "r"
      ],
      [
        "o",
        "n"
      ],
      [
        " ",
        "s"
      ],
      [
        "e",
        "d"
      ],
      [
        "r",
        "e"
      ],
      [
        " ",
        "w"
      ],
      [
        " ",
        "o"
      ],
      [
        "n",
        "d"
      ],
      [
        "a",
        "t"
      ],
      [
        "o",
        "r"
      ],
      [
        "i",
        "t"
      ],
      [
        "e",
        "n"
      ],
      [
        " ",
        "f"
      ],
      [
        " ",
        "c"
      ],
      [
        "e",
        "s"
      ],
      [
        "a",
        "n"
      ],
      [
        "a",
        "r"
      ],
      [
        "i",
        "s"
      ],
      [
        " o",
        "f"
      ],
      [
        " ",
        "b"
      ],
      [
        "a",
        "l"
      ],
      [
        " ",
        "in"
      ],
      [
        " ",
        "p"
      ],
      [
        "a",
        "s"
      ],
      [
        "in",
        "g"
      ],
      [
        " a",
        "nd"
      ],
      [
        " t",
        "o"
      ],
      [
        "r",
        "o"
      ],
      [
        " ",
        "m"
      ],
      [
        "i",
        "c"
      ],
      [
        " ",
        "d"
      ],
      [
        " ",
        "h"
      ],
      [
        "i",
        "on"
      ],
      [
        "o",
        "u"
      ],
      [
        "l",
        "e"
      ],
      [
        " t",
        "h"
      ],
      [
        " ",
        "T"
      ],
      [
        "i",
        "l"
      ],
      [
        " ",
        "re"
      ],
      [
        " ",
        "S"
      ],
      [
        " ",
        "A"
      ],
      [
        "s",
        "t"
      ],
      [
        "en",
        "t"
      ],
      [
        "a",
        "d"
      ],
      [
        " ",
        "l"
      ],
      [
        " ",
        "C"
      ],
      [
        " ",
        "e"
      ],
      [
        " ",
        "n"
      ],
      [
        "a",
        "c"
      ],
      [
        "l",
        "y"
      ],
      [
        "a",
        "m"
      ],
      [
        "o",
        "m"
      ],
      [
        "u",
        "r"
      ],
      [
        " ",
        "M"
      ],
      [
        " w",
        "as"
      ],
      [
        " ",
        "B"
      ],
      [
        "o",
        "l"
      ],
      [
        "e",
        "c"
      ],
      [
        " ",
        "on"
      ],
      [
        "i",
        "r"
      ],
      [
        "e",
        "l"
      ],
      [
        "i",
        "d"
      ],
      [
        " ",
        "g"
      ],
      [
        "e",
        "t"
      ],
      [
        "i",
        "m"
      ],
      [
        "i",
        "g"
      ],
      [
        "i",
        "v"
      ],
      [
        " f",
        "or"
      ],
      [
        "o",
        "t"
      ],
      [
        "u",
        "t"
      ],
      [
        " ",
        "I"
      ],
      [
        "t",
        "er"
      ],
      [
        "o",
        "w"
      ],
      [
        " T",
        "he"
      ],
      [
        " a",
        "s"
      ],
      [
        "u",
        "s"
      ],
      [
        " s",
        "t"
      ],
      [
        "a",
        "y"
      ],
      [
        "it",
        "h"
      ],
      [
        " ",
        "H"
      ],
      [
        "e",
        "m"
      ],
      [
        "u",
        "n"
      ],
      [
        " ",
        "he"
      ],
      [
        " b",
        "e"
      ],
      [
        " ",
        "R"
      ],
      [
        " ",
        "P"
      ],
      [
        "v",
        "er"
      ],
      [
        " ",
        "N"
      ],
      [
        "c",
        "e"
      ],
      [
        "c",
        "h"
      ],
      [
        "at",
        "ion"
      ],
      [
        "t",
        "h"
      ],
      [
        " w",
        "ith"
      ],
      [
        "u",
        "l"
      ],
      [
        " th",
        "at"
      ],
      [
        "a",
        "nd"
      ],
      [
        " a",
        "t"
      ],
      [
        " a",
        "l"
      ],
      [
        " ",
        "D"
      ],
      [
        " b",
        "y"
      ],
      [
        " ",
        "F"
      ],
      [
        " w",
        "h"
      ],
      [
        " c",
        "on"
      ],
      [
        "o",
        "s"
      ],
      [
        " a",
        "n"
      ],
      [
        " ",
        "r"
      ],
      [
        "c",
        "t"
      ],
      [
        "a",
        "in"
      ],
      [
        "er",
        "s"
      ],
      [
        " ",
        "L"
      ],
      [
        " ",
        "W"
      ],
      [
        "a",
        "v"
      ],
      [
        " ",
        "G"
      ],
      [
        " ",
        "J"
      ],
      [
        " ",
        "is"
      ],
      [
        "t",
        "he"
      ],
      [
        "ro",
        "m"
      ],
      [
        "a",
        "g"
      ],
      [
        "u",
        "m"
      ],
      [
        " ",
        "it"
      ],
      [
        "er",
        "e"
      ],
      [
        "is",
        "t"
      ],
      [
        "es",
        "t"
      ],
      [
        "r",
        "i"
      ],
      [
        "a",
        "p"
      ],
      [
        "o",
        "d"
      ],
      [
        " ",
        "E"
      ],
      [
        " d",
        "e"
      ],
      [
        " w",
        "ere"
      ],
      [
        "o",
        "p"
      ],
      [
        "at",
        "e"
      ],
      [
        "re",
        "s"
      ],
      [
        " f",
        "rom"
      ],
      [
        "u",
        "p"
      ],
      [
        " c",
        "om"
      ],
      [
        "ig",
        "h"
      ],
      [
        " ",
        "O"
      ],
      [
        "il",
        "l"
      ],
      [
        "i",
        "f"
      ],
      [
        "t",
        "ed"
      ],
      [
        " h",
        "is"
      ],
      [
        " s",
        "e"
      ],
      [
        "b",
        "er"
      ],
      [
        "l",
        "d"
      ],
      [
        "a",
        "k"
      ],
      [
        "e",
        "w"
      ],
      [
        "t",
        "s"
      ],
      [
        "on",
        "g"
      ],
      [
        " ",
        "v"
      ],
      [
        "i",
        "p"
      ],
      [
        "ic",
        "h"
      ],
      [
        " ",
        "U"
      ],
      [
        "o",
        "re"
      ],
      [
        "i",
        "an"
      ],
      [
        " p",
        "ro"
      ],
      [
        "al",
        "l"
      ],
      [
        " ",
        "K"
      ],
      [
        "t",
        "e"
      ],
      [
        "i",
        "es"
      ],
      [
        "g",
        "h"
      ],
      [
        "q",
        "u"
      ],
      [
        "s",
        "e"
      ],
      [
        "o",
        "c"
      ],
      [
        "it",
        "y"
      ],
      [
        "at",
        "ed"
      ],
      [
        " p",
        "l"
      ],
      [
        " s",
        "h"
      ],
      [
        "ar",
        "d"
      ],
      [
        "iv",
        "e"
      ],
      [
        "a",
        "b"
      ],
      [
        "u",
        "d"
      ],
      [
        "g",
        "e"
      ],
      [
        "u",
        "st"
      ],
      [
        "ou",
        "r"
      ],
      [
        "r",
        "a"
      ],
      [
        "e",
        "ar"
      ],
      [
        " e",
        "x"
      ],
      [
        "ac",
        "k"
      ],
      [
        " h",
        "ad"
      ],
      [
        " o",
        "r"
      ],
      [
        " ",
        "k"
      ],
      [
        "u",
        "nd"
      ],
      [
        "es",
        "s"
      ],
      [
        "am",
        "e"
      ],
      [
        "or",
        "t"
      ],
      [
        "c",
        "l"
      ],
      [
        "ar",
        "t"
      ],
      [
        " s",
        "u"
      ],
      [
        "i",
        "a"
      ],
      [
        " I",
        "n"
      ],
      [
        "o",
        "v"
      ],
      [
        " c",
        "h"
      ],
      [
        " S",
        "t"
      ],
      [
        "as",
        "t"
      ],
      [
        " C",
        "h"
      ],
      [
        "m",
        "ent"
      ],
      [
        " a",
        "re"
      ],
      [
        "an",
        "t"
      ],
      [
        "o",
        "st"
      ],
      [
        "i",
        "al"
      ],
      [
        "n",
        "t"
      ],
      [
        " wh",
        "ich"
      ],
      [
        " a",
        "r"
      ],
      [
        "is",
        "h"
      ],
      [
        "r",
        "it"
      ],
      [
        "the",
        "r"
      ],
      [
        "in",
        "e"
      ],
      [
        "ar",
        "y"
      ],
      [
        "or",
        "d"
      ],
      [
        "t",
        "o"
      ],
      [
        " n",
        "ot"
      ],
      [
        "he",
        "r"
      ],
      [
        "igh",
        "t"
      ],
      [
        "n",
        "g"
      ],
      [
        " ",
        "y"
      ],
      [
        "r",
        "y"
      ],
      [
        " ",
        "le"
      ],
      [
        "r",
        "u"
      ],
      [
        "T",
        "he"
      ],
      [
        "p",
        "l"
      ],
      [
        "s",
        "o"
      ],
      [
        "e",
        "p"
      ],
      [
        "o",
        "g"
      ],
      [
        "ec",
        "t"
      ],
      [
        " ",
        "un"
      ],
      [
        "id",
        "e"
      ],
      [
        "av",
        "e"
      ],
      [
        "as",
        "s"
      ],
      [
        "on",
        "d"
      ],
      [
        "el",
        "l"
      ],
      [
        "f",
        "ter"
      ],
      [
        "i",
        "e"
      ],
      [
        "w",
        "o"
      ],
      [
        " H",
        "e"
      ],
      [
        " ",
        "ro"
      ],
      [
        "ion",
        "s"
      ],
      [
        "u",
        "e"
      ],
      [
        " s",
        "p"
      ],
      [
        "f",
        "f"
      ],
      [
        "ig",
        "n"
      ],
      [
        "p",
        "er"
      ],
      [
        "ic",
        "al"
      ],
      [
        " ",
        "V"
      ],
      [
        "ow",
        "n"
      ],
      [
        "u",
        "re"
      ],
      [
        "r",
        "an"
      ],
      [
        "c",
        "c"
      ],
      [
        " f",
        "ir"
      ],
      [
        "p",
        "p"
      ],
      [
        "ou",
        "ld"
      ],
      [
        "ou",
        "s"
      ],
      [
        "m",
        "er"
      ],
      [
        " con",
        "t"
      ],
      [
        "m",
        "an"
      ],
      [
        "or",
        "k"
      ],
      [
        " the",
        "ir"
      ],
      [
        "om",
        "e"
      ],
      [
        " b",
        "ut"
      ],
      [
        " it",
        "s"
      ],
      [
        "im",
        "e"
      ],
      [
        " c",
        "l"
      ],
      [
        " al",
        "so"
      ],
      [
        "re",
        "e"
      ],
      [
        "k",
        "e"
      ],
      [
        " a",
        "b"
      ],
      [
        " w",
        "he"
      ],
      [
        "ou",
        "t"
      ],
      [
        "ag",
        "e"
      ],
      [
        " a",
        "g"
      ],
      [
        "he",
        "d"
      ],
      [
        "l",
        "ow"
      ],
      [
        "i",
        "re"
      ],
      [
        "u",
        "b"
      ],
      [
        " p",
        "er"
      ],
      [
        " a",
        "d"
      ],
      [
        " T",
        "h"
      ],
      [
        " on",
        "e"
      ],
      [
        "ac",
        "h"
      ],
      [
        "ur",
        "ing"
      ],
      [
        "at",
        "er"
      ],
      [
        " re",
        "s"
      ],
      [
        " fir",
        "st"
      ],
      [
        "u",
        "gh"
      ],
      [
        " c",
        "o"
      ],
      [
        "r",
        "al"
      ],
      [
        " t",
        "wo"
      ],
      [
        " s",
        "c"
      ],
      [
        "o",
        "k"
      ],
      [
        "i",
        "b"
      ],
      [
        " ",
        "us"
      ],
      [
        "i",
        "z"
      ],
      [
        "em",
        "ber"
      ],
      [
        " be",
        "en"
      ],
      [
        "f",
        "or"
      ],
      [
        " ",
        "en"
      ],
      [
        "i",
        "le"
      ],
      [
        "l",
        "l"
      ],
      [
        " ",
        "j"
      ],
      [
        "a",
        "w"
      ],
      [
        " h",
        "as"
      ],
      [
        " com",
        "p"
      ],
      [
        " ",
        "Y"
      ],
      [
        "ou",
        "nd"
      ],
      [
        "ou",
        "gh"
      ],
      [
        " re",
        "c"
      ],
      [
        "en",
        "ce"
      ],
      [
        "it",
        "ion"
      ],
      [
        "al",
        "ly"
      ],
      [
        " ",
        "i"
      ],
      [
        " ",
        "im"
      ],
      [
        "en",
        "s"
      ],
      [
        "cl",
        "ud"
      ],
      [
        "r",
        "on"
      ],
      [
        " h",
        "ave"
      ],
      [
        "er",
        "v"
      ],
      [
        " of",
        "f"
      ],
      [
        "n",
        "e"
      ],
      [
        "p",
        "t"
      ],
      [
        " at",
        "t"
      ],
      [
        " a",
        "fter"
      ],
      [
        "a",
        "re"
      ],
      [
        "ac",
        "e"
      ],
      [
        "is",
        "s"
      ],
      [
        "at",
        "t"
      ],
      [
        " t",
        "e"
      ],
      [
        " he",
        "r"
      ],
      [
        "ar",
        "k"
      ],
      [
        "ul",
        "t"
      ],
      [
        "i",
        "o"
      ],
      [
        " b",
        "ec"
      ],
      [
        " o",
        "ver"
      ],
      [
        "ad",
        "e"
      ],
      [
        " d",
        "es"
      ],
      [
        " w",
        "e"
      ],
      [
        " wh",
        "o"
      ],
      [
        " ",
        "up"
      ],
      [
        " I",
        "t"
      ],
      [
        " th",
        "is"
      ],
      [
        "in",
        "d"
      ],
      [
        " t",
        "r"
      ],
      [
        "s",
        "s"
      ],
      [
        " e",
        "v"
      ],
      [
        "f",
        "t"
      ],
      [
        " o",
        "ut"
      ],
      [
        "ct",
        "ion"
      ],
      [
        "w",
        "e"
      ],
      [
        " p",
        "art"
      ],
      [
        "ac",
        "t"
      ],
      [
        "r",
        "ic"
      ],
      [
        "res",
        "s"
      ],
      [
        " the",
        "y"
      ],
      [
        "c",
        "es"
      ],
      [
        "or",
        "th"
      ],
      [
        "ur",
        "n"
      ],
      [
        " m",
        "an"
      ],
      [
        "e",
        "nd"
      ],
      [
        "c",
        "ed"
      ],
      [
        "ic",
        "e"
      ],
      [
        "i",
        "ed"
      ],
      [
        "l",
        "and"
      ],
      [
        " a",
        "pp"
      ],
      [
        " com",
        "m"
      ],
      [
        "d",
        "u"
      ],
      [
        " d",
        "is"
      ],
      [
        "on",
        "s"
      ],
      [
        " t",
        "ime"
      ],
      [
        "w",
        "ard"
      ],
      [
        " pl",
        "ay"
      ],
      [
        " g",
        "o"
      ],
      [
        "ation",
        "s"
      ],
      [
        " p",
        "re"
      ],
      [
        " U",
        "n"
      ],
      [
        "ol",
        "d"
      ],
      [
        "on",
        "e"
      ],
      [
        " n",
        "e"
      ],
      [
        "an",
        "ce"
      ],
      [
        " in",
        "to"
      ],
      [
        "ou",
        "th"
      ],
      [
        "it",
        "e"
      ],
      [
        " y",
        "ear"
      ],
      [
        "p",
        "h"
      ],
      [
        " in",
        "clud"
      ],
      [
        "l",
        "es"
      ],
      [
        " re",
        "m"
      ],
      [
        "il",
        "m"
      ],
      [
        "ro",
        "ugh"
      ],
      [
        "er",
        "ed"
      ],
      [
        "os",
        "e"
      ],
      [
        "p",
        "ort"
      ],
      [
        " p",
        "r"
      ],
      [
        "ou",
        "nt"
      ],
      [
        " p",
        "o"
      ],
      [
        "it",
        "ed"
      ],
      [
        "g",
        "an"
      ],
      [
        "a",
        "il"
      ],
      [
        "or",
        "y"
      ],
      [
        " al",
        "l"
      ],
      [
        "h",
        "ip"
      ],
      [
        " o",
        "ther"
      ],
      [
        " ",
        "und"
      ],
      [
        "or",
        "s"
      ],
      [
        "ro",
        "p"
      ],
      [
        "v",
        "i"
      ],
      [
        "ro",
        "und"
      ],
      [
        "ent",
        "s"
      ],
      [
        "in",
        "t"
      ],
      [
        " h",
        "im"
      ],
      [
        "o",
        "y"
      ],
      [
        "an",
        "g"
      ],
      [
        "w",
        "ay"
      ],
      [
        " s",
        "ec"
      ],
      [
        "as",
        "e"
      ],
      [
        "as",
        "ed"
      ],
      [
        "o",
        "f"
      ],
      [
        "v",
        "e"
      ],
      [
        " A",
        "r"
      ],
      [
        "ter",
        "n"
      ],
      [
        "at",
        "es"
      ],
      [
        " con",
        "s"
      ],
      [
        "in",
        "es"
      ],
      [
        "am",
        "p"
      ],
      [
        " A",
        "ust"
      ],
      [
        " w",
        "ould"
      ],
      [
        " ag",
        "ain"
      ],
      [
        "k",
        "s"
      ],
      [
        " m",
        "ore"
      ],
      [
        " f",
        "l"
      ],
      [
        "n",
        "ing"
      ],
      [
        "p",
        "or"
      ],
      [
        " e",
        "ar"
      ],
      [
        " d",
        "uring"
      ],
      [
        " U",
        "S"
      ],
      [
        " de",
        "f"
      ],
      [
        "w",
        "n"
      ],
      [
        " s",
        "he"
      ],
      [
        " f",
        "ilm"
      ],
      [
        "u",
        "il"
      ],
      [
        "an",
        "s"
      ],
      [
        " the",
        "m"
      ],
      [
        "e",
        "at"
      ],
      [
        "ol",
        "low"
      ],
      [
        "ab",
        "le"
      ],
      [
        "ot",
        "h"
      ],
      [
        "f",
        "er"
      ],
      [
        "v",
        "el"
      ],
      [
        " s",
        "up"
      ],
      [
        " w",
        "ork"
      ],
      [
        " th",
        "ree"
      ],
      [
        " B",
        "rit"
      ],
      [
        "ri",
        "b"
      ],
      [
        "r",
        "ed"
      ],
      [
        "l",
        "ic"
      ],
      [
        "o",
        "b"
      ],
      [
        " b",
        "et"
      ],
      [
        " d",
        "ec"
      ],
      [
        "re",
        "at"
      ],
      [
        " p",
        "os"
      ],
      [
        " und",
        "er"
      ],
      [
        "m",
        "ed"
      ],
      [
        "I",
        "n"
      ],
      [
        " m",
        "ost"
      ],
      [
        " a",
        "ir"
      ],
      [
        " on",
        "ly"
      ],
      [
        "as",
        "on"
      ],
      [
        "mer",
        "ic"
      ],
      [
        "is",
        "ion"
      ],
      [
        " C",
        "om"
      ],
      [
        "re",
        "n"
      ],
      [
        " n",
        "um"
      ],
      [
        "u",
        "g"
      ],
      [
        " re",
        "t"
      ],
      [
        " p",
        "e"
      ],
      [
        "ic",
        "k"
      ],
      [
        " as",
        "s"
      ],
      [
        "a",
        "z"
      ],
      [
        " e",
        "nd"
      ],
      [
        " c",
        "ent"
      ],
      [
        "ou",
        "n"
      ],
      [
        " N",
        "ew"
      ],
      [
        " n",
        "ew"
      ],
      [
        "ak",
        "e"
      ],
      [
        " f",
        "in"
      ],
      [
        "ing",
        "s"
      ],
      [
        "i",
        "k"
      ],
      [
        "i",
        "x"
      ],
      [
        " in",
        "ter"
      ],
      [
        " re",
        "g"
      ],
      [
        "u",
        "al"
      ],
      [
        " su",
        "b"
      ],
      [
        " c",
        "ol"
      ],
      [
        "f",
        "ore"
      ],
      [
        "us",
        "e"
      ],
      [
        "ol",
        "og"
      ],
      [
        " g",
        "ro"
      ],
      [
        "we",
        "en"
      ],
      [
        " k",
        "n"
      ],
      [
        " m",
        "e"
      ],
      [
        " d",
        "ay"
      ],
      [
        "ation",
        "al"
      ],
      [
        "e",
        "ver"
      ],
      [
        "a",
        "id"
      ],
      [
        "a",
        "j"
      ],
      [
        "c",
        "k"
      ],
      [
        " he",
        "ad"
      ],
      [
        " ",
        "Z"
      ],
      [
        "l",
        "s"
      ],
      [
        " ab",
        "out"
      ],
      [
        " whe",
        "n"
      ],
      [
        " a",
        "ct"
      ],
      [
        " A",
        "meric"
      ],
      [
        " sh",
        "ip"
      ],
      [
        "ic",
        "t"
      ],
      [
        " f",
        "our"
      ],
      [
        " S",
        "h"
      ],
      [
        " a",
        "m"
      ],
      [
        " re",
        "l"
      ],
      [
        " A",
        "l"
      ],
      [
        " M",
        "ar"
      ],
      [
        " G",
        "er"
      ],
      [
        " c",
        "ar"
      ],
      [
        "i",
        "ke"
      ],
      [
        " s",
        "o"
      ],
      [
        "v",
        "ed"
      ],
      [
        " w",
        "ar"
      ],
      [
        "en",
        "er"
      ],
      [
        " in",
        "v"
      ],
      [
        " l",
        "ater"
      ],
      [
        " Aust",
        "ral"
      ],
      [
        "b",
        "um"
      ],
      [
        "e",
        "g"
      ],
      [
        " m",
        "on"
      ],
      [
        "ver",
        "n"
      ],
      [
        "oc",
        "k"
      ],
      [
        " n",
        "o"
      ],
      [
        " b",
        "o"
      ],
      [
        "o",
        "od"
      ],
      [
        " s",
        "ur"
      ],
      [
        " S",
        "c"
      ],
      [
        "or",
        "m"
      ],
      [
        "n",
        "s"
      ],
      [
        " l",
        "ar"
      ],
      [
        "d",
        "er"
      ],
      [
        "ain",
        "ed"
      ],
      [
        " te",
        "am"
      ],
      [
        " m",
        "ov"
      ],
      [
        " wh",
        "ile"
      ],
      [
        " s",
        "ome"
      ],
      [
        " O",
        "n"
      ],
      [
        " th",
        "rough"
      ],
      [
        "le",
        "ct"
      ],
      [
        "ter",
        "s"
      ],
      [
        " a",
        "c"
      ],
      [
        "at",
        "ing"
      ],
      [
        " W",
        "ar"
      ],
      [
        "al",
        "s"
      ],
      [
        " whe",
        "re"
      ],
      [
        " s",
        "ong"
      ],
      [
        " th",
        "an"
      ],
      [
        "em",
        "b"
      ],
      [
        " f",
        "ollow"
      ],
      [
        " c",
        "ity"
      ],
      [
        "i",
        "ent"
      ],
      [
        "it",
        "ies"
      ],
      [
        " re",
        "p"
      ],
      [
        " se",
        "ver"
      ],
      [
        " b",
        "uil"
      ],
      [
        "iv",
        "ed"
      ],
      [
        " ch",
        "ar"
      ],
      [
        " I",
        "nd"
      ],
      [
        " m",
        "ade"
      ],
      [
        " h",
        "igh"
      ],
      [
        "e",
        "y"
      ],
      [
        " g",
        "ame"
      ],
      [
        " in",
        "c"
      ],
      [
        " a",
        "cc"
      ],
      [
        " l",
        "oc"
      ],
      [
        "a",
        "ir"
      ],
      [
        "p",
        "ed"
      ],
      [
        " in",
        "t"
      ],
      [
        " bet",
        "ween"
      ],
      [
        "av",
        "y"
      ],
      [
        "if",
        "ic"
      ],
      [
        " pro",
        "du"
      ],
      [
        " num",
        "ber"
      ],
      [
        "t",
        "y"
      ],
      [
        " e",
        "m"
      ],
      [
        " ar",
        "m"
      ],
      [
        " J",
        "ap"
      ],
      [
        " g",
        "un"
      ],
      [
        "an",
        "k"
      ],
      [
        " re",
        "le"
      ],
      [
        " M",
        "an"
      ],
      [
        " se",
        "ason"
      ],
      [
        " be",
        "fore"
      ],
      [
        " be",
        "ing"
      ],
      [
        "m",
        "e"
      ],
      [
        "ul",
        "ar"
      ],
      [
        "a",
        "i"
      ],
      [
        "i",
        "el"
      ],
      [
        "it",
        "s"
      ],
      [
        "ran",
        "s"
      ],
      [
        " Ger",
        "man"
      ],
      [
        "ep",
        "t"
      ],
      [
        "ow",
        "er"
      ],
      [
        " al",
        "bum"
      ],
      [
        " us",
        "ed"
      ],
      [
        "or",
        "ld"
      ],
      [
        " f",
        "o"
      ],
      [
        " Brit",
        "ish"
      ],
      [
        "p",
        "r"
      ],
      [
        " the",
        "re"
      ],
      [
        "es",
        "e"
      ],
      [
        " rec",
        "ord"
      ],
      [
        "ot",
        "her"
      ],
      [
        "er",
        "t"
      ],
      [
        "ian",
        "s"
      ],
      [
        "in",
        "ce"
      ],
      [
        "u",
        "ch"
      ],
      [
        " b",
        "att"
      ],
      [
        " A",
        "t"
      ],
      [
        " sec",
        "ond"
      ],
      [
        "t",
        "ing"
      ],
      [
        "v",
        "en"
      ],
      [
        " A",
        "s"
      ],
      [
        " again",
        "st"
      ],
      [
        " ",
        "ent"
      ],
      [
        " s",
        "er"
      ],
      [
        " p",
        "ol"
      ],
      [
        "am",
        "es"
      ],
      [
        "s",
        "on"
      ],
      [
        "vel",
        "op"
      ],
      [
        " ",
        "qu"
      ],
      [
        " s",
        "m"
      ],
      [
        " m",
        "et"
      ],
      [
        " L",
        "es"
      ],
      [
        " Jap",
        "an"
      ],
      [
        "i",
        "ous"
      ],
      [
        " C",
        "l"
      ],
      [
        "el",
        "f"
      ],
      [
        "e",
        "b"
      ],
      [
        "i",
        "er"
      ],
      [
        " m",
        "at"
      ],
      [
        "is",
        "ed"
      ],
      [
        "iv",
        "er"
      ],
      [
        "n",
        "ed"
      ],
      [
        "is",
        "hed"
      ],
      [
        " b",
        "ack"
      ],
      [
        " M",
        "ay"
      ],
      [
        "e",
        "a"
      ],
      [
        " the",
        "n"
      ],
      [
        " o",
        "per"
      ],
      [
        " p",
        "ub"
      ],
      [
        " in",
        "d"
      ],
      [
        "r",
        "am"
      ],
      [
        "at",
        "h"
      ],
      [
        " b",
        "oth"
      ],
      [
        "ro",
        "ss"
      ],
      [
        " A",
        "n"
      ],
      [
        " su",
        "ch"
      ],
      [
        "he",
        "s"
      ],
      [
        "em",
        "ent"
      ],
      [
        " cont",
        "in"
      ],
      [
        " s",
        "erv"
      ],
      [
        "ur",
        "y"
      ],
      [
        " att",
        "ack"
      ],
      [
        " ",
        "ver"
      ],
      [
        "t",
        "on"
      ],
      [
        " de",
        "p"
      ],
      [
        " s",
        "y"
      ],
      [
        "l",
        "ed"
      ],
      [
        "t",
        "en"
      ],
      [
        " w",
        "ell"
      ],
      [
        " c",
        "ap"
      ],
      [
        " d",
        "o"
      ],
      [
        " m",
        "il"
      ],
      [
        " m",
        "ain"
      ],
      [
        "un",
        "e"
      ],
      [
        "u",
        "res"
      ],
      [
        "is",
        "e"
      ],
      [
        " ",
        "est"
      ],
      [
        "b",
        "y"
      ],
      [
        " b",
        "l"
      ],
      [
        " sp",
        "ec"
      ],
      [
        "r",
        "ap"
      ],
      [
        "u",
        "ed"
      ],
      [
        "er",
        "o"
      ],
      [
        " al",
        "ong"
      ],
      [
        " man",
        "y"
      ],
      [
        "f",
        "ul"
      ],
      [
        " ad",
        "d"
      ],
      [
        " m",
        "in"
      ],
      [
        "et",
        "er"
      ],
      [
        "ut",
        "e"
      ],
      [
        "ist",
        "s"
      ],
      [
        "all",
        "ed"
      ],
      [
        "x",
        "t"
      ],
      [
        "in",
        "s"
      ],
      [
        "m",
        "s"
      ],
      [
        " c",
        "an"
      ],
      [
        " S",
        "p"
      ],
      [
        "th",
        "ough"
      ],
      [
        " in",
        "f"
      ],
      [
        " bec",
        "ame"
      ],
      [
        " Un",
        "ited"
      ],
      [
        " sever",
        "al"
      ],
      [
        "p",
        "en"
      ],
      [
        "us",
        "ic"
      ],
      [
        "a",
        "h"
      ],
      [
        "os",
        "s"
      ],
      [
        "e",
        "v"
      ],
      [
        " l",
        "ong"
      ],
      [
        " R",
        "o"
      ],
      [
        "p",
        "le"
      ],
      [
        " s",
        "ign"
      ],
      [
        " be",
        "gan"
      ],
      [
        "ow",
        "ever"
      ],
      [
        " N",
        "orth"
      ],
      [
        " per",
        "for"
      ],
      [
        "h",
        "n"
      ],
      [
        " b",
        "el"
      ],
      [
        " d",
        "id"
      ],
      [
        " k",
        "m"
      ],
      [
        " S",
        "he"
      ],
      [
        "st",
        "ru"
      ],
      [
        " Th",
        "is"
      ],
      [
        " w",
        "a"
      ],
      [
        " c",
        "a"
      ],
      [
        "ac",
        "ed"
      ],
      [
        "ur",
        "ed"
      ],
      [
        "ire",
        "ct"
      ],
      [
        "in",
        "ed"
      ],
      [
        "er",
        "n"
      ],
      [
        "ig",
        "in"
      ],
      [
        " des",
        "ign"
      ],
      [
        " the",
        "se"
      ],
      [
        " w",
        "rit"
      ],
      [
        " f",
        "ound"
      ],
      [
        "il",
        "y"
      ],
      [
        "et",
        "s"
      ],
      [
        " t",
        "er"
      ],
      [
        "ic",
        "s"
      ],
      [
        "id",
        "ent"
      ],
      [
        "ur",
        "ch"
      ],
      [
        " ar",
        "t"
      ],
      [
        " m",
        "ill"
      ],
      [
        " go",
        "vern"
      ],
      [
        " gro",
        "up"
      ],
      [
        " s",
        "ing"
      ],
      [
        "at",
        "ive"
      ],
      [
        "an",
        "ge"
      ],
      [
        "n",
        "ar"
      ],
      [
        " o",
        "b"
      ],
      [
        " b",
        "ro"
      ],
      [
        " S",
        "ept"
      ],
      [
        " Americ",
        "an"
      ],
      [
        "s",
        "p"
      ],
      [
        " c",
        "ould"
      ],
      [
        " L",
        "e"
      ],
      [
        "an",
        "e"
      ],
      [
        " de",
        "velop"
      ],
      [
        "ra",
        "ft"
      ],
      [
        "c",
        "o"
      ],
      [
        "t",
        "le"
      ],
      [
        "re",
        "w"
      ],
      [
        " l",
        "and"
      ],
      [
        "iel",
        "d"
      ],
      [
        " t",
        "rans"
      ],
      [
        "ul",
        "l"
      ],
      [
        "os",
        "p"
      ],
      [
        " C",
        "ol"
      ],
      [
        " B",
        "l"
      ],
      [
        "an",
        "y"
      ],
      [
        " p",
        "op"
      ],
      [
        " st",
        "ar"
      ],
      [
        "op",
        "le"
      ],
      [
        " f",
        "eat"
      ],
      [
        " p",
        "res"
      ],
      [
        " J",
        "o"
      ],
      [
        " ex",
        "p"
      ],
      [
        " l",
        "ike"
      ],
      [
        " B",
        "r"
      ],
      [
        " P",
        "ol"
      ],
      [
        "s",
        "h"
      ],
      [
        " P",
        "h"
      ],
      [
        "ak",
        "ing"
      ],
      [
        " year",
        "s"
      ],
      [
        " kn",
        "own"
      ],
      [
        " re",
        "ce"
      ],
      [
        " includ",
        "ing"
      ],
      [
        "in",
        "a"
      ],
      [
        " h",
        "ist"
      ],
      [
        "ir",
        "on"
      ],
      [
        "or",
        "n"
      ],
      [
        " le",
        "ad"
      ],
      [
        " n",
        "orth"
      ],
      [
        "al",
        "e"
      ],
      [
        " an",
        "y"
      ],
      [
        " Com",
        "m"
      ],
      [
        " ret",
        "urn"
      ],
      [
        "aj",
        "or"
      ],
      [
        " N",
        "ov"
      ],
      [
        " res",
        "p"
      ],
      [
        " ear",
        "ly"
      ],
      [
        "on",
        "t"
      ],
      [
        " s",
        "et"
      ],
      [
        " l",
        "o"
      ],
      [
        "od",
        "e"
      ],
      [
        "iv",
        "ers"
      ],
      [
        "te",
        "nd"
      ],
      [
        "o",
        "ol"
      ],
      [
        "os",
        "ed"
      ],
      [
        " comp",
        "le"
      ],
      [
        " s",
        "aid"
      ],
      [
        " b",
        "r"
      ],
      [
        "id",
        "ed"
      ],
      [
        "iz",
        "ed"
      ],
      [
        " off",
        "ic"
      ],
      [
        " sm",
        "all"
      ],
      [
        " t",
        "em"
      ],
      [
        " sh",
        "ow"
      ],
      [
        "ib",
        "le"
      ],
      [
        "u",
        "ally"
      ],
      [
        " p",
        "ers"
      ],
      [
        " S",
        "te"
      ],
      [
        " A",
        "ug"
      ],
      [
        "he",
        "n"
      ],
      [
        " in",
        "st"
      ],
      [
        " a",
        "round"
      ],
      [
        " g",
        "od"
      ],
      [
        " un",
        "t"
      ],
      [
        "y",
        "l"
      ],
      [
        " n",
        "ear"
      ],
      [
        " g",
        "u"
      ],
      [
        " Sept",
        "ember"
      ],
      [
        " e",
        "p"
      ],
      [
        " are",
        "a"
      ],
      [
        " O",
        "ct"
      ],
      [
        " t",
        "ro"
      ],
      [
        "m",
        "y"
      ],
      [
        "s",
        "ide"
      ],
      [
        "ion",
        "al"
      ],
      [
        "qu",
        "ad"
      ],
      [
        "e",
        "k"
      ],
      [
        "ar",
        "ch"
      ],
      [
        " d",
        "if"
      ],
      [
        "us",
        "ed"
      ],
      [
        "e",
        "f"
      ],
      [
        "p",
        "e"
      ],
      [
        " p",
        "rom"
      ],
      [
        " C",
        "ar"
      ],
      [
        "un",
        "g"
      ],
      [
        "l",
        "er"
      ],
      [
        "is",
        "m"
      ],
      [
        " I",
        "s"
      ],
      [
        "cc",
        "ess"
      ],
      [
        " app",
        "ear"
      ],
      [
        " lar",
        "ge"
      ],
      [
        " ser",
        "ies"
      ],
      [
        "e",
        "x"
      ],
      [
        " s",
        "outh"
      ],
      [
        "or",
        "ed"
      ],
      [
        "ect",
        "ion"
      ],
      [
        "vi",
        "ew"
      ],
      [
        "d",
        "ing"
      ],
      [
        "at",
        "her"
      ],
      [
        " A",
        "ll"
      ],
      [
        "ec",
        "ted"
      ],
      [
        " J",
        "une"
      ],
      [
        " Ch",
        "r"
      ],
      [
        "o",
        "ber"
      ],
      [
        " S",
        "outh"
      ],
      [
        " im",
        "p"
      ],
      [
        "i",
        "et"
      ],
      [
        " s",
        "ix"
      ],
      [
        "at",
        "s"
      ],
      [
        " to",
        "ok"
      ],
      [
        "id",
        "ge"
      ],
      [
        "op",
        "s"
      ],
      [
        "a",
        "use"
      ],
      [
        " d",
        "am"
      ],
      [
        " N",
        "o"
      ],
      [
        " pl",
        "an"
      ],
      [
        " d",
        "own"
      ],
      [
        "o",
        "on"
      ],
      [
        "iv",
        "ision"
      ],
      [
        " F",
        "or"
      ],
      [
        " B",
        "att"
      ],
      [
        "if",
        "ied"
      ],
      [
        "ip",
        "p"
      ],
      [
        " o",
        "cc"
      ],
      [
        "am",
        "ed"
      ],
      [
        " st",
        "r"
      ],
      [
        " con",
        "c"
      ],
      [
        "ain",
        "ing"
      ],
      [
        " ad",
        "v"
      ],
      [
        "c",
        "rib"
      ],
      [
        " c",
        "rit"
      ],
      [
        " p",
        "ass"
      ],
      [
        "a",
        "x"
      ],
      [
        "ar",
        "s"
      ],
      [
        "im",
        "es"
      ],
      [
        "iv",
        "es"
      ],
      [
        " unt",
        "il"
      ],
      [
        "j",
        "ect"
      ],
      [
        " d",
        "irect"
      ],
      [
        " st",
        "ate"
      ],
      [
        "ther",
        "n"
      ],
      [
        "g",
        "y"
      ],
      [
        "as",
        "h"
      ],
      [
        " for",
        "m"
      ],
      [
        " Aug",
        "ust"
      ],
      [
        "u",
        "es"
      ],
      [
        "il",
        "a"
      ],
      [
        " A",
        "fter"
      ],
      [
        " e",
        "ff"
      ],
      [
        " for",
        "ces"
      ],
      [
        " or",
        "igin"
      ],
      [
        " us",
        "e"
      ],
      [
        "b",
        "e"
      ],
      [
        " o",
        "pen"
      ],
      [
        " J",
        "an"
      ],
      [
        "ren",
        "ch"
      ],
      [
        "b",
        "o"
      ],
      [
        "ir",
        "d"
      ],
      [
        "ener",
        "al"
      ],
      [
        " Les",
        "nar"
      ],
      [
        " w",
        "ind"
      ],
      [
        "ain",
        "s"
      ],
      [
        " v",
        "ar"
      ],
      [
        "on",
        "es"
      ],
      [
        "ov",
        "e"
      ],
      [
        "u",
        "ary"
      ],
      [
        " c",
        "alled"
      ],
      [
        "ro",
        "w"
      ],
      [
        "ol",
        "l"
      ],
      [
        " g",
        "r"
      ],
      [
        "ment",
        "s"
      ],
      [
        "n",
        "er"
      ],
      [
        "t",
        "al"
      ],
      [
        " f",
        "e"
      ],
      [
        " r",
        "un"
      ],
      [
        "ate",
        "ly"
      ],
      [
        "ou",
        "te"
      ],
      [
        " A",
        "d"
      ],
      [
        " W",
        "h"
      ],
      [
        " Y",
        "ork"
      ],
      [
        "rop",
        "ical"
      ],
      [
        " b",
        "as"
      ],
      [
        " char",
        "ac"
      ],
      [
        "e",
        "ad"
      ],
      [
        "ir",
        "ed"
      ],
      [
        "ch",
        "ool"
      ],
      [
        "if",
        "e"
      ],
      [
        " Japan",
        "ese"
      ],
      [
        " w",
        "in"
      ],
      [
        "olog",
        "y"
      ],
      [
        "b",
        "all"
      ],
      [
        " s",
        "ince"
      ],
      [
        "at",
        "i"
      ],
      [
        " f",
        "ive"
      ],
      [
        " A",
        "m"
      ],
      [
        "ur",
        "ther"
      ],
      [
        " D",
        "ec"
      ],
      [
        "iss",
        "ion"
      ],
      [
        " o",
        "wn"
      ],
      [
        " C",
        "o"
      ],
      [
        " e",
        "ach"
      ],
      [
        " con",
        "f"
      ],
      [
        " v",
        "i"
      ],
      [
        "m",
        "p"
      ],
      [
        " d",
        "ist"
      ],
      [
        " d",
        "est"
      ],
      [
        " E",
        "d"
      ],
      [
        " pro",
        "v"
      ],
      [
        "t",
        "ion"
      ],
      [
        " c",
        "r"
      ],
      [
        " k",
        "ill"
      ],
      [
        " y",
        "ou"
      ],
      [
        " cl",
        "ass"
      ],
      [
        "por",
        "ted"
      ],
      [
        " Oct",
        "ober"
      ],
      [
        "quad",
        "ron"
      ],
      [
        "c",
        "raft"
      ],
      [
        "iv",
        "ing"
      ],
      [
        "ut",
        "h"
      ],
      [
        "us",
        "s"
      ],
      [
        " J",
        "u"
      ],
      [
        "ab",
        "l"
      ],
      [
        " ",
        "iron"
      ],
      [
        "g",
        "est"
      ],
      [
        " re",
        "f"
      ],
      [
        " comm",
        "and"
      ],
      [
        "ward",
        "s"
      ],
      [
        " Nov",
        "ember"
      ],
      [
        "b",
        "le"
      ],
      [
        " to",
        "p"
      ],
      [
        " pl",
        "ace"
      ],
      [
        "ial",
        "ly"
      ],
      [
        "it",
        "ary"
      ],
      [
        " l",
        "a"
      ],
      [
        " an",
        "n"
      ],
      [
        "y",
        "s"
      ],
      [
        " t",
        "y"
      ],
      [
        " s",
        "ame"
      ],
      [
        "an",
        "c"
      ],
      [
        " h",
        "al"
      ],
      [
        " C",
        "on"
      ],
      [
        " F",
        "rench"
      ],
      [
        " pe",
        "ople"
      ],
      [
        "m",
        "in"
      ],
      [
        "es",
        "p"
      ],
      [
        " m",
        "od"
      ],
      [
        " st",
        "orm"
      ],
      [
        " ep",
        "is"
      ],
      [
        "a",
        "u"
      ],
      [
        " st",
        "ru"
      ],
      [
        " St",
        "ates"
      ],
      [
        " j",
        "ust"
      ],
      [
        " ship",
        "s"
      ],
      [
        " Sc",
        "ient"
      ],
      [
        " mat",
        "ch"
      ],
      [
        " ",
        "ed"
      ],
      [
        "g",
        "ed"
      ],
      [
        "w",
        "as"
      ],
      [
        " p",
        "ort"
      ],
      [
        "ay",
        "s"
      ],
      [
        " pub",
        "lic"
      ],
      [
        " p",
        "ar"
      ],
      [
        "il",
        "d"
      ],
      [
        "il",
        "ity"
      ],
      [
        " l",
        "ed"
      ],
      [
        "ard",
        "s"
      ],
      [
        " ex",
        "t"
      ],
      [
        " f",
        "r"
      ],
      [
        " su",
        "ccess"
      ],
      [
        "er",
        "y"
      ],
      [
        " p",
        "ower"
      ],
      [
        " m",
        "ay"
      ],
      [
        " re",
        "st"
      ],
      [
        "ut",
        "ion"
      ],
      [
        "ord",
        "ing"
      ],
      [
        "ough",
        "t"
      ],
      [
        " rele",
        "ased"
      ],
      [
        " m",
        "en"
      ],
      [
        " e",
        "ast"
      ],
      [
        " M",
        "c"
      ],
      [
        " st",
        "re"
      ],
      [
        " R",
        "oute"
      ],
      [
        " Ph",
        "il"
      ],
      [
        " n",
        "or"
      ],
      [
        " includ",
        "ed"
      ],
      [
        " follow",
        "ing"
      ],
      [
        "v",
        "ent"
      ],
      [
        " m",
        "usic"
      ],
      [
        "ad",
        "s"
      ],
      [
        " e",
        "le"
      ],
      [
        " The",
        "y"
      ],
      [
        " he",
        "ld"
      ],
      [
        "ag",
        "ed"
      ],
      [
        "our",
        "t"
      ],
      [
        " buil",
        "t"
      ],
      [
        "pr",
        "il"
      ],
      [
        " t",
        "ri"
      ],
      [
        "ar",
        "ed"
      ],
      [
        "ro",
        "y"
      ],
      [
        "ec",
        "ts"
      ],
      [
        " st",
        "ud"
      ],
      [
        " app",
        "ro"
      ],
      [
        " t",
        "urn"
      ],
      [
        "en",
        "c"
      ],
      [
        " m",
        "ajor"
      ],
      [
        " n",
        "ow"
      ],
      [
        "el",
        "s"
      ],
      [
        " W",
        "orld"
      ],
      [
        "ant",
        "ry"
      ],
      [
        "vi",
        "ous"
      ],
      [
        " c",
        "ount"
      ],
      [
        "st",
        "em"
      ],
      [
        "um",
        "ent"
      ],
      [
        " le",
        "ft"
      ],
      [
        " play",
        "ed"
      ],
      [
        " sing",
        "le"
      ],
      [
        "h",
        "am"
      ],
      [
        "ent",
        "ly"
      ],
      [
        " G",
        "u"
      ],
      [
        " des",
        "crib"
      ],
      [
        " cons",
        "id"
      ],
      [
        " Austral",
        "ian"
      ],
      [
        "n",
        "a"
      ],
      [
        "ar",
        "r"
      ],
      [
        " d",
        "ue"
      ],
      [
        "om",
        "in"
      ],
      [
        " f",
        "ire"
      ],
      [
        " h",
        "a"
      ],
      [
        "av",
        "ing"
      ],
      [
        "ron",
        "t"
      ],
      [
        " Chr",
        "ist"
      ],
      [
        " d",
        "r"
      ],
      [
        " re",
        "pl"
      ],
      [
        " A",
        "ng"
      ],
      [
        "ac",
        "hed"
      ],
      [
        "ur",
        "al"
      ],
      [
        " N",
        "ero"
      ],
      [
        "ag",
        "ue"
      ],
      [
        "ak",
        "en"
      ],
      [
        "ord",
        "an"
      ],
      [
        " en",
        "g"
      ],
      [
        " ev",
        "en"
      ],
      [
        " w",
        "est"
      ],
      [
        " p",
        "h"
      ],
      [
        " h",
        "and"
      ],
      [
        "i",
        "od"
      ],
      [
        " m",
        "emb"
      ],
      [
        " A",
        "pril"
      ],
      [
        " cont",
        "ro"
      ],
      [
        " s",
        "im"
      ],
      [
        " f",
        "t"
      ],
      [
        " with",
        "in"
      ],
      [
        "i",
        "us"
      ],
      [
        "u",
        "c"
      ],
      [
        " c",
        "ame"
      ],
      [
        " m",
        "i"
      ],
      [
        " A",
        "ir"
      ],
      [
        " B",
        "o"
      ],
      [
        "re",
        "st"
      ],
      [
        " re",
        "qu"
      ],
      [
        "om",
        "et"
      ],
      [
        " part",
        "ic"
      ],
      [
        " ne",
        "xt"
      ],
      [
        " s",
        "ide"
      ],
      [
        "re",
        "t"
      ],
      [
        " b",
        "and"
      ],
      [
        " tr",
        "ack"
      ],
      [
        "O",
        "n"
      ],
      [
        " l",
        "ine"
      ],
      [
        " Jan",
        "uary"
      ],
      [
        "g",
        "er"
      ],
      [
        "r",
        "s"
      ],
      [
        " P",
        "l"
      ],
      [
        " att",
        "em"
      ],
      [
        " tro",
        "ops"
      ],
      [
        "p",
        "s"
      ],
      [
        " s",
        "l"
      ],
      [
        "en",
        "e"
      ],
      [
        " p",
        "ost"
      ],
      [
        " th",
        "ird"
      ],
      [
        " E",
        "ng"
      ],
      [
        " pro",
        "t"
      ],
      [
        " inv",
        "ol"
      ],
      [
        " govern",
        "ment"
      ],
      [
        "i",
        "am"
      ],
      [
        " bec",
        "ause"
      ],
      [
        " Ju",
        "ly"
      ],
      [
        "e",
        "an"
      ],
      [
        "m",
        "it"
      ],
      [
        "y",
        "cl"
      ],
      [
        " t",
        "w"
      ],
      [
        "re",
        "ad"
      ],
      [
        " w",
        "on"
      ],
      [
        " d",
        "em"
      ],
      [
        " l",
        "ate"
      ],
      [
        " n",
        "ame"
      ],
      [
        " inc",
        "re"
      ],
      [
        " ",
        "er"
      ],
      [
        " s",
        "old"
      ],
      [
        "it",
        "ions"
      ],
      [
        "it",
        "tle"
      ],
      [
        " m",
        "uch"
      ],
      [
        " e",
        "ver"
      ],
      [
        " for",
        "mer"
      ],
      [
        " I",
        "I"
      ],
      [
        " be",
        "g"
      ],
      [
        "ical",
        "ly"
      ],
      [
        "a",
        "im"
      ],
      [
        "d",
        "e"
      ],
      [
        "l",
        "u"
      ],
      [
        "al",
        "k"
      ],
      [
        " pers",
        "on"
      ],
      [
        " ",
        "Q"
      ],
      [
        " f",
        "am"
      ],
      [
        "is",
        "on"
      ],
      [
        " or",
        "gan"
      ],
      [
        " sup",
        "port"
      ],
      [
        " gun",
        "s"
      ],
      [
        " hal",
        "f"
      ],
      [
        "c",
        "om"
      ],
      [
        "n",
        "ess"
      ],
      [
        " d",
        "el"
      ],
      [
        "ou",
        "se"
      ],
      [
        " is",
        "s"
      ],
      [
        "ist",
        "ed"
      ],
      [
        " K",
        "ore"
      ],
      [
        " epis",
        "ode"
      ],
      [
        " s",
        "ou"
      ],
      [
        " w",
        "it"
      ],
      [
        " f",
        "ew"
      ],
      [
        " f",
        "urther"
      ],
      [
        "ot",
        "s"
      ],
      [
        " R",
        "e"
      ],
      [
        " pos",
        "s"
      ],
      [
        " mill",
        "ion"
      ],
      [
        " n",
        "amed"
      ],
      [
        " N",
        "ational"
      ],
      [
        " F",
        "eb"
      ],
      [
        " G",
        "e"
      ],
      [
        "oc",
        "i"
      ],
      [
        " Jo",
        "hn"
      ],
      [
        "c",
        "hed"
      ],
      [
        "ut",
        "ed"
      ],
      [
        "pl",
        "oy"
      ],
      [
        " cent",
        "ury"
      ],
      [
        " rece",
        "ived"
      ],
      [
        "n",
        "y"
      ],
      [
        "r",
        "ing"
      ],
      [
        "s",
        "hip"
      ],
      [
        " c",
        "re"
      ],
      [
        " h",
        "ome"
      ],
      [
        " B",
        "ut"
      ],
      [
        "et",
        "r"
      ],
      [
        "iv",
        "en"
      ],
      [
        "ver",
        "s"
      ],
      [
        " al",
        "low"
      ],
      [
        "ide",
        "o"
      ],
      [
        " ro",
        "le"
      ],
      [
        " fin",
        "al"
      ],
      [
        "m",
        "b"
      ],
      [
        " M",
        "er"
      ],
      [
        " air",
        "craft"
      ],
      [
        "h",
        "at"
      ],
      [
        "l",
        "ing"
      ],
      [
        " w",
        "i"
      ],
      [
        "at",
        "ter"
      ],
      [
        "le",
        "y"
      ],
      [
        "ct",
        "ed"
      ],
      [
        "av",
        "al"
      ],
      [
        "le",
        "et"
      ],
      [
        " for",
        "ce"
      ],
      [
        " P",
        "ro"
      ],
      [
        " F",
        "ran"
      ],
      [
        " Ch",
        "urch"
      ],
      [
        " j",
        "o"
      ],
      [
        " bel",
        "ie"
      ],
      [
        " c",
        "are"
      ],
      [
        "id",
        "es"
      ],
      [
        " Man",
        "ila"
      ],
      [
        "in",
        "k"
      ],
      [
        " s",
        "k"
      ],
      [
        " m",
        "id"
      ],
      [
        " H",
        "owever"
      ],
      [
        "res",
        "ent"
      ],
      [
        "m",
        "en"
      ],
      [
        "s",
        "elf"
      ],
      [
        " d",
        "iv"
      ],
      [
        " h",
        "um"
      ],
      [
        " l",
        "ight"
      ],
      [
        "ul",
        "ation"
      ],
      [
        " wh",
        "at"
      ],
      [
        "se",
        "qu"
      ],
      [
        "for",
        "m"
      ],
      [
        " mon",
        "th"
      ],
      [
        " cap",
        "t"
      ],
      [
        "osp",
        "ond"
      ],
      [
        " Dec",
        "ember"
      ],
      [
        " ",
        "if"
      ],
      [
        "he",
        "re"
      ],
      [
        " p",
        "at"
      ],
      [
        " m",
        "ake"
      ],
      [
        " T",
        "e"
      ],
      [
        " al",
        "though"
      ],
      [
        "av",
        "es"
      ],
      [
        "ru",
        "ary"
      ],
      [
        "f",
        "e"
      ],
      [
        " s",
        "ent"
      ],
      [
        "al",
        "ion"
      ],
      [
        " an",
        "other"
      ],
      [
        " sp",
        "e"
      ],
      [
        " ev",
        "ent"
      ],
      [
        "oy",
        "al"
      ],
      [
        "c",
        "on"
      ],
      [
        "p",
        "ted"
      ],
      [
        " C",
        "an"
      ],
      [
        " con",
        "stru"
      ],
      [
        "ag",
        "es"
      ],
      [
        " de",
        "ath"
      ],
      [
        " contin",
        "ued"
      ],
      [
        " memb",
        "ers"
      ],
      [
        "a",
        "e"
      ],
      [
        "i",
        "or"
      ],
      [
        "p",
        "ar"
      ],
      [
        "r",
        "t"
      ],
      [
        "it",
        "al"
      ],
      [
        " st",
        "ill"
      ],
      [
        "ul",
        "u"
      ],
      [
        "ak",
        "es"
      ],
      [
        " ex",
        "pl"
      ],
      [
        " or",
        "d"
      ],
      [
        " pos",
        "ition"
      ],
      [
        "at",
        "ic"
      ],
      [
        " M",
        "ich"
      ],
      [
        " r",
        "ed"
      ],
      [
        " dis",
        "c"
      ],
      [
        " day",
        "s"
      ],
      [
        "w",
        "h"
      ],
      [
        "ed",
        "er"
      ],
      [
        " c",
        "ross"
      ],
      [
        " pre",
        "vious"
      ],
      [
        "ik",
        "al"
      ],
      [
        "A",
        "A"
      ],
      [
        "ur",
        "t"
      ],
      [
        "ec",
        "h"
      ],
      [
        " J",
        "ordan"
      ],
      [
        " E",
        "u"
      ],
      [
        "ber",
        "t"
      ],
      [
        " cont",
        "r"
      ],
      [
        " res",
        "ult"
      ],
      [
        "iz",
        "e"
      ],
      [
        " charac",
        "ter"
      ],
      [
        "m",
        "a"
      ],
      [
        "m",
        "as"
      ],
      [
        "ro",
        "te"
      ],
      [
        " m",
        "ark"
      ],
      [
        " T",
        "own"
      ],
      [
        "om",
        "b"
      ],
      [
        "ir",
        "c"
      ],
      [
        " g",
        "ener"
      ],
      [
        " R",
        "iver"
      ],
      [
        " D",
        "ivision"
      ],
      [
        "ff",
        "ic"
      ],
      [
        "gy",
        "pt"
      ],
      [
        " s",
        "chool"
      ],
      [
        " w",
        "ay"
      ],
      [
        " b",
        "ased"
      ],
      [
        "im",
        "ent"
      ],
      [
        "ce",
        "pt"
      ],
      [
        " W",
        "e"
      ],
      [
        " Ch",
        "ar"
      ],
      [
        " Ro",
        "ad"
      ],
      [
        "l",
        "i"
      ],
      [
        " t",
        "it"
      ],
      [
        "re",
        "g"
      ],
      [
        " o",
        "ld"
      ],
      [
        " The",
        "se"
      ],
      [
        "ri",
        "ed"
      ],
      [
        " K",
        "ing"
      ],
      [
        " St",
        "ate"
      ],
      [
        " mov",
        "ed"
      ],
      [
        "l",
        "o"
      ],
      [
        " in",
        "it"
      ],
      [
        "il",
        "le"
      ],
      [
        " e",
        "qu"
      ],
      [
        " G",
        "o"
      ],
      [
        " or",
        "der"
      ],
      [
        " mil",
        "itary"
      ],
      [
        " m",
        "m"
      ],
      [
        " m",
        "ar"
      ],
      [
        " h",
        "our"
      ],
      [
        "ur",
        "re"
      ],
      [
        " B",
        "y"
      ],
      [
        " st",
        "e"
      ],
      [
        "int",
        "ulu"
      ],
      [
        " Ar",
        "my"
      ],
      [
        " est",
        "abl"
      ],
      [
        " be",
        "h"
      ],
      [
        " loc",
        "al"
      ],
      [
        "rap",
        "h"
      ],
      [
        " add",
        "ition"
      ],
      [
        " dest",
        "roy"
      ],
      [
        "s",
        "c"
      ],
      [
        "as",
        "k"
      ],
      [
        "am",
        "b"
      ],
      [
        " B",
        "ur"
      ],
      [
        "el",
        "t"
      ],
      [
        " g",
        "reat"
      ],
      [
        " he",
        "avy"
      ],
      [
        " P",
        "r"
      ],
      [
        " P",
        "ar"
      ],
      [
        " W",
        "ill"
      ],
      [
        " god",
        "s"
      ],
      [
        " describ",
        "ed"
      ],
      [
        "A",
        "S"
      ],
      [
        "g",
        "es"
      ],
      [
        "o",
        "ot"
      ],
      [
        " T",
        "ikal"
      ],
      [
        " l",
        "ast"
      ],
      [
        "ver",
        "ed"
      ],
      [
        "ap",
        "e"
      ],
      [
        "od",
        "y"
      ],
      [
        " O",
        "r"
      ],
      [
        " ar",
        "ch"
      ],
      [
        " per",
        "iod"
      ],
      [
        "ne",
        "y"
      ],
      [
        "tend",
        "ed"
      ],
      [
        "c",
        "ent"
      ],
      [
        "er",
        "ing"
      ],
      [
        " p",
        "ur"
      ],
      [
        " h",
        "i"
      ],
      [
        " l",
        "ow"
      ],
      [
        " C",
        "ity"
      ],
      [
        " R",
        "eg"
      ],
      [
        "ap",
        "p"
      ],
      [
        " Mar",
        "ch"
      ],
      [
        " batt",
        "le"
      ],
      [
        " sy",
        "stem"
      ],
      [
        " dif",
        "fer"
      ],
      [
        "c",
        "hes"
      ],
      [
        "f",
        "ic"
      ],
      [
        "t",
        "r"
      ],
      [
        " t",
        "ra"
      ],
      [
        " w",
        "orld"
      ],
      [
        "at",
        "ure"
      ],
      [
        "en",
        "se"
      ],
      [
        " l",
        "ost"
      ],
      [
        "ir",
        "st"
      ],
      [
        "iv",
        "il"
      ],
      [
        " R",
        "ich"
      ],
      [
        " Austral",
        "ia"
      ],
      [
        "s",
        "ion"
      ],
      [
        "en",
        "g"
      ],
      [
        " b",
        "est"
      ],
      [
        " B",
        "e"
      ],
      [
        " st",
        "at"
      ],
      [
        " E",
        "gypt"
      ],
      [
        " de",
        "b"
      ],
      [
        " pro",
        "p"
      ],
      [
        " Y",
        "ou"
      ],
      [
        "b",
        "or"
      ],
      [
        "v",
        "ens"
      ],
      [
        "v",
        "ision"
      ],
      [
        " t",
        "ropical"
      ],
      [
        " o",
        "pp"
      ],
      [
        "id",
        "ian"
      ],
      [
        "ens",
        "ive"
      ],
      [
        "i",
        "ers"
      ],
      [
        "w",
        "ith"
      ],
      [
        "y",
        "ls"
      ],
      [
        "he",
        "st"
      ],
      [
        " s",
        "it"
      ],
      [
        "re",
        "en"
      ],
      [
        " f",
        "ore"
      ],
      [
        "an",
        "n"
      ],
      [
        " he",
        "l"
      ],
      [
        " ar",
        "r"
      ],
      [
        "ress",
        "ion"
      ],
      [
        " Feb",
        "ruary"
      ],
      [
        "m",
        "ar"
      ],
      [
        "on",
        "ic"
      ],
      [
        " f",
        "ight"
      ],
      [
        " m",
        "ed"
      ],
      [
        "il",
        "ar"
      ],
      [
        " e",
        "as"
      ],
      [
        " st",
        "ri"
      ],
      [
        " v",
        "is"
      ],
      [
        " pro",
        "g"
      ],
      [
        " In",
        "f"
      ],
      [
        "ub",
        "lic"
      ],
      [
        " perfor",
        "man"
      ],
      [
        " hist",
        "ory"
      ],
      [
        " iron",
        "cl"
      ],
      [
        "a",
        "ul"
      ],
      [
        "g",
        "o"
      ],
      [
        "i",
        "qu"
      ],
      [
        "l",
        "ine"
      ],
      [
        "nd",
        "er"
      ],
      [
        " f",
        "re"
      ],
      [
        " b",
        "re"
      ],
      [
        " re",
        "view"
      ],
      [
        " H",
        "is"
      ],
      [
        " G",
        "eneral"
      ],
      [
        " com",
        "b"
      ],
      [
        " ex",
        "per"
      ],
      [
        " ne",
        "ver"
      ],
      [
        " bo",
        "ok"
      ],
      [
        "o",
        "x"
      ],
      [
        " s",
        "ite"
      ],
      [
        " w",
        "rote"
      ],
      [
        " l",
        "im"
      ],
      [
        "us",
        "h"
      ],
      [
        " N",
        "Y"
      ],
      [
        " kill",
        "ed"
      ],
      [
        "i",
        "um"
      ],
      [
        " of",
        "ten"
      ],
      [
        " to",
        "tal"
      ],
      [
        " th",
        "ose"
      ],
      [
        " A",
        "f"
      ],
      [
        " I",
        "m"
      ],
      [
        "em",
        "or"
      ],
      [
        "in",
        "c"
      ],
      [
        "en",
        "ces"
      ],
      [
        " re",
        "al"
      ],
      [
        " B",
        "intulu"
      ],
      [
        " r",
        "a"
      ],
      [
        "the",
        "ast"
      ],
      [
        "amp",
        "ions"
      ],
      [
        " est",
        "im"
      ],
      [
        " Eu",
        "rop"
      ],
      [
        "f",
        "ield"
      ],
      [
        "g",
        "et"
      ],
      [
        " w",
        "ater"
      ],
      [
        "at",
        "io"
      ],
      [
        " f",
        "ro"
      ],
      [
        " c",
        "amp"
      ],
      [
        " b",
        "ar"
      ],
      [
        " M",
        "a"
      ],
      [
        "ot",
        "t"
      ],
      [
        "ric",
        "t"
      ],
      [
        " pr",
        "im"
      ],
      [
        " Phil",
        "ipp"
      ],
      [
        "n",
        "ospond"
      ],
      [
        " f",
        "ront"
      ],
      [
        "ar",
        "a"
      ],
      [
        "al",
        "es"
      ],
      [
        "al",
        "th"
      ],
      [
        "st",
        "r"
      ],
      [
        "el",
        "a"
      ],
      [
        " sh",
        "ort"
      ],
      [
        " ch",
        "ild"
      ],
      [
        " str",
        "ong"
      ],
      [
        "k",
        "i"
      ],
      [
        "l",
        "a"
      ],
      [
        " a",
        "way"
      ],
      [
        " f",
        "ig"
      ],
      [
        " c",
        "ycl"
      ],
      [
        "ro",
        "du"
      ],
      [
        " S",
        "an"
      ],
      [
        " l",
        "ife"
      ],
      [
        " st",
        "art"
      ],
      [
        " con",
        "v"
      ],
      [
        " su",
        "g"
      ],
      [
        " su",
        "ff"
      ],
      [
        " ro",
        "ad"
      ],
      [
        "iz",
        "ation"
      ],
      [
        " Pol",
        "ish"
      ],
      [
        "t",
        "ic"
      ],
      [
        "er",
        "ry"
      ],
      [
        "at",
        "or"
      ],
      [
        " m",
        "y"
      ],
      [
        " d",
        "i"
      ],
      [
        " T",
        "r"
      ],
      [
        " A",
        "g"
      ],
      [
        "st",
        "it"
      ],
      [
        " g",
        "ames"
      ],
      [
        "iv",
        "al"
      ],
      [
        " se",
        "en"
      ],
      [
        "ab",
        "ly"
      ],
      [
        " St",
        "re"
      ],
      [
        " le",
        "g"
      ],
      [
        " cl",
        "aim"
      ],
      [
        " we",
        "ek"
      ],
      [
        " comm",
        "un"
      ],
      [
        " pol",
        "it"
      ],
      [
        " pub",
        "l"
      ],
      [
        " ver",
        "y"
      ],
      [
        "p",
        "any"
      ],
      [
        "it",
        "er"
      ],
      [
        " c",
        "as"
      ],
      [
        " in",
        "s"
      ],
      [
        " p",
        "it"
      ],
      [
        " The",
        "re"
      ],
      [
        " st",
        "ated"
      ],
      [
        " H",
        "ar"
      ],
      [
        " N",
        "avy"
      ],
      [
        "igh",
        "ts"
      ],
      [
        "ect",
        "ive"
      ],
      [
        " hist",
        "or"
      ],
      [
        "it",
        "her"
      ],
      [
        "an",
        "ts"
      ],
      [
        "an",
        "ks"
      ],
      [
        " m",
        "or"
      ],
      [
        " C",
        "al"
      ],
      [
        " n",
        "ight"
      ],
      [
        " st",
        "and"
      ],
      [
        " r",
        "ange"
      ],
      [
        " sh",
        "ot"
      ],
      [
        " rep",
        "resent"
      ],
      [
        " inf",
        "lu"
      ],
      [
        "iet",
        "y"
      ],
      [
        "h",
        "is"
      ],
      [
        " w",
        "ill"
      ],
      [
        "en",
        "n"
      ],
      [
        " f",
        "ac"
      ],
      [
        "is",
        "c"
      ],
      [
        " b",
        "ase"
      ],
      [
        " to",
        "wn"
      ],
      [
        " S",
        "quadron"
      ],
      [
        " W",
        "hen"
      ],
      [
        "ra",
        "w"
      ],
      [
        "way",
        "s"
      ],
      [
        "lect",
        "ed"
      ],
      [
        " care",
        "er"
      ],
      [
        "h",
        "aw"
      ],
      [
        "o",
        "o"
      ],
      [
        " a",
        "p"
      ],
      [
        " c",
        "irc"
      ],
      [
        "es",
        "tern"
      ],
      [
        " m",
        "a"
      ],
      [
        " th",
        "a"
      ],
      [
        " F",
        "l"
      ],
      [
        " sur",
        "v"
      ],
      [
        "d",
        "s"
      ],
      [
        "e",
        "al"
      ],
      [
        "t",
        "ain"
      ],
      [
        "v",
        "ing"
      ],
      [
        "at",
        "ch"
      ],
      [
        "is",
        "ter"
      ],
      [
        "om",
        "an"
      ],
      [
        " R",
        "ep"
      ],
      [
        "fer",
        "red"
      ],
      [
        " am",
        "ong"
      ],
      [
        " develop",
        "ed"
      ],
      [
        " Scient",
        "ology"
      ],
      [
        "v",
        "es"
      ],
      [
        "y",
        "n"
      ],
      [
        "es",
        "c"
      ],
      [
        " to",
        "o"
      ],
      [
        " g",
        "l"
      ],
      [
        " for",
        "med"
      ],
      [
        "ay",
        "ing"
      ],
      [
        " R",
        "h"
      ],
      [
        " P",
        "o"
      ],
      [
        "um",
        "b"
      ],
      [
        "ial",
        "s"
      ],
      [
        " loc",
        "ated"
      ],
      [
        " prom",
        "ot"
      ],
      [
        "g",
        "r"
      ],
      [
        "m",
        "ond"
      ],
      [
        " h",
        "owever"
      ],
      [
        " C",
        "ent"
      ],
      [
        " e",
        "l"
      ],
      [
        "im",
        "ately"
      ],
      [
        " D",
        "ep"
      ],
      [
        " v",
        "ict"
      ],
      [
        "act",
        "ion"
      ],
      [
        " act",
        "iv"
      ],
      [
        " Is",
        "land"
      ],
      [
        "S",
        "t"
      ],
      [
        "l",
        "ess"
      ],
      [
        "m",
        "ing"
      ],
      [
        "w",
        "ork"
      ],
      [
        " t",
        "ake"
      ],
      [
        "in",
        "ation"
      ],
      [
        " re",
        "v"
      ],
      [
        " re",
        "ported"
      ],
      [
        " S",
        "e"
      ],
      [
        "et",
        "h"
      ],
      [
        " R",
        "ec"
      ],
      [
        "cc",
        "ording"
      ],
      [
        " po",
        "int"
      ],
      [
        " produ",
        "ced"
      ],
      [
        " fo",
        "ot"
      ],
      [
        " pres",
        "ent"
      ],
      [
        " dam",
        "age"
      ],
      [
        " wind",
        "s"
      ],
      [
        " t",
        "imes"
      ],
      [
        "in",
        "ess"
      ],
      [
        " w",
        "ent"
      ],
      [
        " f",
        "i"
      ],
      [
        " c",
        "ou"
      ],
      [
        " p",
        "ain"
      ],
      [
        " g",
        "iven"
      ],
      [
        " H",
        "igh"
      ],
      [
        " R",
        "uss"
      ],
      [
        " P",
        "er"
      ],
      [
        " N",
        "or"
      ],
      [
        " is",
        "land"
      ],
      [
        "ri",
        "a"
      ],
      [
        " v",
        "ideo"
      ],
      [
        " reg",
        "ion"
      ],
      [
        " em",
        "b"
      ],
      [
        " Batt",
        "le"
      ],
      [
        "e",
        "ated"
      ],
      [
        "or",
        "ts"
      ],
      [
        " p",
        "ut"
      ],
      [
        " d",
        "et"
      ],
      [
        " h",
        "it"
      ],
      [
        " th",
        "ough"
      ],
      [
        " A",
        "nd"
      ],
      [
        "ent",
        "ion"
      ],
      [
        "ad",
        "o"
      ],
      [
        "ec",
        "k"
      ],
      [
        "ay",
        "er"
      ],
      [
        " G",
        "r"
      ],
      [
        " J",
        "ack"
      ],
      [
        "ree",
        "k"
      ],
      [
        " return",
        "ed"
      ],
      [
        "ivers",
        "ity"
      ],
      [
        " vi",
        "ew"
      ],
      [
        "c",
        "ess"
      ],
      [
        "m",
        "ost"
      ],
      [
        " t",
        "est"
      ],
      [
        " a",
        "v"
      ],
      [
        " c",
        "ult"
      ],
      [
        "ic",
        "es"
      ],
      [
        " h",
        "aving"
      ],
      [
        " A",
        "ss"
      ],
      [
        " l",
        "aw"
      ],
      [
        " e",
        "y"
      ],
      [
        " st",
        "y"
      ],
      [
        "th",
        "at"
      ],
      [
        " D",
        "uring"
      ],
      [
        " F",
        "ey"
      ],
      [
        " rem",
        "ained"
      ],
      [
        "ific",
        "ant"
      ],
      [
        " met",
        "res"
      ],
      [
        " ",
        "nd"
      ],
      [
        "t",
        "ar"
      ],
      [
        " a",
        "ff"
      ],
      [
        " f",
        "av"
      ],
      [
        " m",
        "aking"
      ],
      [
        "ic",
        "a"
      ],
      [
        " h",
        "ig"
      ],
      [
        "le",
        "ar"
      ],
      [
        " C",
        "ount"
      ],
      [
        "ut",
        "y"
      ],
      [
        " R",
        "oyal"
      ],
      [
        "ct",
        "or"
      ],
      [
        " pro",
        "f"
      ],
      [
        "se",
        "nd"
      ],
      [
        "ie",
        "f"
      ],
      [
        "end",
        "es"
      ],
      [
        "uth",
        "or"
      ],
      [
        "a",
        "ur"
      ],
      [
        "y",
        "ing"
      ],
      [
        " s",
        "ound"
      ],
      [
        "re",
        "am"
      ],
      [
        " b",
        "u"
      ],
      [
        " m",
        "iss"
      ],
      [
        "ad",
        "ed"
      ],
      [
        "ac",
        "y"
      ],
      [
        " g",
        "et"
      ],
      [
        " st",
        "ory"
      ],
      [
        " H",
        "ill"
      ],
      [
        "em",
        "s"
      ],
      [
        " D",
        "u"
      ],
      [
        " r",
        "ight"
      ],
      [
        " W",
        "ith"
      ],
      [
        " O",
        "ne"
      ],
      [
        " le",
        "vel"
      ],
      [
        " cl",
        "ose"
      ],
      [
        " us",
        "ing"
      ],
      [
        " im",
        "port"
      ],
      [
        " ev",
        "ac"
      ],
      [
        "ail",
        "ed"
      ],
      [
        " fl",
        "o"
      ],
      [
        " pe",
        "ak"
      ],
      [
        " rel",
        "ig"
      ],
      [
        " ac",
        "ross"
      ],
      [
        "c",
        "her"
      ],
      [
        "d",
        "om"
      ],
      [
        " c",
        "e"
      ],
      [
        " c",
        "ut"
      ],
      [
        "ro",
        "s"
      ],
      [
        " h",
        "ow"
      ],
      [
        " re",
        "ached"
      ],
      [
        "ur",
        "g"
      ],
      [
        " with",
        "out"
      ],
      [
        "ri",
        "es"
      ],
      [
        "por",
        "ts"
      ],
      [
        "ollow",
        "ing"
      ],
      [
        "fer",
        "ence"
      ],
      [
        " Ste",
        "vens"
      ],
      [
        " origin",
        "al"
      ],
      [
        " consid",
        "ered"
      ],
      [
        " f",
        "ind"
      ],
      [
        " c",
        "rew"
      ],
      [
        " p",
        "ress"
      ],
      [
        " m",
        "o"
      ],
      [
        " S",
        "l"
      ],
      [
        " S",
        "ec"
      ],
      [
        " J",
        "ew"
      ],
      [
        "pl",
        "ay"
      ],
      [
        " ag",
        "re"
      ],
      [
        " sy",
        "n"
      ],
      [
        " Inf",
        "antry"
      ],
      [
        "e",
        "ks"
      ],
      [
        " s",
        "w"
      ],
      [
        "it",
        "ar"
      ],
      [
        " f",
        "ace"
      ],
      [
        " g",
        "old"
      ],
      [
        " r",
        "ad"
      ],
      [
        " W",
        "est"
      ],
      [
        "ri",
        "or"
      ],
      [
        " ro",
        "und"
      ],
      [
        "ran",
        "g"
      ],
      [
        " Ind",
        "ian"
      ],
      [
        " ever",
        "y"
      ],
      [
        " differ",
        "ent"
      ],
      [
        "ampions",
        "hip"
      ],
      [
        "i",
        "ec"
      ],
      [
        "k",
        "ed"
      ],
      [
        "in",
        "ning"
      ],
      [
        "en",
        "es"
      ],
      [
        " to",
        "ur"
      ],
      [
        " e",
        "ight"
      ],
      [
        " M",
        "al"
      ],
      [
        " g",
        "round"
      ],
      [
        " st",
        "a"
      ],
      [
        " P",
        "ark"
      ],
      [
        "ri",
        "pt"
      ],
      [
        " un",
        "its"
      ],
      [
        " te",
        "le"
      ],
      [
        " mil",
        "es"
      ],
      [
        " hum",
        "an"
      ],
      [
        " Will",
        "iam"
      ],
      [
        " sug",
        "gest"
      ],
      [
        "a",
        "ign"
      ],
      [
        "u",
        "a"
      ],
      [
        " a",
        "ction"
      ],
      [
        "in",
        "ts"
      ],
      [
        " f",
        "ri"
      ],
      [
        "ur",
        "b"
      ],
      [
        "ig",
        "an"
      ],
      [
        " D",
        "e"
      ],
      [
        " L",
        "ond"
      ],
      [
        "ord",
        "s"
      ],
      [
        "oun",
        "ter"
      ],
      [
        " buil",
        "ding"
      ],
      [
        " German",
        "y"
      ],
      [
        " mod",
        "ern"
      ],
      [
        " count",
        "ry"
      ],
      [
        " fam",
        "ily"
      ],
      [
        " ",
        "u"
      ],
      [
        " ",
        "ide"
      ],
      [
        "p",
        "ing"
      ],
      [
        "in",
        "ted"
      ],
      [
        " s",
        "aw"
      ],
      [
        "en",
        "ced"
      ],
      [
        " f",
        "ar"
      ],
      [
        " c",
        "or"
      ],
      [
        "is",
        "ing"
      ],
      [
        " b",
        "us"
      ],
      [
        " M",
        "ark"
      ],
      [
        " r",
        "ul"
      ],
      [
        "ov",
        "ed"
      ],
      [
        " ro",
        "ute"
      ],
      [
        "ric",
        "k"
      ],
      [
        " tit",
        "le"
      ],
      [
        "f",
        "ord"
      ],
      [
        "s",
        "erv"
      ],
      [
        "it",
        "ive"
      ],
      [
        " d",
        "oll"
      ],
      [
        " st",
        "age"
      ],
      [
        " pl",
        "aced"
      ],
      [
        "ra",
        "f"
      ],
      [
        "ph",
        "oon"
      ],
      [
        " invol",
        "ved"
      ],
      [
        "i",
        "ence"
      ],
      [
        "p",
        "o"
      ],
      [
        "s",
        "u"
      ],
      [
        " f",
        "un"
      ],
      [
        "ic",
        "o"
      ],
      [
        " n",
        "aval"
      ],
      [
        "ly",
        "the"
      ],
      [
        "om",
        "m"
      ],
      [
        " N",
        "e"
      ],
      [
        " E",
        "m"
      ],
      [
        " E",
        "ast"
      ],
      [
        " sh",
        "ould"
      ],
      [
        "ep",
        "end"
      ],
      [
        " contro",
        "l"
      ],
      [
        "eder",
        "al"
      ],
      [
        "e",
        "en"
      ],
      [
        "t",
        "ies"
      ],
      [
        " w",
        "ood"
      ],
      [
        "at",
        "a"
      ],
      [
        " c",
        "al"
      ],
      [
        " c",
        "ourt"
      ],
      [
        "as",
        "ion"
      ],
      [
        " h",
        "om"
      ],
      [
        "le",
        "t"
      ],
      [
        " A",
        "c"
      ],
      [
        " n",
        "ational"
      ],
      [
        " g",
        "ave"
      ],
      [
        " D",
        "o"
      ],
      [
        "ers",
        "haw"
      ],
      [
        " v",
        "e"
      ],
      [
        " tr",
        "ad"
      ],
      [
        " dis",
        "co"
      ],
      [
        " play",
        "er"
      ],
      [
        "oun",
        "ced"
      ],
      [
        " oper",
        "ations"
      ],
      [
        " Mer",
        "idian"
      ],
      [
        "C",
        "h"
      ],
      [
        "at",
        "ors"
      ],
      [
        " c",
        "our"
      ],
      [
        " m",
        "ember"
      ],
      [
        " M",
        "ad"
      ],
      [
        " M",
        "endes"
      ],
      [
        "iv",
        "a"
      ],
      [
        "iv",
        "id"
      ],
      [
        " R",
        "ock"
      ],
      [
        " N",
        "B"
      ],
      [
        "art",
        "ment"
      ],
      [
        " le",
        "ast"
      ],
      [
        "ign",
        "ed"
      ],
      [
        " bec",
        "ome"
      ],
      [
        " sub",
        "sequ"
      ],
      [
        " Americ",
        "a"
      ],
      [
        " rele",
        "ase"
      ],
      [
        " spec",
        "ial"
      ],
      [
        " Mc",
        "C"
      ],
      [
        "f",
        "all"
      ],
      [
        "n",
        "el"
      ],
      [
        "r",
        "d"
      ],
      [
        "r",
        "n"
      ],
      [
        "r",
        "ation"
      ],
      [
        "u",
        "ation"
      ],
      [
        "w",
        "a"
      ],
      [
        " m",
        "ur"
      ],
      [
        " A",
        "ward"
      ],
      [
        " l",
        "ess"
      ],
      [
        " e",
        "lect"
      ],
      [
        "ly",
        "ing"
      ],
      [
        "ec",
        "ut"
      ],
      [
        "em",
        "y"
      ],
      [
        " Y",
        "ear"
      ],
      [
        " sim",
        "ilar"
      ],
      [
        " Stre",
        "et"
      ],
      [
        "R",
        "A"
      ],
      [
        "l",
        "m"
      ],
      [
        " s",
        "ect"
      ],
      [
        " f",
        "elt"
      ],
      [
        " d",
        "ied"
      ],
      [
        " S",
        "en"
      ],
      [
        " S",
        "up"
      ],
      [
        "st",
        "er"
      ],
      [
        " M",
        "in"
      ],
      [
        "ol",
        "ution"
      ],
      [
        "em",
        "ents"
      ],
      [
        " E",
        "ar"
      ],
      [
        "op",
        "h"
      ],
      [
        " se",
        "e"
      ],
      [
        " v",
        "ol"
      ],
      [
        " co",
        "ver"
      ],
      [
        " sc",
        "ul"
      ],
      [
        " dec",
        "l"
      ],
      [
        " head",
        "s"
      ],
      [
        " follow",
        "ed"
      ],
      [
        " you",
        "ng"
      ],
      [
        " success",
        "ful"
      ],
      [
        "h",
        "a"
      ],
      [
        "n",
        "ot"
      ],
      [
        " s",
        "on"
      ],
      [
        " w",
        "ide"
      ],
      [
        "an",
        "ish"
      ],
      [
        " in",
        "tern"
      ],
      [
        " p",
        "ra"
      ],
      [
        " m",
        "ag"
      ],
      [
        " m",
        "ph"
      ],
      [
        " M",
        "ount"
      ],
      [
        "ut",
        "es"
      ],
      [
        " J",
        "ames"
      ],
      [
        "um",
        "ents"
      ],
      [
        "op",
        "e"
      ],
      [
        " O",
        "per"
      ],
      [
        " pro",
        "ject"
      ],
      [
        " him",
        "self"
      ],
      [
        " serv",
        "ed"
      ],
      [
        " Can",
        "ad"
      ],
      [
        " t",
        "en"
      ],
      [
        "on",
        "y"
      ],
      [
        "at",
        "in"
      ],
      [
        " f",
        "il"
      ],
      [
        " c",
        "ase"
      ],
      [
        " in",
        "j"
      ],
      [
        " h",
        "ost"
      ],
      [
        " S",
        "y"
      ],
      [
        " C",
        "or"
      ],
      [
        "ac",
        "es"
      ],
      [
        " M",
        "ex"
      ],
      [
        "ec",
        "hn"
      ],
      [
        " H",
        "er"
      ],
      [
        "ul",
        "f"
      ],
      [
        " r",
        "ain"
      ],
      [
        " L",
        "a"
      ],
      [
        " J",
        "os"
      ],
      [
        " E",
        "x"
      ],
      [
        " not",
        "ed"
      ],
      [
        " un",
        "it"
      ],
      [
        " sc",
        "ene"
      ],
      [
        " ne",
        "ed"
      ],
      [
        " cent",
        "ral"
      ],
      [
        " song",
        "s"
      ],
      [
        " Le",
        "ague"
      ],
      [
        "enc",
        "y"
      ],
      [
        " Christ",
        "mas"
      ],
      [
        " sold",
        "iers"
      ],
      [
        " Ge",
        "or"
      ],
      [
        "u",
        "z"
      ],
      [
        "w",
        "est"
      ],
      [
        " t",
        "re"
      ],
      [
        "at",
        "ives"
      ],
      [
        " f",
        "if"
      ],
      [
        " f",
        "leet"
      ],
      [
        " c",
        "ivil"
      ],
      [
        " b",
        "omb"
      ],
      [
        "al",
        "d"
      ],
      [
        " h",
        "o"
      ],
      [
        " l",
        "i"
      ],
      [
        " B",
        "est"
      ],
      [
        " for",
        "t"
      ],
      [
        " R",
        "ad"
      ],
      [
        "os",
        "ing"
      ],
      [
        "ab",
        "or"
      ],
      [
        " sup",
        "p"
      ],
      [
        " feat",
        "ures"
      ],
      [
        " crit",
        "ic"
      ],
      [
        " var",
        "ious"
      ],
      [
        " beh",
        "ind"
      ],
      [
        " performan",
        "ce"
      ],
      [
        " ",
        "esc"
      ],
      [
        "n",
        "ce"
      ],
      [
        "il",
        "i"
      ],
      [
        " re",
        "b"
      ],
      [
        " S",
        "ome"
      ],
      [
        "ad",
        "es"
      ],
      [
        " l",
        "ack"
      ],
      [
        " M",
        "e"
      ],
      [
        " on",
        "ce"
      ],
      [
        " P",
        "e"
      ],
      [
        " P",
        "ort"
      ],
      [
        " con",
        "d"
      ],
      [
        " r",
        "u"
      ],
      [
        "ct",
        "ure"
      ],
      [
        " k",
        "il"
      ],
      [
        "og",
        "raph"
      ],
      [
        " It",
        "al"
      ],
      [
        " mon",
        "ument"
      ],
      [
        " attem",
        "pt"
      ],
      [
        "a",
        "ugh"
      ],
      [
        "n",
        "al"
      ],
      [
        "s",
        "ed"
      ],
      [
        " a",
        "uthor"
      ],
      [
        " f",
        "ull"
      ],
      [
        " h",
        "old"
      ],
      [
        " T",
        "y"
      ],
      [
        " B",
        "ar"
      ],
      [
        " B",
        "ul"
      ],
      [
        " with",
        "d"
      ],
      [
        " G",
        "A"
      ],
      [
        "ill",
        "o"
      ],
      [
        "all",
        "s"
      ],
      [
        " includ",
        "e"
      ],
      [
        "use",
        "um"
      ],
      [
        " pol",
        "ice"
      ],
      [
        " pop",
        "ulation"
      ],
      [
        " star",
        "ted"
      ],
      [
        " Church",
        "ill"
      ],
      [
        " Town",
        "send"
      ],
      [
        " Count",
        "y"
      ],
      [
        " Lond",
        "on"
      ],
      [
        " ",
        "X"
      ],
      [
        "c",
        "an"
      ],
      [
        "k",
        "en"
      ],
      [
        "w",
        "ere"
      ],
      [
        " f",
        "ather"
      ],
      [
        "an",
        "ces"
      ],
      [
        " B",
        "ro"
      ],
      [
        "id",
        "ing"
      ],
      [
        " g",
        "en"
      ],
      [
        "art",
        "y"
      ],
      [
        " ch",
        "ang"
      ],
      [
        " He",
        "ad"
      ],
      [
        "mer",
        "c"
      ],
      [
        " Un",
        "ion"
      ],
      [
        "hip",
        "s"
      ],
      [
        " work",
        "s"
      ],
      [
        " Brit",
        "ain"
      ],
      [
        " Al",
        "though"
      ],
      [
        " batt",
        "les"
      ],
      [
        " Les",
        "ter"
      ],
      [
        " writ",
        "ten"
      ],
      [
        " Batt",
        "alion"
      ],
      [
        " occ",
        "up"
      ],
      [
        " partic",
        "ular"
      ],
      [
        "l",
        "t"
      ],
      [
        "o",
        "ice"
      ],
      [
        "it",
        "i"
      ],
      [
        " f",
        "ell"
      ],
      [
        "ing",
        "ton"
      ],
      [
        " T",
        "wo"
      ],
      [
        " S",
        "m"
      ],
      [
        " S",
        "u"
      ],
      [
        "st",
        "e"
      ],
      [
        " l",
        "oss"
      ],
      [
        " R",
        "aj"
      ],
      [
        " L",
        "ittle"
      ],
      [
        "ist",
        "ic"
      ],
      [
        "od",
        "es"
      ],
      [
        " ab",
        "le"
      ],
      [
        " ent",
        "ire"
      ],
      [
        " spec",
        "ies"
      ],
      [
        " ca",
        "used"
      ],
      [
        " develop",
        "ment"
      ],
      [
        "etr",
        "arch"
      ],
      [
        "nospond",
        "yls"
      ],
      [
        "d",
        "le"
      ],
      [
        "n",
        "ow"
      ],
      [
        "o",
        "ff"
      ],
      [
        " s",
        "um"
      ],
      [
        " w",
        "er"
      ],
      [
        " c",
        "ru"
      ],
      [
        " b",
        "a"
      ],
      [
        " T",
        "em"
      ],
      [
        "am",
        "ent"
      ],
      [
        "om",
        "en"
      ],
      [
        "ur",
        "ity"
      ],
      [
        " M",
        "on"
      ],
      [
        " B",
        "el"
      ],
      [
        " P",
        "en"
      ],
      [
        " con",
        "du"
      ],
      [
        " r",
        "iver"
      ],
      [
        "ers",
        "on"
      ],
      [
        " G",
        "reat"
      ],
      [
        "ound",
        "ed"
      ],
      [
        "ines",
        "e"
      ],
      [
        " Com",
        "pany"
      ],
      [
        " high",
        "way"
      ],
      [
        " origin",
        "ally"
      ],
      [
        " Kore",
        "an"
      ],
      [
        " ord",
        "ered"
      ],
      [
        " estim",
        "ated"
      ],
      [
        "ivid",
        "ual"
      ],
      [
        "A",
        "fter"
      ],
      [
        "g",
        "round"
      ],
      [
        "h",
        "ib"
      ],
      [
        "p",
        "ir"
      ],
      [
        "t",
        "t"
      ],
      [
        " a",
        "ud"
      ],
      [
        " s",
        "low"
      ],
      [
        " f",
        "oc"
      ],
      [
        "is",
        "er"
      ],
      [
        "ro",
        "up"
      ],
      [
        " T",
        "o"
      ],
      [
        " T",
        "ru"
      ],
      [
        " l",
        "ist"
      ],
      [
        " P",
        "ac"
      ],
      [
        " con",
        "n"
      ],
      [
        " com",
        "ment"
      ],
      [
        " ab",
        "ove"
      ],
      [
        "ress",
        "ed"
      ],
      [
        " po",
        "et"
      ],
      [
        " col",
        "l"
      ],
      [
        " kn",
        "ow"
      ],
      [
        " bo",
        "ats"
      ],
      [
        " qu",
        "ick"
      ],
      [
        " pop",
        "ular"
      ],
      [
        " comple",
        "te"
      ],
      [
        " Philipp",
        "ines"
      ],
      [
        "c",
        "er"
      ],
      [
        "d",
        "ed"
      ],
      [
        "v",
        "ille"
      ],
      [
        " a",
        "ge"
      ],
      [
        " a",
        "ward"
      ],
      [
        "ic",
        "an"
      ],
      [
        " h",
        "on"
      ],
      [
        "le",
        "g"
      ],
      [
        " re",
        "n"
      ],
      [
        " C",
        "reek"
      ],
      [
        " B",
        "lythe"
      ],
      [
        " de",
        "ploy"
      ],
      [
        " are",
        "as"
      ],
      [
        "ach",
        "ing"
      ],
      [
        " en",
        "c"
      ],
      [
        " comp",
        "et"
      ],
      [
        "end",
        "ed"
      ],
      [
        " col",
        "on"
      ],
      [
        " int",
        "ens"
      ],
      [
        " sign",
        "ificant"
      ],
      [
        " bro",
        "ad"
      ],
      [
        " feat",
        "ured"
      ],
      [
        " For",
        "ce"
      ],
      [
        " occ",
        "ur"
      ],
      [
        " fe",
        "et"
      ],
      [
        " Wh",
        "ile"
      ],
      [
        " month",
        "s"
      ],
      [
        " sty",
        "le"
      ],
      [
        " fri",
        "end"
      ],
      [
        "a",
        "el"
      ],
      [
        "k",
        "a"
      ],
      [
        "k",
        "et"
      ],
      [
        "u",
        "ck"
      ],
      [
        "he",
        "ad"
      ],
      [
        " s",
        "a"
      ],
      [
        " p",
        "iec"
      ],
      [
        " th",
        "ought"
      ],
      [
        " A",
        "ccording"
      ],
      [
        " C",
        "ro"
      ],
      [
        "ur",
        "ric"
      ],
      [
        " M",
        "ed"
      ],
      [
        "un",
        "t"
      ],
      [
        "ul",
        "a"
      ],
      [
        " F",
        "u"
      ],
      [
        " r",
        "ank"
      ],
      [
        "if",
        "fe"
      ],
      [
        " se",
        "ven"
      ],
      [
        "oc",
        "al"
      ],
      [
        "wo",
        "od"
      ],
      [
        " co",
        "ast"
      ],
      [
        " rem",
        "ain"
      ],
      [
        " me",
        "et"
      ],
      [
        " sur",
        "round"
      ],
      [
        " arm",
        "y"
      ],
      [
        " publ",
        "ished"
      ],
      [
        "a",
        "ult"
      ],
      [
        "d",
        "ay"
      ],
      [
        "e",
        "e"
      ],
      [
        "n",
        "es"
      ],
      [
        "o",
        "ver"
      ],
      [
        "w",
        "in"
      ],
      [
        " a",
        "ver"
      ],
      [
        "it",
        "ing"
      ],
      [
        " f",
        "ree"
      ],
      [
        " to",
        "wards"
      ],
      [
        " m",
        "ot"
      ],
      [
        " T",
        "im"
      ],
      [
        " l",
        "ive"
      ],
      [
        " M",
        "or"
      ],
      [
        " M",
        "iss"
      ],
      [
        " B",
        "ea"
      ],
      [
        "ir",
        "al"
      ],
      [
        " D",
        "ay"
      ],
      [
        "est",
        "ed"
      ],
      [
        " U",
        "B"
      ],
      [
        " U",
        "K"
      ],
      [
        " Ch",
        "ina"
      ],
      [
        "ish",
        "ing"
      ],
      [
        "og",
        "n"
      ],
      [
        " comm",
        "it"
      ],
      [
        " dec",
        "ided"
      ],
      [
        "med",
        "i"
      ],
      [
        " sign",
        "ed"
      ],
      [
        " design",
        "ed"
      ],
      [
        " resp",
        "ons"
      ],
      [
        " lo",
        "ok"
      ],
      [
        "bo",
        "ard"
      ],
      [
        " la",
        "un"
      ],
      [
        "esp",
        "ite"
      ],
      [
        " stru",
        "ck"
      ],
      [
        " hour",
        "s"
      ],
      [
        "urre",
        "nt"
      ],
      [
        " ",
        "z"
      ],
      [
        "A",
        "s"
      ],
      [
        "f",
        "rom"
      ],
      [
        "h",
        "ad"
      ],
      [
        "o",
        "le"
      ],
      [
        "t",
        "i"
      ],
      [
        "u",
        "el"
      ],
      [
        " t",
        "ank"
      ],
      [
        " t",
        "echn"
      ],
      [
        "in",
        "o"
      ],
      [
        " s",
        "omet"
      ],
      [
        " w",
        "id"
      ],
      [
        " f",
        "it"
      ],
      [
        " c",
        "he"
      ],
      [
        " c",
        "reat"
      ],
      [
        "as",
        "ing"
      ],
      [
        "as",
        "ter"
      ],
      [
        " S",
        "ch"
      ],
      [
        " A",
        "ct"
      ],
      [
        "ot",
        "e"
      ],
      [
        " P",
        "et"
      ],
      [
        " N",
        "az"
      ],
      [
        " E",
        "n"
      ],
      [
        " pro",
        "b"
      ],
      [
        "ry",
        "ing"
      ],
      [
        "ib",
        "r"
      ],
      [
        " comp",
        "any"
      ],
      [
        "erv",
        "a"
      ],
      [
        " go",
        "al"
      ],
      [
        " Un",
        "iversity"
      ],
      [
        " record",
        "ed"
      ],
      [
        " serv",
        "ice"
      ],
      [
        " add",
        "ed"
      ],
      [
        " inst",
        "ead"
      ],
      [
        "j",
        "illo"
      ],
      [
        "l",
        "an"
      ],
      [
        " t",
        "aken"
      ],
      [
        " a",
        "f"
      ],
      [
        " s",
        "oc"
      ],
      [
        "or",
        "ies"
      ],
      [
        " c",
        "ert"
      ],
      [
        " in",
        "sp"
      ],
      [
        " m",
        "ount"
      ],
      [
        " d",
        "ur"
      ],
      [
        "ent",
        "ial"
      ],
      [
        " e",
        "ither"
      ],
      [
        "id",
        "s"
      ],
      [
        "iv",
        "ate"
      ],
      [
        "per",
        "or"
      ],
      [
        " V",
        "ict"
      ],
      [
        " play",
        "ers"
      ],
      [
        " po",
        "ints"
      ],
      [
        " ear",
        "l"
      ],
      [
        " inv",
        "est"
      ],
      [
        " produ",
        "ction"
      ],
      [
        "ven",
        "ue"
      ],
      [
        " Comm",
        "and"
      ],
      [
        " appear",
        "ed"
      ],
      [
        " constru",
        "ction"
      ],
      [
        "fic",
        "ult"
      ],
      [
        " polit",
        "ical"
      ],
      [
        " import",
        "ant"
      ],
      [
        "M",
        "A"
      ],
      [
        "c",
        "ing"
      ],
      [
        "l",
        "ish"
      ],
      [
        "o",
        "ke"
      ],
      [
        " t",
        "or"
      ],
      [
        "re",
        "a"
      ],
      [
        " p",
        "il"
      ],
      [
        " d",
        "ro"
      ],
      [
        " h",
        "y"
      ],
      [
        " C",
        "are"
      ],
      [
        "ac",
        "ing"
      ],
      [
        " H",
        "ol"
      ],
      [
        " D",
        "an"
      ],
      [
        "ill",
        "ery"
      ],
      [
        " pro",
        "cess"
      ],
      [
        " k",
        "ing"
      ],
      [
        "ell",
        "ig"
      ],
      [
        "per",
        "ial"
      ],
      [
        " des",
        "p"
      ],
      [
        " we",
        "eks"
      ],
      [
        " ass",
        "oci"
      ],
      [
        " mov",
        "e"
      ],
      [
        " through",
        "out"
      ],
      [
        " Sp",
        "anish"
      ],
      [
        " imp",
        "ro"
      ],
      [
        "iqu",
        "e"
      ],
      [
        " Af",
        "ric"
      ],
      [
        " flo",
        "or"
      ],
      [
        "N",
        "A"
      ],
      [
        "l",
        "in"
      ],
      [
        "t",
        "or"
      ],
      [
        " s",
        "quadron"
      ],
      [
        "re",
        "c"
      ],
      [
        " w",
        "an"
      ],
      [
        " c",
        "ast"
      ],
      [
        " in",
        "cl"
      ],
      [
        " T",
        "etrarch"
      ],
      [
        " C",
        "ourt"
      ],
      [
        " B",
        "ill"
      ],
      [
        "ec",
        "ess"
      ],
      [
        "un",
        "k"
      ],
      [
        " L",
        "o"
      ],
      [
        "ass",
        "ic"
      ],
      [
        " tr",
        "av"
      ],
      [
        "ph",
        "ib"
      ],
      [
        " Sh",
        "iva"
      ],
      [
        " Bl",
        "ack"
      ],
      [
        " ann",
        "ounced"
      ],
      [
        "AA",
        "F"
      ],
      [
        " prog",
        "ram"
      ],
      [
        " Europ",
        "e"
      ],
      [
        " mur",
        "der"
      ],
      [
        " ",
        "ident"
      ],
      [
        "b",
        "r"
      ],
      [
        "g",
        "a"
      ],
      [
        "m",
        "on"
      ],
      [
        "w",
        "er"
      ],
      [
        "es",
        "h"
      ],
      [
        " b",
        "orn"
      ],
      [
        " d",
        "ou"
      ],
      [
        " h",
        "ouse"
      ],
      [
        " A",
        "nt"
      ],
      [
        " n",
        "ov"
      ],
      [
        " M",
        "usic"
      ],
      [
        " B",
        "u"
      ],
      [
        " B",
        "ig"
      ],
      [
        " g",
        "eneral"
      ],
      [
        "ig",
        "ade"
      ],
      [
        " st",
        "one"
      ],
      [
        " D",
        "r"
      ],
      [
        " an",
        "c"
      ],
      [
        " O",
        "ff"
      ],
      [
        " se",
        "par"
      ],
      [
        "te",
        "en"
      ],
      [
        " pl",
        "a"
      ],
      [
        " ex",
        "ist"
      ],
      [
        " ch",
        "art"
      ],
      [
        "ant",
        "a"
      ],
      [
        "pl",
        "es"
      ],
      [
        " im",
        "age"
      ],
      [
        " bec",
        "om"
      ],
      [
        " ev",
        "ents"
      ],
      [
        " app",
        "o"
      ],
      [
        " go",
        "od"
      ],
      [
        " comple",
        "x"
      ],
      [
        " Eng",
        "land"
      ],
      [
        "A",
        "R"
      ],
      [
        "F",
        "C"
      ],
      [
        "W",
        "E"
      ],
      [
        "b",
        "on"
      ],
      [
        "m",
        "i"
      ],
      [
        "on",
        "a"
      ],
      [
        " s",
        "ch"
      ],
      [
        " f",
        "ield"
      ],
      [
        " m",
        "ass"
      ],
      [
        " m",
        "ult"
      ],
      [
        " d",
        "ivision"
      ],
      [
        " A",
        "b"
      ],
      [
        "id",
        "ence"
      ],
      [
        "ot",
        "ed"
      ],
      [
        " st",
        "op"
      ],
      [
        " al",
        "most"
      ],
      [
        " F",
        "in"
      ],
      [
        " E",
        "l"
      ],
      [
        " de",
        "ities"
      ],
      [
        " se",
        "x"
      ],
      [
        " U",
        "p"
      ],
      [
        "oc",
        "r"
      ],
      [
        " Ch",
        "inese"
      ],
      [
        " up",
        "on"
      ],
      [
        " def",
        "eat"
      ],
      [
        " cent",
        "er"
      ],
      [
        " gro",
        "w"
      ],
      [
        " buil",
        "d"
      ],
      [
        " ver",
        "sion"
      ],
      [
        " bel",
        "ow"
      ],
      [
        " group",
        "s"
      ],
      [
        " ob",
        "serv"
      ],
      [
        " dam",
        "aged"
      ],
      [
        " conc",
        "er"
      ],
      [
        " stre",
        "ng"
      ],
      [
        " cre",
        "ated"
      ],
      [
        " Rep",
        "ublic"
      ],
      [
        " Jew",
        "ish"
      ],
      [
        "D",
        "uring"
      ],
      [
        "c",
        "ast"
      ],
      [
        "e",
        "ep"
      ],
      [
        "h",
        "ing"
      ],
      [
        "i",
        "ber"
      ],
      [
        " s",
        "i"
      ],
      [
        "or",
        "ing"
      ],
      [
        " c",
        "lear"
      ],
      [
        " in",
        "ch"
      ],
      [
        "ro",
        "l"
      ],
      [
        " th",
        "reat"
      ],
      [
        " l",
        "if"
      ],
      [
        " l",
        "ittle"
      ],
      [
        "im",
        "in"
      ],
      [
        " P",
        "al"
      ],
      [
        "ce",
        "ed"
      ],
      [
        " G",
        "l"
      ],
      [
        "ap",
        "s"
      ],
      [
        " com",
        "e"
      ],
      [
        " v",
        "al"
      ],
      [
        " K",
        "r"
      ],
      [
        " ro",
        "ck"
      ],
      [
        "ke",
        "y"
      ],
      [
        " four",
        "th"
      ],
      [
        " car",
        "ried"
      ],
      [
        " repl",
        "aced"
      ],
      [
        " Q",
        "u"
      ],
      [
        " sou",
        "thern"
      ],
      [
        " establ",
        "ished"
      ],
      [
        " destroy",
        "ed"
      ],
      [
        " Rich",
        "mond"
      ],
      [
        " camp",
        "aign"
      ],
      [
        "urric",
        "ane"
      ],
      [
        " s",
        "ol"
      ],
      [
        " s",
        "elf"
      ],
      [
        " s",
        "ection"
      ],
      [
        " o",
        "x"
      ],
      [
        "at",
        "ers"
      ],
      [
        "ar",
        "ian"
      ],
      [
        " p",
        "en"
      ],
      [
        " m",
        "ix"
      ],
      [
        " re",
        "ad"
      ],
      [
        "am",
        "a"
      ],
      [
        "ay",
        "ed"
      ],
      [
        " R",
        "AAF"
      ],
      [
        " P",
        "at"
      ],
      [
        "and",
        "s"
      ],
      [
        " r",
        "idge"
      ],
      [
        "qu",
        "ar"
      ],
      [
        "og",
        "ue"
      ],
      [
        " rec",
        "ogn"
      ],
      [
        " def",
        "eated"
      ],
      [
        " col",
        "le"
      ],
      [
        " Mar",
        "ine"
      ],
      [
        " writ",
        "ing"
      ],
      [
        " nor",
        "thern"
      ],
      [
        " partic",
        "ip"
      ],
      [
        " contr",
        "act"
      ],
      [
        " NB",
        "A"
      ],
      [
        "g",
        "n"
      ],
      [
        " t",
        "anks"
      ],
      [
        "ed",
        "y"
      ],
      [
        " w",
        "o"
      ],
      [
        " f",
        "act"
      ],
      [
        " p",
        "a"
      ],
      [
        " d",
        "en"
      ],
      [
        "il",
        "es"
      ],
      [
        " S",
        "ou"
      ],
      [
        " l",
        "ines"
      ],
      [
        " C",
        "a"
      ],
      [
        " n",
        "ine"
      ],
      [
        "ot",
        "i"
      ],
      [
        " H",
        "M"
      ],
      [
        " D",
        "on"
      ],
      [
        " an",
        "im"
      ],
      [
        " se",
        "as"
      ],
      [
        "ong",
        "ol"
      ],
      [
        " K",
        "n"
      ],
      [
        " ex",
        "c"
      ],
      [
        " out",
        "side"
      ],
      [
        "rough",
        "t"
      ],
      [
        " other",
        "s"
      ],
      [
        "ang",
        "u"
      ],
      [
        " she",
        "ll"
      ],
      [
        "az",
        "ine"
      ],
      [
        "olog",
        "ical"
      ],
      [
        " arm",
        "our"
      ],
      [
        " min",
        "ute"
      ],
      [
        " ty",
        "p"
      ],
      [
        " eas",
        "tern"
      ],
      [
        " agre",
        "ed"
      ],
      [
        "d",
        "ie"
      ],
      [
        "v",
        "an"
      ],
      [
        " t",
        "aking"
      ],
      [
        "on",
        "na"
      ],
      [
        " b",
        "ad"
      ],
      [
        " d",
        "iss"
      ],
      [
        " re",
        "ve"
      ],
      [
        " S",
        "ar"
      ],
      [
        " S",
        "ov"
      ],
      [
        " S",
        "erv"
      ],
      [
        " he",
        "av"
      ],
      [
        " D",
        "av"
      ],
      [
        " wh",
        "i"
      ],
      [
        "ct",
        "ions"
      ],
      [
        " G",
        "ib"
      ],
      [
        "ap",
        "t"
      ],
      [
        " de",
        "al"
      ],
      [
        "ate",
        "g"
      ],
      [
        "qu",
        "are"
      ],
      [
        " sh",
        "oot"
      ],
      [
        "ab",
        "y"
      ],
      [
        " k",
        "ey"
      ],
      [
        "cl",
        "iffe"
      ],
      [
        " cl",
        "ub"
      ],
      [
        " en",
        "v"
      ],
      [
        " tr",
        "aining"
      ],
      [
        " rem",
        "oved"
      ],
      [
        " cons",
        "pir"
      ],
      [
        "ped",
        "o"
      ],
      [
        " pol",
        "ic"
      ],
      [
        " ind",
        "ividual"
      ],
      [
        " do",
        "es"
      ],
      [
        " stud",
        "io"
      ],
      [
        " eng",
        "ine"
      ],
      [
        " jo",
        "ined"
      ],
      [
        " Mich",
        "igan"
      ],
      [
        " stri",
        "ke"
      ],
      [
        " suff",
        "ered"
      ],
      [
        "r",
        "um"
      ],
      [
        "u",
        "k"
      ],
      [
        " s",
        "us"
      ],
      [
        "en",
        "ed"
      ],
      [
        " c",
        "op"
      ],
      [
        " p",
        "al"
      ],
      [
        " p",
        "air"
      ],
      [
        " m",
        "ater"
      ],
      [
        " d",
        "eter"
      ],
      [
[...]
