{
  "version": "1.0",
  "truncation": null,
  "padding": null,
  "added_tokens": [
    {
      "id": 0,
      "content": "<pad>",
      "single_word": false,
      "lstrip": false,
      "rstrip": false,
      "normalized": false,
      "special": true
    },
    {
      "id": 1,
      "content": "<unk>",
      "single_word": false,
      "lstrip": false,
      "rstrip": false,
      "normalized": false,
      "special": true
    },
    {
      "id": 2,
      "content": "<bos>",
      "single_word": false,
      "lstrip": false,
      "rstrip": false,
      "normalized": false,
      "special": true
    },
    {
      "id": 3,
      "content": "<eos>",
      "single_word": false,
      "lstrip": false,
      "rstrip": false,
      "normalized": false,
      "special": true
    }
  ],
  "normalizer": null,
  "pre_tokenizer": {
    "type": "Split",
    "pattern": {
      "Regex": " ?[A-Za-z]+"
    },
    "behavior": "Isolated",
    "invert": false
  },
  "post_processor": null,
  "decoder": {
    "type": "Fuse"
  },
  "model": {
    "type": "BPE",
    "dropout": null,
    "unk_token": "<unk>",
    "continuing_subword_prefix": null,
    "end_of_word_suffix": null,
    "fuse_unk": false,
    "byte_fallback": false,
    "ignore_merges": false,
    "vocab": {
      "<pad>": 0,
      "<unk>": 1,
      "<bos>": 2,
      "<eos>": 3,
      " ": 4,
      "A": 5,
      "B": 6,
      "C": 7,
      "D": 8,
      "E": 9,
      "F": 10,
      "G": 11,
      "H": 12,
      "I": 13,
      "J": 14,
      "K": 15,
      "L": 16,
      "M": 17,
      "N": 18,
      "O": 19,
      "P": 20,
      "Q": 21,
      "R": 22,
      "S": 23,
      "T": 24,
      "U": 25,
      "V": 26,
      "W": 27,
      "X": 28,
      "Y": 29,
      "Z": 30,
      "a": 31,
      "b": 32,
      "c": 33,
      "d": 34,
      "e": 35,
      "f": 36,
      "g": 37,
      "h": 38,
      "i": 39,
      "j": 40,
      "k": 41,
      "l": 42,
      "m": 43,
      "n": 44,
      "o": 45,
      "p": 46,
      "q": 47,
      "r": 48,
      "s": 49,
      "t": 50,
      "u": 51,
      "v": 52,
      "w": 53,
      "x": 54,
      "y": 55,
      "z": 56,
      " t": 57,
      "he": 58,
      " a": 59,
      "in": 60,
      " the": 61,
      "er": 62,
      "on": 63,
      " s": 64,
      "ed": 65,
      "re": 66,
      " w": 67,
      " o": 68,
      "nd": 69,
      "at": 70,
      "or": 71,
      "it": 72,
      "en": 73,
      " f": 74,
      " c": 75,
      "es": 76,
      "an": 77,
      "ar": 78,
      " of": 79,
      "is": 80,
      " b": 81,
      " in": 82,
      "al": 83,
      "ing": 84,
      " p": 85,
      "as": 86,
      " and": 87,
      " to": 88,
      "ro": 89,
      " m": 90,
      "ic": 91,
      " d": 92,
      " h": 93,
      "ion": 94,
      "ou": 95,
      "le": 96,
      " T": 97,
      " th": 98,
      " re": 99,
      "il": 100,
      " S": 101,
      " A": 102,
      "ent": 103,
      "st": 104,
      "ad": 105,
      " l": 106,
      " C": 107,
      " e": 108,
      " n": 109,
      "ac": 110,
      "ly": 111,
      "am": 112,
      "om": 113,
      " was": 114,
      "ur": 115,
      " M": 116,
      " B": 117,
      " on": 118,
      "ol": 119,
      " be": 120,
      "ir": 121,
      "id": 122,
      "ve": 123,
      " g": 124,
      "im": 125,
      "ig": 126,
      "ter": 127,
      " for": 128,
      "ct": 129,
      "ot": 130,
      " The": 131,
      "ver": 132,
      "ut": 133,
      " I": 134,
      "ow": 135,
      " as": 136,
      " st": 137,
      "el": 138,
      "ith": 139,
      "us": 140,
      "ay": 141,
      " H": 142,
      "et": 143,
      "ce": 144,
      " he": 145,
      "ation": 146,
      " R": 147,
      " P": 148,
      "ch": 149,
      "un": 150,
      " N": 151,
      " with": 152,
      " that": 153,
      "ul": 154,
      " at": 155,
      "em": 156,
      " by": 157,
      " al": 158,
      " D": 159,
      " con": 160,
      "th": 161,
      " wh": 162,
      " F": 163,
      "ra": 164,
      "os": 165,
      "ri": 166,
      "and": 167,
      " an": 168,
      " L": 169,
      " W": 170,
      " is": 171,
      " G": 172,
      " de": 173,
      " J": 174,
      " se": 175,
      "rom": 176,
      " it": 177,
      "ere": 178,
      "um": 179,
      "ist": 180,
      "ers": 181,
      "ain": 182,
      "her": 183,
      "ag": 184,
      "est": 185,
      " were": 186,
      "pp": 187,
      "od": 188,
      " E": 189,
      " from": 190,
      " r": 191,
      "ort": 192,
      "ate": 193,
      " com": 194,
      "res": 195,
      "ill": 196,
      "igh": 197,
      "op": 198,
      " his": 199,
      "iv": 200,
      " su": 201,
      " O": 202,
      "ber": 203,
      "if": 204,
      "ong": 205,
      "ld": 206,
      "ich": 207,
      "ore": 208,
      "ew": 209,
      "ian": 210,
      " pro": 211,
      "ak": 212,
      " U": 213,
      "se": 214,
      "all": 215,
      "ies": 216,
      "ap": 217,
      " K": 218,
      "rou": 219,
      "ated": 220,
      "qu": 221,
      "hi": 222,
      " v": 223,
      "ity": 224,
      "oc": 225,
      "gh": 226,
      "te": 227,
      " pl": 228,
      "art": 229,
      "ard": 230,
      "ive": 231,
      "ant": 232,
      " had": 233,
      "ud": 234,
      "ge": 235,
      "ust": 236,
      "ack": 237,
      " or": 238,
      " ex": 239,
      "our": 240,
      "ab": 241,
      "ear": 242,
      "cl": 243,
      "ment": 244,
      " k": 245,
      "ame": 246,
      "ess": 247,
      "av": 248,
      "pe": 249,
      "ast": 250,
      "nt": 251,
      " are": 252,
      "ight": 253,
      " which": 254,
      " In": 255,
      "pt": 256,
      "ial": 257,
      " ch": 258,
      " St": 259,
      "ost": 260,
      " u": 261,
      "ia": 262,
      " Ch": 263,
      "ish": 264,
      " not": 265,
      " ar": 266,
      "rit": 267,
      "ary": 268,
      "ine": 269,
      " sh": 270,
      "ord": 271,
      "ru": 272,
      " le": 273,
      " y": 274,
      "ther": 275,
      " un": 276,
      "og": 277,
      "ction": 278,
      "ry": 279,
      "ide": 280,
      "so": 281,
      "ave": 282,
      "fter": 283,
      "ass": 284,
      "ond": 285,
      " He": 286,
      "pl": 287,
      "The": 288,
      "ell": 289,
      "wo": 290,
      "per": 291,
      "ical": 292,
      "ign": 293,
      " fir": 294,
      "ie": 295,
      "ue": 296,
      " their": 297,
      "ff": 298,
      "out": 299,
      "ould": 300,
      " cont": 301,
      "own": 302,
      "cc": 303,
      " V": 304,
      "ous": 305,
      " int": 306,
      "ure": 307,
      "mer": 308,
      "ome": 309,
      "ime": 310,
      " also": 311,
      "low": 312,
      " but": 313,
      " its": 314,
      "ork": 315,
      "ition": 316,
      "ran": 317,
      "hip": 318,
      "man": 319,
      " cl": 320,
      "ree": 321,
      " whe": 322,
      " ro": 323,
      "ted": 324,
      "ng": 325,
      "ok": 326,
      " ag": 327,
      " ab": 328,
      " first": 329,
      "hed": 330,
      " per": 331,
      " ad": 332,
      " one": 333,
      "uring": 334,
      "ater": 335,
      "ved": 336,
      " res": 337,
      "age": 338,
      "ire": 339,
      " two": 340,
      " been": 341,
      " us": 342,
      "ub": 343,
      " sc": 344,
      "ach": 345,
      "ke": 346,
      " comp": 347,
      "ts": 348,
      "ens": 349,
      "ral": 350,
      " has": 351,
      " te": 352,
      "iz": 353,
      " have": 354,
      "ough": 355,
      " rec": 356,
      "ence": 357,
      " j": 358,
      "ound": 359,
      " after": 360,
      " Y": 361,
      "over": 362,
      "ally": 363,
      " Th": 364,
      "ect": 365,
      " im": 366,
      "aw": 367,
      "clud": 368,
      " off": 369,
      "orm": 370,
      " part": 371,
      " att": 372,
      "nder": 373,
      " over": 374,
      " en": 375,
      "att": 376,
      "ron": 377,
      " this": 378,
      "ll": 379,
      "ace": 380,
      " who": 381,
      "ark": 382,
      " dis": 383,
      "ount": 384,
      " her": 385,
      " des": 386,
      " bec": 387,
      "ult": 388,
      "ade": 389,
      " app": 390,
      "port": 391,
      "ces": 392,
      "ec": 393,
      " they": 394,
      " It": 395,
      "ind": 396,
      " out": 397,
      "round": 398,
      "ions": 399,
      "ations": 400,
      "ress": 401,
      "ph": 402,
      "ne": 403,
      "land": 404,
      "ward": 405,
      "orth": 406,
      " man": 407,
      "ice": 408,
      "urn": 409,
      " time": 410,
      "are": 411,
      " comm": 412,
      " we": 413,
      "ove": 414,
      "ced": 415,
      "the": 416,
      " ser": 417,
      "ft": 418,
      "rough": 419,
      " ev": 420,
      "act": 421,
      " play": 422,
      "ose": 423,
      "ric": 424,
      "iss": 425,
      "ied": 426,
      "we": 427,
      "du": 428,
      " up": 429,
      " includ": 430,
      " into": 431,
      "ib": 432,
      "ile": 433,
      " pre": 434,
      " year": 435,
      "vi": 436,
      "ance": 437,
      "old": 438,
      " Un": 439,
      "outh": 440,
      " rem": 441,
      " other": 442,
      "ite": 443,
      " fil": 444,
      "oin": 445,
      "ss": 446,
      "ons": 447,
      " ne": 448,
      "ited": 449,
      "one": 450,
      "les": 451,
      " Aust": 452,
      "gan": 453,
      "ased": 454,
      "ory": 455,
      " him": 456,
      " all": 457,
      " would": 458,
      "ors": 459,
      " during": 460,
      " Se": 461,
      "tern": 462,
      " sec": 463,
      " again": 464,
      "ates": 465,
      "ang": 466,
      "ines": 467,
      "amp": 468,
      " De": 469,
      " more": 470,
      "oy": 471,
      "way": 472,
      "vel": 473,
      "ered": 474,
      "ase": 475,
      " Ar": 476,
      "iver": 477,
      " ear": 478,
      " film": 479,
      " she": 480,
      " def": 481,
      "ail": 482,
      " Brit": 483,
      "ning": 484,
      "ents": 485,
      " fl": 486,
      "ollow": 487,
      " them": 488,
      " cons": 489,
      "ks": 490,
      "uil": 491,
      " US": 492,
      " spe": 493,
      " sp": 494,
      "red": 495,
      "able": 496,
      " under": 497,
      "fer": 498,
      " work": 499,
      " three": 500,
      "ip": 501,
      " most": 502,
      " only": 503,
      "meric": 504,
      "wn": 505,
      " Re": 506,
      "rib": 507,
      "lic": 508,
      "ans": 509,
      "io": 510,
      " pos": 511,
      " air": 512,
      " fe": 513,
      " bet": 514,
      "reat": 515,
      "ason": 516,
      " co": 517,
      "ision": 518,
      " ret": 519,
      " num": 520,
      "oth": 521,
      " Com": 522,
      " ass": 523,
      "ob": 524,
      " end": 525,
      " cent": 526,
      " new": 527,
      " New": 528,
      " inter": 529,
      "ings": 530,
      " Americ": 531,
      " me": 532,
      " fin": 533,
      "ood": 534,
      "olog": 535,
      "cted": 536,
      "ick": 537,
      " sub": 538,
      " pe": 539,
      "ational": 540,
      " reg": 541,
      "fore": 542,
      "ren": 543,
      " Austral": 544,
      "az": 545,
      "ters": 546,
      "ix": 547,
      " col": 548,
      " kn": 549,
      " ra": 550,
      "ween": 551,
      "mber": 552,
      "ual": 553,
      " day": 554,
      " when": 555,
      " head": 556,
      "aus": 557,
      " tr": 558,
      "In": 559,
      "end": 560,
      " four": 561,
      "ug": 562,
      " about": 563,
      "ake": 564,
      "ck": 565,
      "rop": 566,
      " through": 567,
      " later": 568,
      " Mar": 569,
      " Z": 570,
      " supp": 571,
      "aj": 572,
      "ember": 573,
      "ener": 574,
      " ship": 575,
      " war": 576,
      " while": 577,
      " pr": 578,
      " am": 579,
      " car": 580,
      " Ger": 581,
      "ating": 582,
      " inv": 583,
      " rel": 584,
      "bum": 585,
      " some": 586,
      " Al": 587,
      "ci": 588,
      " follow": 589,
      " mon": 590,
      "ict": 591,
      "ike": 592,
      " lar": 593,
      " team": 594,
      "ock": 595,
      " where": 596,
      " i": 597,
      " arm": 598,
      "aid": 599,
      " song": 600,
      " made": 601,
      " sur": 602,
      "ities": 603,
      " form": 604,
      "ls": 605,
      " than": 606,
      " sever": 607,
      " War": 608,
      " act": 609,
      "ook": 610,
      " buil": 611,
      " between": 612,
      "ik": 613,
      " British": 614,
      " before": 615,
      " Ind": 616,
      " city": 617,
      "overn": 618,
      " number": 619,
      " On": 620,
      " season": 621,
      " produ": 622,
      "als": 623,
      " German": 624,
      " being": 625,
      " game": 626,
      " second": 627,
      " loc": 628,
      " against": 629,
      "ained": 630,
      " ac": 631,
      " high": 632,
      " no": 633,
      "ific": 634,
      " so": 635,
      " rele": 636,
      " record": 637,
      "ever": 638,
      "ov": 639,
      " album": 640,
      " gun": 641,
      "int": 642,
      " Sh": 643,
      " used": 644,
      "roup": 645,
      " Man": 646,
      " acc": 647,
      "orld": 648,
      " inc": 649,
      "apan": 650,
      " char": 651,
      "ross": 652,
      " em": 653,
      "avy": 654,
      " perf": 655,
      " inf": 656,
      "ower": 657,
      "hes": 658,
      " there": 659,
      "rans": 660,
      "ank": 661,
      " rep": 662,
      " tra": 663,
      "air": 664,
      "emb": 665,
      "der": 666,
      " batt": 667,
      "ular": 668,
      "ath": 669,
      " po": 670,
      " Japan": 671,
      "ince": 672,
      "ians": 673,
      " contin": 674,
      " attack": 675,
      "ven": 676,
      " At": 677,
      "ames": 678,
      "iel": 679,
      "son": 680,
      " ent": 681,
      "ished": 682,
      " May": 683,
      "velop": 684,
      " oper": 685,
      " ind": 686,
      "au": 687,
      " several": 688,
      " As": 689,
      "other": 690,
      " Les": 691,
      " such": 692,
      " pol": 693,
      " mat": 694,
      " Cl": 695,
      "ese": 696,
      "ised": 697,
      "elf": 698,
      " sm": 699,
      " back": 700,
      "pr": 701,
      " then": 702,
      " pub": 703,
      " ver": 704,
      " qu": 705,
      " well": 706,
      "its": 707,
      " met": 708,
      "uch": 709,
      " both": 710,
      " along": 711,
      " became": 712,
      "ting": 713,
      " sy": 714,
      "oun": 715,
      "though": 716,
      "ious": 717,
      " Le": 718,
      "ures": 719,
      " main": 720,
      "ury": 721,
      "ern": 722,
      " dec": 723,
      " many": 724,
      " United": 725,
      " est": 726,
      "ram": 727,
      " cap": 728,
      " design": 729,
      " American": 730,
      "cial": 731,
      "ject": 732,
      " An": 733,
      " mil": 734,
      "une": 735,
      "ten": 736,
      " began": 737,
      " add": 738,
      "ey": 739,
      " bl": 740,
      " do": 741,
      "alled": 742,
      " min": 743,
      "ute": 744,
      "ton": 745,
      "ert": 746,
      " can": 747,
      " dep": 748,
      "ued": 749,
      "ero": 750,
      " govern": 751,
      " North": 752,
      "ists": 753,
      "to": 754,
      "ise": 755,
      "owever": 756,
      "ull": 757,
      " including": 758,
      "of": 759,
      " did": 760,
      "usic": 761,
      "ived": 762,
      " these": 763,
      " long": 764,
      " writ": 765,
      " ele": 766,
      "ier": 767,
      " trans": 768,
      "igin": 769,
      " could": 770,
      "aced": 771,
      "ful": 772,
      " sign": 773,
      "ative": 774,
      " found": 775,
      " mill": 776,
      "stru": 777,
      " group": 778,
      "oss": 779,
      " known": 780,
      " This": 781,
      "ober": 782,
      " ter": 783,
      " km": 784,
      " art": 785,
      "ty": 786,
      "erv": 787,
      "ily": 788,
      " She": 789,
      " Sept": 790,
      "up": 791,
      " sing": 792,
      "ident": 793,
      " develop": 794,
      "xt": 795,
      "ured": 796,
      "ep": 797,
      " op": 798,
      " rece": 799,
      "ets": 800,
      "raft": 801,
      "orn": 802,
      "row": 803,
      "urch": 804,
      " dire": 805,
      " years": 806,
      "ange": 807,
      " pres": 808,
      "ics": 809,
      " imp": 810,
      " land": 811,
      "eb": 812,
      "nar": 813,
      " Col": 814,
      " lead": 815,
      " ob": 816,
      " like": 817,
      "ale": 818,
      " feat": 819,
      " return": 820,
      "ople": 821,
      " comple": 822,
      "led": 823,
      " bro": 824,
      " hist": 825,
      " north": 826,
      "oh": 827,
      "ah": 828,
      "ipp": 829,
      "ments": 830,
      " September": 831,
      "rew": 832,
      "ane": 833,
      "iron": 834,
      " early": 835,
      " Comm": 836,
      "ai": 837,
      "osp": 838,
      " offic": 839,
      "pan": 840,
      " pop": 841,
      " Pol": 842,
      "aking": 843,
      "ield": 844,
      " Bl": 845,
      "cient": 846,
      " said": 847,
      " any": 848,
      "ause": 849,
      "ided": 850,
      " Ph": 851,
      " show": 852,
      "ajor": 853,
      " small": 854,
      " near": 855,
      "ned": 856,
      "tle": 857,
      "ized": 858,
      " tem": 859,
      " around": 860,
      " set": 861,
      " Aug": 862,
      "ins": 863,
      " pers": 864,
      " go": 865,
      " appear": 866,
      "ool": 867,
      "oot": 868,
      "ually": 869,
      " Ste": 870,
      "osed": 871,
      "ather": 872,
      " bo": 873,
      " god": 874,
      "ctor": 875,
      " large": 876,
      " Oct": 877,
      "rist": 878,
      "ats": 879,
      "oad": 880,
      "side": 881,
      "ina": 882,
      " down": 883,
      "ode": 884,
      " area": 885,
      " unt": 886,
      "ible": 887,
      " August": 888,
      "hen": 889,
      " inst": 890,
      " Be": 891,
      "ars": 892,
      " dif": 893,
      " ep": 894,
      "quad": 895,
      "tend": 896,
      " South": 897,
      " origin": 898,
      "ism": 899,
      " Car": 900,
      " support": 901,
      "ored": 902,
      " took": 903,
      " June": 904,
      "ccess": 905,
      " series": 906,
      " prom": 907,
      "ivision": 908,
      " south": 909,
      " start": 910,
      "view": 911,
      "by": 912,
      "oved": 913,
      "ple": 914,
      "arch": 915,
      " Is": 916,
      " conc": 917,
      " disc": 918,
      "ined": 919,
      " gu": 920,
      "my": 921,
      " six": 922,
      " crit": 923,
      " pass": 924,
      " dam": 925,
      " After": 926,
      " All": 927,
      " Con": 928,
      "ler": 929,
      " forces": 930,
      " open": 931,
      " until": 932,
      "ropical": 933,
      " Japanese": 934,
      "idge": 935,
      "imes": 936,
      " Nove": 937,
      "riv": 938,
      "ung": 939,
      "ified": 940,
      "rench": 941,
      "eneral": 942,
      " Lesnar": 943,
      "crib": 944,
      "yl": 945,
      " occ": 946,
      " Batt": 947,
      "ops": 948,
      " charac": 949,
      "amed": 950,
      " state": 951,
      " For": 952,
      " adv": 953,
      " October": 954,
      " Me": 955,
      "oci": 956,
      "oon": 957,
      " wind": 958,
      " called": 959,
      " exp": 960,
      " York": 961,
      "ivers": 962,
      " ref": 963,
      "me": 964,
      "ional": 965,
      " Jan": 966,
      " position": 967,
      "ues": 968,
      " following": 969,
      "ax": 970,
      " bel": 971,
      " French": 972,
      " prov": 973,
      " class": 974,
      "ek": 975,
      " five": 976,
      " str": 977,
      "ball": 978,
      "ding": 979,
      "ones": 980,
      " dest": 981,
      " run": 982,
      "craft": 983,
      " tro": 984,
      " port": 985,
      " Br": 986,
      "ately": 987,
      " plan": 988,
      " use": 989,
      "wards": 990,
      " Australian": 991,
      " November": 992,
      " eff": 993,
      "urther": 994,
      " conf": 995,
      " var": 996,
      " command": 997,
      "ission": 998,
      "ology": 999,
      " released": 1000,
      " since": 1001,
      " dist": 1002,
      " Ad": 1003,
      "chool": 1004,
      " people": 1005,
      "quadron": 1006,
      "vent": 1007,
      "ird": 1008,
      " No": 1009,
      "ohn": 1010,
      " iron": 1011,
      "ila": 1012,
      "ives": 1013,
      " kill": 1014,
      "uary": 1015,
      " same": 1016,
      " br": 1017,
      " report": 1018,
      " States": 1019,
      " ships": 1020,
      "gy": 1021,
      " count": 1022,
      "ble": 1023,
      "ef": 1024,
      "oute": 1025,
      "gest": 1026,
      " win": 1027,
      " bas": 1028,
      " place": 1029,
      " you": 1030,
      "ged": 1031,
      "uss": 1032,
      "ife": 1033,
      " own": 1034,
      " each": 1035,
      "ired": 1036,
      " ann": 1037,
      " included": 1038,
      " match": 1039,
      " storm": 1040,
      "empt": 1041,
      " poin": 1042,
      "ash": 1043,
      " mod": 1044,
      "ement": 1045,
      " public": 1046,
      "itary": 1047,
      " Ed": 1048,
      " Christ": 1049,
      " built": 1050,
      "ility": 1051,
      "ution": 1052,
      " stud": 1053,
      " stru": 1054,
      " Ju": 1055,
      " success": 1056,
      " epis": 1057,
      " top": 1058,
      " though": 1059,
      " World": 1060,
      "ains": 1061,
      "ms": 1062,
      " turn": 1063,
      " music": 1064,
      "uro": 1065,
      " hal": 1066,
      " Scient": 1067,
      " Am": 1068,
      " east": 1069,
      "ctions": 1070,
      " just": 1071,
      " describ": 1072,
      " serv": 1073,
      " consid": 1074,
      " spec": 1075,
      " Phil": 1076,
      "med": 1077,
      " ty": 1078,
      " Te": 1079,
      " Apr": 1080,
      " John": 1081,
      "pped": 1082,
      " vi": 1083,
      " government": 1084,
      " power": 1085,
      " rest": 1086,
      "ides": 1087,
      "cept": 1088,
      " ext": 1089,
      "vious": 1090,
      " single": 1091,
      "ner": 1092,
      " led": 1093,
      " stre": 1094,
      " Route": 1095,
      " Dece": 1096,
      " ed": 1097,
      " ins": 1098,
      "omin": 1099,
      "ording": 1100,
      " played": 1101,
      " major": 1102,
      "ild": 1103,
      " appro": 1104,
      " April": 1105,
      "ared": 1106,
      " may": 1107,
      "ently": 1108,
      "oll": 1109,
      "els": 1110,
      "ys": 1111,
      "ont": 1112,
      "stem": 1113,
      "ached": 1114,
      "urre": 1115,
      " They": 1116,
      " held": 1117,
      " resp": 1118,
      "embers": 1119,
      "und": 1120,
      " cour": 1121,
      "antry": 1122,
      " left": 1123,
      " contro": 1124,
      "ront": 1125,
      " received": 1126,
      "orman": 1127,
      " fire": 1128,
      " Ang": 1129,
      " Mc": 1130,
      " Gu": 1131,
      " partic": 1132,
      "ger": 1133,
      " tri": 1134,
      "roy": 1135,
      " repl": 1136,
      " Nero": 1137,
      " aircraft": 1138,
      " January": 1139,
      "ument": 1140,
      "abl": 1141,
      " eng": 1142,
      " ri": 1143,
      "ris": 1144,
      " men": 1145,
      " due": 1146,
      " Air": 1147,
      "ays": 1148,
      "ards": 1149,
      "aving": 1150,
      " guns": 1151,
      "ham": 1152,
      " post": 1153,
      " now": 1154,
      "ural": 1155,
      "ns": 1156,
      " west": 1157,
      "orp": 1158,
      " within": 1159,
      "ordan": 1160,
      " track": 1161,
      " requ": 1162,
      " ever": 1163,
      " even": 1164,
      " million": 1165,
      "bo": 1166,
      " ft": 1167,
      " ph": 1168,
      " former": 1169,
      "pect": 1170,
      " sim": 1171,
      " although": 1172,
      "aken": 1173,
      " because": 1174,
      " person": 1175,
      " troops": 1176,
      " December": 1177,
      " hand": 1178,
      " National": 1179,
      "ically": 1180,
      " next": 1181,
      "iod": 1182,
      " came": 1183,
      " band": 1184,
      " line": 1185,
      " organ": 1186,
      " attempt": 1187,
      " July": 1188,
      "ae": 1189,
      "aged": 1190,
      " side": 1191,
      "ene": 1192,
      " further": 1193,
      "alion": 1194,
      " nort": 1195,
      " invol": 1196,
      "aim": 1197,
      " won": 1198,
      "rote": 1199,
      " much": 1200,
      "hile": 1201,
      " century": 1202,
      " episode": 1203,
      "ius": 1204,
      " sold": 1205,
      " dem": 1206,
      " third": 1207,
      " Im": 1208,
      " incre": 1209,
      "ads": 1210,
      " Pl": 1211,
      "iving": 1212,
      "ery": 1213,
      "rest": 1214,
      "ittle": 1215,
      " name": 1216,
      " another": 1217,
      "isted": 1218,
      " defe": 1219,
      " half": 1220,
      "min": 1221,
      "alk": 1222,
      " Sc": 1223,
      " ste": 1224,
      "ulation": 1225,
      " Eng": 1226,
      " Kore": 1227,
      " poss": 1228,
      " final": 1229,
      "ouse": 1230,
      "uted": 1231,
      " However": 1232,
      " iss": 1233,
      "ague": 1234,
      " Manila": 1235,
      "read": 1236,
      " fam": 1237,
      " members": 1238,
      " named": 1239,
      " constru": 1240,
      " Church": 1241,
      " previous": 1242,
      "ness": 1243,
      " light": 1244,
      "uth": 1245,
      " River": 1246,
      " allow": 1247,
      "ospond": 1248,
      " belie": 1249,
      "ves": 1250,
      " sl": 1251,
      " del": 1252,
      " home": 1253,
      " II": 1254,
      "cy": 1255,
      "na": 1256,
      " cre": 1257,
      "omet": 1258,
      "ploy": 1259,
      " continued": 1260,
      "ebru": 1261,
      "On": 1262,
      " what": 1263,
      " role": 1264,
      " character": 1265,
      "atter": 1266,
      "resent": 1267,
      "ideo": 1268,
      "mit": 1269,
      " last": 1270,
      " But": 1271,
      " force": 1272,
      " Fran": 1273,
      " Q": 1274,
      "ched": 1275,
      "for": 1276,
      " wa": 1277,
      " few": 1278,
      " care": 1279,
      " late": 1280,
      " Can": 1281,
      " beg": 1282,
      "use": 1283,
      "pend": 1284,
      " military": 1285,
      " addition": 1286,
      "lu": 1287,
      " sent": 1288,
      " cr": 1289,
      " pat": 1290,
      " ha": 1291,
      " Sp": 1292,
      " Mer": 1293,
      " Ge": 1294,
      " cover": 1295,
      " mid": 1296,
      "ley": 1297,
      "leet": 1298,
      " still": 1299,
      " Road": 1300,
      " Febru": 1301,
      " ord": 1302,
      "aval": 1303,
      "iam": 1304,
      "lect": 1305,
      " Division": 1306,
      " event": 1307,
      " month": 1308,
      " capt": 1309,
      " destroy": 1310,
      " es": 1311,
      "uc": 1312,
      " Mich": 1313,
      "ots": 1314,
      " expl": 1315,
      " days": 1316,
      " tw": 1317,
      " death": 1318,
      " Jordan": 1319,
      "sequ": 1320,
      " Australia": 1321,
      "self": 1322,
      " cross": 1323,
      " mark": 1324,
      " hum": 1325,
      "akes": 1326,
      "hib": 1327,
      " perform": 1328,
      "atic": 1329,
      " based": 1330,
      " move": 1331,
      " make": 1332,
      " Em": 1333,
      "ially": 1334,
      "oyal": 1335,
      " performan": 1336,
      " battle": 1337,
      " system": 1338,
      " sk": 1339,
      " school": 1340,
      "ital": 1341,
      " la": 1342,
      " gr": 1343,
      " gener": 1344,
      " We": 1345,
      " result": 1346,
      " March": 1347,
      " differ": 1348,
      " if": 1349,
      "be": 1350,
      "ycl": 1351,
      "ink": 1352,
      "isc": 1353,
      " equ": 1354,
      "etr": 1355,
      " Pe": 1356,
      "ulu": 1357,
      " right": 1358,
      "aut": 1359,
      "ead": 1360,
      "ship": 1361,
      "eder": 1362,
      " moved": 1363,
      "iment": 1364,
      " These": 1365,
      "ages": 1366,
      "ior": 1367,
      "par": 1368,
      " tropical": 1369,
      "ense": 1370,
      " bar": 1371,
      " mi": 1372,
      " great": 1373,
      " red": 1374,
      " Army": 1375,
      "intulu": 1376,
      " described": 1377,
      "ox": 1378,
      " Town": 1379,
      " Su": 1380,
      "irc": 1381,
      "ants": 1382,
      " period": 1383,
      "ikal": 1384,
      " establ": 1385,
      "ny": 1386,
      " way": 1387,
      " hour": 1388,
      " City": 1389,
      "used": 1390,
      " Har": 1391,
      "ety": 1392,
      " King": 1393,
      " contr": 1394,
      " local": 1395,
      "ling": 1396,
      "pite": 1397,
      "tal": 1398,
      " old": 1399,
      " div": 1400,
      " Char": 1401,
      " tit": 1402,
      " world": 1403,
      " Co": 1404,
      "gypt": 1405,
      " February": 1406,
      "AA": 1407,
      " By": 1408,
      " Will": 1409,
      " General": 1410,
      "hern": 1411,
      "ivil": 1412,
      " Inf": 1413,
      " arch": 1414,
      " par": 1415,
      " mm": 1416,
      " review": 1417,
      " beh": 1418,
      "elt": 1419,
      " heavy": 1420,
      "raph": 1421,
      "ried": 1422,
      "iven": 1423,
      " order": 1424,
      " State": 1425,
      " join": 1426,
      " history": 1427,
      " gods": 1428,
      " Tikal": 1429,
      " those": 1430,
      "idian": 1431,
      " Rich": 1432,
      "ensive": 1433,
      "tended": 1434,
      "ches": 1435,
      "get": 1436,
      "ring": 1437,
      "urt": 1438,
      " ironcl": 1439,
      " Philipp": 1440,
      "mas": 1441,
      "vens": 1442,
      " opp": 1443,
      "ature": 1444,
      " init": 1445,
      "ille": 1446,
      " Bintulu": 1447,
      " star": 1448,
      " comb": 1449,
      " prog": 1450,
      "ize": 1451,
      " represent": 1452,
      " Polish": 1453,
      " strong": 1454,
      "fe": 1455,
      "astern": 1456,
      "omb": 1457,
      " Pro": 1458,
      "ody": 1459,
      " Egypt": 1460,
      " You": 1461,
      " Reg": 1462,
      "sh": 1463,
      " site": 1464,
      "reg": 1465,
      " wrote": 1466,
      " lost": 1467,
      "amb": 1468,
      " deb": 1469,
      "nospond": 1470,
      " fore": 1471,
      " fight": 1472,
      " best": 1473,
      " book": 1474,
      " mar": 1475,
      "aining": 1476,
      " Euro": 1477,
      "ffic": 1478,
      " claim": 1479,
      " compan": 1480,
      "ney": 1481,
      "AS": 1482,
      " caus": 1483,
      " pur": 1484,
      " prop": 1485,
      "augh": 1486,
      " killed": 1487,
      "vision": 1488,
      "ret": 1489,
      " often": 1490,
      "ask": 1491,
      "ilar": 1492,
      " low": 1493,
      "ression": 1494,
      "sion": 1495,
      "hest": 1496,
      "onic": 1497,
      " night": 1498,
      " Or": 1499,
      " child": 1500,
      " Stre": 1501,
      " short": 1502,
      " never": 1503,
      " Scientology": 1504,
      "bor": 1505,
      "iqu": 1506,
      "ences": 1507,
      " front": 1508,
      " Bur": 1509,
      " stat": 1510,
      " His": 1511,
      " Wh": 1512,
      " project": 1513,
      " commun": 1514,
      " histor": 1515,
      "men": 1516,
      " water": 1517,
      "emor": 1518,
      " exper": 1519,
      "field": 1520,
      "yls": 1521,
      "reen": 1522,
      " med": 1523,
      " dra": 1524,
      " Squadron": 1525,
      " stri": 1526,
      " stand": 1527,
      " hel": 1528,
      " Par": 1529,
      "ampions": 1530,
      " estim": 1531,
      " Europe": 1532,
      "ium": 1533,
      "iers": 1534,
      "rum": 1535,
      " fr": 1536,
      " camp": 1537,
      " mount": 1538,
      " lim": 1539,
      " Cent": 1540,
      " games": 1541,
      " There": 1542,
      "iversity": 1543,
      "aul": 1544,
      "cing": 1545,
      "com": 1546,
      "ges": 1547,
      "mb": 1548,
      "mar": 1549,
      "heast": 1550,
      "ining": 1551,
      " sit": 1552,
      "ator": 1553,
      " cycl": 1554,
      " town": 1555,
      " stated": 1556,
      " sug": 1557,
      "ape": 1558,
      " vis": 1559,
      "ization": 1560,
      "rict": 1561,
      "vol": 1562,
      " away": 1563,
      " will": 1564,
      "ither": 1565,
      "ison": 1566,
      " total": 1567,
      " San": 1568,
      " Cal": 1569,
      " Navy": 1570,
      " road": 1571,
      " prim": 1572,
      " located": 1573,
      " returned": 1574,
      "ering": 1575,
      " fre": 1576,
      "estern": 1577,
      "ales": 1578,
      " real": 1579,
      " reached": 1580,
      " NY": 1581,
      "ably": 1582,
      "ublic": 1583,
      " polit": 1584,
      " developed": 1585,
      "pany": 1586,
      "here": 1587,
      "erry": 1588,
      " pit": 1589,
      " my": 1590,
      " life": 1591,
      " seen": 1592,
      " formed": 1593,
      " publ": 1594,
      " very": 1595,
      " direct": 1596,
      "iter": 1597,
      "alth": 1598,
      " however": 1599,
      " without": 1600,
      " decl": 1601,
      " shot": 1602,
      " leg": 1603,
      " effect": 1604,
      " considered": 1605,
      " different": 1606,
      " ve": 1607,
      " circ": 1608,
      "stit": 1609,
      " High": 1610,
      " Fl": 1611,
      " remained": 1612,
      " activ": 1613,
      " produced": 1614,
      " influ": 1615,
      " present": 1616,
      " reported": 1617,
      " er": 1618,
      "fic": 1619,
      " times": 1620,
      "eng": 1621,
      " fig": 1622,
      "ann": 1623,
      " gra": 1624,
      "imately": 1625,
      "ott": 1626,
      "ush": 1627,
      " range": 1628,
      "ought": 1629,
      " week": 1630,
      "ificant": 1631,
      " operations": 1632,
      " metres": 1633,
      " career": 1634,
      "con": 1635,
      "ination": 1636,
      "ati": 1637,
      " cas": 1638,
      "ara": 1639,
      " bre": 1640,
      " Ag": 1641,
      " Count": 1642,
      " suff": 1643,
      "ferred": 1644,
      " Stevens": 1645,
      "ampionship": 1646,
      "cess": 1647,
      "haw": 1648,
      "outher": 1649,
      " Af": 1650,
      "ention": 1651,
      "aying": 1652,
      "ript": 1653,
      " video": 1654,
      "ways": 1655,
      " every": 1656,
      "go": 1657,
      "ister": 1658,
      " el": 1659,
      "oman": 1660,
      " gl": 1661,
      " When": 1662,
      " island": 1663,
      " Jack": 1664,
      " using": 1665,
      " surv": 1666,
      " Indian": 1667,
      " original": 1668,
      " Island": 1669,
      " damage": 1670,
      " Infantry": 1671,
      " round": 1672,
      "de": 1673,
      "dition": 1674,
      "enn": 1675,
      "anks": 1676,
      " put": 1677,
      " pain": 1678,
      " mor": 1679,
      " having": 1680,
      " And": 1681,
      " sty": 1682,
      "bert": 1683,
      "ively": 1684,
      "ccording": 1685,
      "action": 1686,
      " among": 1687,
      " emb": 1688,
      " winds": 1689,
      " suggest": 1690,
      " cult": 1691,
      "ices": 1692,
      " di": 1693,
      " given": 1694,
      "ela": 1695,
      " Russ": 1696,
      " vict": 1697,
      " across": 1698,
      " Meridian": 1699,
      "ki": 1700,
      " went": 1701,
      "atch": 1702,
      " fo": 1703,
      " fac": 1704,
      " base": 1705,
      "rodu": 1706,
      " So": 1707,
      " import": 1708,
      "ports": 1709,
      " special": 1710,
      " Battle": 1711,
      " country": 1712,
      " view": 1713,
      "tic": 1714,
      "iness": 1715,
      " cut": 1716,
      " making": 1717,
      " det": 1718,
      "vers": 1719,
      " Rh": 1720,
      " Per": 1721,
      " level": 1722,
      "reek": 1723,
      " tele": 1724,
      " evac": 1725,
      " region": 1726,
      " Germany": 1727,
      " obs": 1728,
      "aur": 1729,
      "ps": 1730,
      " test": 1731,
      " take": 1732,
      " story": 1733,
      "eth": 1734,
      " Royal": 1735,
      " During": 1736,
      "ference": 1737,
      " trad": 1738,
      " relig": 1739,
      " promot": 1740,
      " William": 1741,
      "eal": 1742,
      "less": 1743,
      "pir": 1744,
      "part": 1745,
      " fav": 1746,
      " foot": 1747,
      " press": 1748,
      " miss": 1749,
      " Ass": 1750,
      " Bo": 1751,
      " Park": 1752,
      "riend": 1753,
      " agre": 1754,
      " Christmas": 1755,
      "uthor": 1756,
      "app": 1757,
      "cent": 1758,
      "gr": 1759,
      "ma": 1760,
      "mond": 1761,
      "tain": 1762,
      " sound": 1763,
      " hit": 1764,
      "lected": 1765,
      " law": 1766,
      " Fey": 1767,
      " With": 1768,
      " prof": 1769,
      "send": 1770,
      " peak": 1771,
      "endes": 1772,
      " building": 1773,
      " nd": 1774,
      "ev": 1775,
      "tar": 1776,
      " av": 1777,
      " aff": 1778,
      " too": 1779,
      "lear": 1780,
      " Sec": 1781,
      " eight": 1782,
      " national": 1783,
      " One": 1784,
      " placed": 1785,
      " close": 1786,
      "eck": 1787,
      "cher": 1788,
      " action": 1789,
      " crew": 1790,
      " hig": 1791,
      " ey": 1792,
      " Hill": 1793,
      "ailed": 1794,
      " modern": 1795,
      "ole": 1796,
      "ration": 1797,
      "ving": 1798,
      "ream": 1799,
      " want": 1800,
      "enced": 1801,
      " find": 1802,
      " mov": 1803,
      "acy": 1804,
      "ayer": 1805,
      " ke": 1806,
      " route": 1807,
      " flo": 1808,
      " miles": 1809,
      " point": 1810,
      " performance": 1811,
      " help": 1812,
      "outhern": 1813,
      "dom": 1814,
      "eks": 1815,
      "ient": 1816,
      "most": 1817,
      "tion": 1818,
      "work": 1819,
      " wit": 1820,
      "enes": 1821,
      "ado": 1822,
      " ground": 1823,
      " gold": 1824,
      " stage": 1825,
      " Du": 1826,
      "ria": 1827,
      " West": 1828,
      "umb": 1829,
      " units": 1830,
      " served": 1831,
      " population": 1832,
      " control": 1833,
      "uation": 1834,
      "yn": 1835,
      " tour": 1836,
      " Sl": 1837,
      "igan": 1838,
      " Rec": 1839,
      " Jew": 1840,
      " rad": 1841,
      "ials": 1842,
      "rick": 1843,
      " himself": 1844,
      " America": 1845,
      "ounter": 1846,
      " significant": 1847,
      " temnospond": 1848,
      " Battalion": 1849,
      " Churchill": 1850,
      " Street": 1851,
      "was": 1852,
      " saw": 1853,
      "itar": 1854,
      " bus": 1855,
      " naval": 1856,
      "urg": 1857,
      " Mount": 1858,
      " get": 1859,
      " Des": 1860,
      "aves": 1861,
      " should": 1862,
      " least": 1863,
      "rang": 1864,
      " subsequ": 1865,
      " Although": 1866,
      " family": 1867,
      " title": 1868,
      " behind": 1869,
      " ide": 1870,
      "ga": 1871,
      "por": 1872,
      " face": 1873,
      "lythe": 1874,
      " Mal": 1875,
      "irst": 1876,
      " gave": 1877,
      "rior": 1878,
      " prote": 1879,
      "ounced": 1880,
      " successful": 1881,
      " court": 1882,
      " similar": 1883,
      " County": 1884,
      "aign": 1885,
      " Lond": 1886,
      " El": 1887,
      " East": 1888,
      " rul": 1889,
      " chart": 1890,
      "ords": 1891,
      " become": 1892,
      " Rep": 1893,
      " League": 1894,
      " involved": 1895,
      " human": 1896,
      "ederal": 1897,
      " Philippines": 1898,
      "epend": 1899,
      "form": 1900,
      "ying": 1901,
      " Mark": 1902,
      " Rock": 1903,
      "ems": 1904,
      "ries": 1905,
      " critic": 1906,
      " various": 1907,
      "eter": 1908,
      "fall": 1909,
      "xic": 1910,
      " wood": 1911,
      "asion": 1912,
      " doll": 1913,
      "urb": 1914,
      " Mendes": 1915,
      " Bro": 1916,
      "utes": 1917,
      " Port": 1918,
      "ershaw": 1919,
      " Star": 1920,
      " followed": 1921,
      " production": 1922,
      " release": 1923,
      " young": 1924,
      " particular": 1925,
      "aff": 1926,
      "co": 1927,
      "ford": 1928,
      "line": 1929,
      "inning": 1930,
      "ata": 1931,
      "atives": 1932,
      "itive": 1933,
      " civil": 1934,
      " member": 1935,
      " hom": 1936,
      " lo": 1937,
      " less": 1938,
      "lying": 1939,
      " Pr": 1940,
      "chn": 1941,
      " vol": 1942,
      "play": 1943,
      " Year": 1944,
      " player": 1945,
      " earl": 1946,
      " rain": 1947,
      " soldiers": 1948,
      " sw": 1949,
      " felt": 1950,
      " intern": 1951,
      " hold": 1952,
      " reb": 1953,
      " NB": 1954,
      "pper": 1955,
      "phoon": 1956,
      " heads": 1957,
      " features": 1958,
      " construction": 1959,
      " Townsend": 1960,
      "ming": 1961,
      "ators": 1962,
      " fun": 1963,
      " fleet": 1964,
      " ce": 1965,
      " cou": 1966,
      " how": 1967,
      "let": 1968,
      " Sy": 1969,
      "emy": 1970,
      " Ear": 1971,
      "ivid": 1972,
      "ograph": 1973,
      " intens": 1974,
      " University": 1975,
      " discover": 1976,
      " McC": 1977,
      "St": 1978,
      " case": 1979,
      " bomb": 1980,
      " pra": 1981,
      " pie": 1982,
      " mur": 1983,
      " mph": 1984,
      " died": 1985,
      " Min": 1986,
      " Mad": 1987,
      " once": 1988,
      "ids": 1989,
      " James": 1990,
      "pping": 1991,
      "igned": 1992,
      " scul": 1993,
      "ollowing": 1994,
      " Company": 1995,
      " central": 1996,
      " police": 1997,
      " written": 1998,
      " development": 1999,
      " started": 2000,
      " Geor": 2001,
      " ten": 2002,
      " wide": 2003,
      " far": 2004,
      " father": 2005,
      " Best": 2006,
      " Rad": 2007,
      " withd": 2008,
      "osing": 2009,
      "ourt": 2010,
      " noted": 2011,
      " need": 2012,
      " Britain": 2013,
      " monument": 2014,
      " recorded": 2015,
      " originally": 2016,
      "urrent": 2017,
      " London": 2018,
      "ience": 2019,
      "west": 2020,
      "ened": 2021,
      "ances": 2022,
      "ising": 2023,
      "aster": 2024,
      " mag": 2025,
      " host": 2026,
      " Sen": 2027,
      "iding": 2028,
      "oph": 2029,
      " Ol": 2030,
      "abor": 2031,
      " Head": 2032,
      " scene": 2033,
      " compet": 2034,
      " throughout": 2035,
      " songs": 2036,
      " battles": 2037,
      " Canad": 2038,
      " style": 2039,
      "rated": 2040,
      "su": 2041,
      " author": 2042,
      " friend": 2043,
      " Some": 2044,
      " Award": 2045,
      " lack": 2046,
      " Bar": 2047,
      " Ne": 2048,
      " see": 2049,
      " Ex": 2050,
      " Oper": 2051,
      " works": 2052,
      " colon": 2053,
      " Lester": 2054,
      " struct": 2055,
      "useum": 2056,
      " esc": 2057,
      " estimated": 2058,
      "RA": 2059,
      "ael": 2060,
      "nel": 2061,
      " tre": 2062,
      " coin": 2063,
      " inj": 2064,
      " Ty": 2065,
      "ster": 2066,
      "ades": 2067,
      "istic": 2068,
      "odes": 2069,
      "iva": 2070,
      " Under": 2071,
      "alls": 2072,
      " chang": 2073,
      " unit": 2074,
      " Ital": 2075,
      " species": 2076,
      " respons": 2077,
      " Korean": 2078,
      " political": 2079,
      "ividual": 2080,
      "bs": 2081,
      "hu": 2082,
      " fif": 2083,
      " full": 2084,
      "ald": 2085,
      " Span": 2086,
      " Ac": 2087,
      " loss": 2088,
      "aces": 2089,
      " Blythe": 2090,
      " fort": 2091,
      " Her": 2092,
      "ulf": 2093,
      "illo": 2094,
      "ope": 2095,
      " areas": 2096,
      " above": 2097,
      " entire": 2098,
      " occur": 2099,
      " occup": 2100,
      " Mexic": 2101,
      " river": 2102,
      "etrarch": 2103,
      " published": 2104,
      " sculpt": 2105,
      "cast": 2106,
      "ground": 2107,
      "iber": 2108,
      "oo": 2109,
      "sp": 2110,
      "ville": 2111,
      " aud": 2112,
      " award": 2113,
      " towards": 2114,
      " According": 2115,
      " conv": 2116,
      "ples": 2117,
      "ounded": 2118,
      " players": 2119,
      " coll": 2120,
      " highway": 2121,
      " broad": 2122,
      " popular": 2123,
      " Black": 2124,
      " service": 2125,
      " destroyed": 2126,
      " X": 2127,
      "ency": 2128,
      " cal": 2129,
      " cru": 2130,
      " Sm": 2131,
      "ament": 2132,
      "omen": 2133,
      "urity": 2134,
      " Raj": 2135,
      " GA": 2136,
      " Great": 2137,
      "sec": 2138,
      " kil": 2139,
      " able": 2140,
      " techn": 2141,
      "ressed": 2142,
      " include": 2143,
      " Union": 2144,
      " coast": 2145,
      " quick": 2146,
      " designed": 2147,
      " boats": 2148,
      " ordered": 2149,
      " caused": 2150,
      "tr": 2151,
      "uz": 2152,
      " fro": 2153,
      "asing": 2154,
      " Two": 2155,
      " list": 2156,
      " Creek": 2157,
      " Bel": 2158,
      " Bul": 2159,
      " Do": 2160,
      " condu": 2161,
      " Little": 2162,
      " While": 2163,
      " comment": 2164,
      " commer": 2165,
      " Vict": 2166,
      " enc": 2167,
      "lled": 2168,
      " colle": 2169,
      " surround": 2170,
      " poet": 2171,
      " signed": 2172,
      " Force": 2173,
      " announced": 2174,
      " thought": 2175,
      " created": 2176,
      " months": 2177,
      "oe": 2178,
      "ties": 2179,
      "uck": 2180,
      " sum": 2181,
      " slow": 2182,
      " squadron": 2183,
      " somet": 2184,
      " wi": 2185,
      " foc": 2186,
      " fell": 2187,
      "iser": 2188,
      " either": 2189,
      " gen": 2190,
      " Chines": 2191,
      " arri": 2192,
      " commit": 2193,
      " meet": 2194,
      " decided": 2195,
      " added": 2196,
      " featured": 2197,
      " struck": 2198,
      "board": 2199,
      " northern": 2200,
      " established": 2201,
      " hours": 2202,
      "ficult": 2203,
      " temnospondyls": 2204,
      "atin": 2205,
      "ories": 2206,
      "oul": 2207,
      " Tem": 2208,
      " Tru": 2209,
      " look": 2210,
      " Cro": 2211,
      " Med": 2212,
      " Pac": 2213,
      " deploy": 2214,
      " seven": 2215,
      "aps": 2216,
      "arty": 2217,
      " feet": 2218,
      " fourth": 2219,
      " instead": 2220,
      " program": 2221,
      " company": 2222,
      " important": 2223,
      "cer": 2224,
      "can": 2225,
      "dle": 2226,
      "now": 2227,
      "oice": 2228,
      " aver": 2229,
      " Tetrarch": 2230,
      " live": 2231,
      " little": 2232,
      " Ma": 2233,
      " Mon": 2234,
      "etball": 2235,
      " La": 2236,
      " Gl": 2237,
      " deities": 2238,
      "ishing": 2239,
      "rying": 2240,
      "wood": 2241,
      "aching": 2242,
      " defend": 2243,
      " associ": 2244,
      " complete": 2245,
      " completed": 2246,
      " opening": 2247,
      "medi": 2248,
      " defeated": 2249,
      " Michigan": 2250,
      " laun": 2251,
      " Spanish": 2252,
      " Chinese": 2253,
      "ka": 2254,
      "rs": 2255,
      " taken": 2256,
      "head": 2257,
      "ony": 2258,
      " southern": 2259,
      "oring": 2260,
      "ington": 2261,
      " house": 2262,
      " Tr": 2263,
      " Ant": 2264,
      " sto": 2265,
      " Pen": 2266,
      " Naz": 2267,
      "rap": 2268,
      " rank": 2269,
      "illery": 2270,
      "iffe": 2271,
      " process": 2272,
      " voc": 2273,
      " China": 2274,
      " weeks": 2275,
      " center": 2276,
      " Shiva": 2277,
      " individual": 2278,
      " version": 2279,
      " appeared": 2280,
      " provided": 2281,
      "ique": 2282,
      "off": 2283,
      " age": 2284,
      "iting": 2285,
      " cert": 2286,
      " hon": 2287,
      "urric": 2288,
      " Mor": 2289,
      " Miss": 2290,
      " below": 2291,
      " Day": 2292,
      "ested": 2293,
      " king": 2294,
      "peror": 2295,
      "ected": 2296,
      "rought": 2297,
      " events": 2298,
      " army": 2299,
      "ification": 2300,
      " training": 2301,
      " complex": 2302,
      " Command": 2303,
      " damaged": 2304,
      " effort": 2305,
      " points": 2306,
      " particip": 2307,
      " Richmond": 2308,
      " tradition": 2309,
      " ident": 2310,
      "gg": 2311,
      "hat": 2312,
      "jillo": 2313,
      " sol": 2314,
      "itect": 2315,
      " fit": 2316,
      " mot": 2317,
      "ential": 2318,
      " general": 2319,
      " Hol": 2320,
      " Dan": 2321,
      " Fu": 2322,
      " ant": 2323,
      " ru": 2324,
      "ogn": 2325,
      "perial": 2326,
      " carried": 2327,
      " writing": 2328,
      "erva": 2329,
      " impro": 2330,
      " streng": 2331,
      " Afric": 2332,
      " Republic": 2333,
      "ault": 2334,
      "ked": 2335,
      "ken": 2336,
      " tank": 2337,
      " free": 2338,
      " che": 2339,
      " cast": 2340,
      " mix": 2341,
      " division": 2342,
      " hi": 2343,
      " Tim": 2344,
      " ren": 2345,
      " Court": 2346,
      "iral": 2347,
      "imin": 2348,
      "ote": 2349,
      " prot": 2350,
      " UB": 2351,
      "pecial": 2352,
      " image": 2353,
      " becom": 2354,
      "ecess": 2355,
      " invest": 2356,
      " armour": 2357,
      " build": 2358,
      "rivate": 2359,
      " vari": 2360,
      " studio": 2361,
      " replaced": 2362,
      " England": 2363,
      " campaign": 2364,
      " murder": 2365,
      " aw": 2366,
      "inc": 2367,
      " son": 2368,
      " fact": 2369,
      " current": 2370,
      " dou": 2371,
      "ili": 2372,
      "aded": 2373,
      " Care": 2374,
      " Big": 2375,
      " Bill": 2376,
      "idence": 2377,
      " almost": 2378,
      " Gib": 2379,
      " UK": 2380,
      " val": 2381,
      "ellig": 2382,
      "hips": 2383,
      " appoin": 2384,
      " others": 2385,
      " employ": 2386,
      "venue": 2387,
      " Commission": 2388,
      " goal": 2389,
      " performed": 2390,
      "auty": 2391,
      " business": 2392,
      " z": 2393,
      "After": 2394,
      "MA": 2395,
      "la": 2396,
      " cor": 2397,
      " clear": 2398,
      " pil": 2399,
      "ica": 2400,
      " dri": 2401,
      " hy": 2402,
      " threat": 2403,
      " Sch": 2404,
      " Act": 2405,
      " eastern": 2406,
      " Pat": 2407,
      "ights": 2408,
      "assic": 2409,
      " rock": 2410,
      " prevent": 2411,
      " accept": 2412,
      " groups": 2413,
      " officers": 2414,
      " difficult": 2415,
      " contract": 2416,
      " agreed": 2417,
      " floor": 2418,
      "day": 2419,
      "uel": 2420,
      "ino": 2421,
      " field": 2422,
      "esh": 2423,
      "anc": 2424,
      " born": 2425,
      " dro": 2426,
      " To": 2427,
      " Tra": 2428,
      " lif": 2429,
      "acing": 2430,
      "omm": 2431,
      " Music": 2432,
      " good": 2433,
      "igade": 2434,
      " stone": 2435,
      "raf": 2436,
      " WW": 2437,
      " section": 2438,
      " separ": 2439,
      " En": 2440,
      " prob": 2441,
      "anta": 2442,
      " shoot": 2443,
      " outside": 2444,
      " common": 2445,
      " upon": 2446,
      " removed": 2447,
      " know": 2448,
      " largest": 2449,
      " indic": 2450,
      " turned": 2451,
      " possible": 2452,
      " Kingdom": 2453,
      " suffered": 2454,
      " Jewish": 2455,
      " NBA": 2456,
      " Victor": 2457,
      "his": 2458,
      "mp": 2459,
      "tt": 2460,
      "win": 2461,
      "onna": 2462,
      "aters": 2463,
      " creat": 2464,
      " mult": 2465,
      "ste": 2466,
      " nine": 2467,
      " nove": 2468,
      " grow": 2469,
      "ceed": 2470,
      " Fin": 2471,
      " Off": 2472,
      "ongol": 2473,
      " introdu": 2474,
      "angu": 2475,
      "ological": 2476,
      " Att": 2477,
      " indust": 2478,
      " minute": 2479,
      " transport": 2480,
      " Butler": 2481,
      "AAF": 2482,
      " joined": 2483,
      " break": 2484,
      "urricane": 2485,
      "NA": 2486,
      "lish": 2487,
      "ray": 2488,
      " pen": 2489,
      " mass": 2490,
      "leg": 2491,
      " reve": 2492,
      " Ab": 2493,
      " lines": 2494,
      " Bu": 2495,
      " Pet": 2496,
      " white": 2497,
      "rand": 2498,
      " Go": 2499,
      "erson": 2500,
      " proble": 2501,
      "quar": 2502,
      "ocr": 2503,
      " exist": 2504,
      " club": 2505,
      " recogn": 2506,
      "arent": 2507,
      " does": 2508,
      " artillery": 2509,
      " bask": 2510,
      " believed": 2511,
      " ironclads": 2512,
      "As": 2513,
      "FC": 2514,
      "bon": 2515,
      "ds": 2516,
      "nal": 2517,
      " turre": 2518,
      " tanks": 2519,
      "oned": 2520,
      " self": 2521,
      "edo": 2522,
      " bad": 2523,
      " read": 2524,
      " reaction": 2525,
      " Ball": 2526,
      " RAAF": 2527,
      " Po": 2528,
      " Pal": 2529,
      " Pres": 2530,
      "change": 2531,
      "unk": 2532,
      " Don": 2533,
      "uments": 2534,
      " ridge": 2535,
      " Kershaw": 2536,
      "teen": 2537,
      "cliffe": 2538,
      " adap": 2539,
      " diss": 2540,
      " Marine": 2541,
      " operation": 2542,
      " depart": 2543,
      " leading": 2544,
      " fighting": 2545,
      "AR": 2546,
      "nes": 2547,
      "arily": 2548,
      " past": 2549,
      " pair": 2550,
      " forced": 2551,
      " Dav": 2552,
      " Fil": 2553,
      " anim": 2554,
      " deal": 2555,
      " sex": 2556,
      " come": 2557,
      " Championship": 2558,
      "ranch": 2559,
      " scored": 2560,
      " script": 2561,
      "key": 2562,
      " manag": 2563,
      " remain": 2564,
      "ample": 2565,
      " shell": 2566,
      " Australians": 2567,
      " allowed": 2568,
      " strike": 2569,
      " television": 2570,
      "During": 2571,
      "een": 2572,
      "sc": 2573,
      "van": 2574,
      " tons": 2575,
      " taking": 2576,
      "aring": 2577,
      " inch": 2578,
      " tow": 2579,
      " mater": 2580,
      " den": 2581,
      " Ten": 2582,
      " Sar": 2583,
      " latter": 2584,
      " Met": 2585,
      "idents": 2586,
      " HM": 2587,
      "ula": 2588,
      "rain": 2589,
      " Other": 2590,
      "alling": 2591,
      "quare": 2592,
      " und": 2593,
      "ogue": 2594,
      " weap": 2595,
      "ibr": 2596,
      " Depart": 2597,
      " conspir": 2598,
      "azine": 2599,
      " suppl": 2600,
      " syn": 2601,
      " Another": 2602,
      " viol": 2603,
      " engine": 2604,
      " previously": 2605,
      " Qu": 2606,
      " Regiment": 2607,
      " avail": 2608,
      "porary": 2609,
      " Mexico": 2610,
      " Trujillo": 2611,
      " ult": 2612,
      "die": 2613,
      "edy": 2614,
      " ox": 2615,
      " federal": 2616,
      " cost": 2617,
      " brought": 2618,
      " mach": 2619,
      " Mongol": 2620,
      "emeter": 2621,
      " Dod": 2622,
      " conn": 2623,
      " First": 2624,
      " deter": 2625,
      "ateg": 2626,
      "oren": 2627,
      " exc": 2628,
      "assy": 2629,
      " contrib": 2630,
      " Vi": 2631,
      " resul": 2632,
      " worked": 2633,
      " attacked": 2634,
      " qual": 2635,
      " elect": 2636,
      " appearance": 2637,
      " northeast": 2638,
      " Charl": 2639,
      " ironclad": 2640,
      " favor": 2641,
      " withdra": 2642,
      " arrived": 2643,
      "af": 2644,
      "rt": 2645,
      "ona": 2646,
      " sail": 2647,
      " saying": 2648,
      " don": 2649,
      " Ser": 2650,
      " Sonic": 2651,
      "str": 2652,
      " ly": 2653,
      " names": 2654,
      "oti": 2655,
      " Hu": 2656,
      " Hist": 2657,
      "unt": 2658,
      " Dist": 2659,
      " condition": 2660,
      "thing": 2661,
      " vill": 2662,
      "aby": 2663,
      " Intern": 2664,
      " env": 2665,
      " films": 2666,
      "ologists": 2667,
      " inform": 2668,
      " polic": 2669,
      " directed": 2670,
      " critics": 2671,
      " characters": 2672,
      " typ": 2673,
      " beginning": 2674,
      " patro": 2675,
      " eventually": 2676,
      " Egyptian": 2677,
      " children": 2678,
      "volution": 2679,
      " morning": 2680,
      " Associ": 2681,
      " Despite": 2682,
      " subsequently": 2683,
      " Operation": 2684,
      " Rajne": 2685,
      " Pacific": 2686,
      " WWE": 2687,
      "hing": 2688,
      "with": 2689,
      " sus": 2690,
      "itz": 2691,
      "ena": 2692,
      " fem": 2693,
      " bu": 2694,
      " hous": 2695,
      "ilities": 2696,
      " Sim": 2697,
      " langu": 2698,
      " nar": 2699,
      "omas": 2700,
      "utive": 2701,
      " Int": 2702,
      " Pre": 2703,
      " Nort": 2704,
      " Long": 2705,
      " dead": 2706,
      " rd": 2707,
      " rather": 2708,
      " super": 2709,
      " exec": 2710,
      " key": 2711,
      "pected": 2712,
      " yards": 2713,
      " playing": 2714,
      " assass": 2715,
      " interse": 2716,
      " subject": 2717,
      " pract": 2718,
      " black": 2719,
      " deliver": 2720,
      " initially": 2721,
      " casual": 2722,
      " Russian": 2723,
      " profess": 2724,
      " Doctor": 2725,
      "elligence": 2726,
      "Ch": 2727,
      "eg": 2728,
      "ex": 2729,
      "phib": 2730,
      " sch": 2731,
      " wounded": 2732,
      " body": 2733,
      "aled": 2734,
      " pal": 2735,
      " pound": 2736,
      "asons": 2737,
      "ros": 2738,
      "stant": 2739,
      " Corp": 2740,
      "ama": 2741,
      " station": 2742,
      " Hall": 2743,
      " Hung": 2744,
      " heav": 2745,
      " Rick": 2746,
      " Nerva": 2747,
      " Gold": 2748,
      " Govern": 2749,
      "umn": 2750,
      "ival": 2751,
      "aprang": 2752,
      " vess": 2753,
      " change": 2754,
      " flood": 2755,
      " finished": 2756,
      " rap": 2757,
      " Zeal": 2758,
      " armor": 2759,
      " infantry": 2760,
      " official": 2761,
      " Charles": 2762,
      " Center": 2763,
      " Sovi": 2764,
      " dollar": 2765,
      " quickly": 2766,
      " commercial": 2767,
      " basketball": 2768,
      " trib": 2769,
      " torp": 2770,
      " aer": 2771,
      "atio": 2772,
      " Serv": 2773,
      " AD": 2774,
      " non": 2775,
      " nomin": 2776,
      " Major": 2777,
      " Hor": 2778,
      " Red": 2779,
      " Nak": 2780,
      " Fleet": 2781,
      " Jim": 2782,
      "ests": 2783,
      "eway": 2784,
      " Kn": 2785,
      " example": 2786,
      " itself": 2787,
      " respect": 2788,
      "ibility": 2789,
      " remaining": 2790,
      " mostly": 2791,
      "ossal": 2792,
      " term": 2793,
      " brother": 2794,
      "ippi": 2795,
      " Carol": 2796,
      " concern": 2797,
      " passed": 2798,
      "ociety": 2799,
      " commander": 2800,
      " captured": 2801,
      "ships": 2802,
      " debut": 2803,
      "eckham": 2804,
      " novel": 2805,
      "burg": 2806,
      "uk": 2807,
      "vis": 2808,
      "onse": 2809,
      " sil": 2810,
      " size": 2811,
      " ca": 2812,
      " intended": 2813,
      " told": 2814,
      " ma": 2815,
      " might": 2816,
      "icted": 2817,
      " rein": 2818,
      "iles": 2819,
      " Sw": 2820,
      " CR": 2821,
      " Roman": 2822,
      "ulated": 2823,
      " conver": 2824,
      " Western": 2825,
      " Wales": 2826,
      " sequ": 2827,
      " UFC": 2828,
      " Ke": 2829,
      "ocks": 2830,
      "ude": 2831,
      "clus": 2832,
      " arg": 2833,
      " let": 2834,
      "elling": 2835,
      " weaken": 2836,
      " speed": 2837,
      " coach": 2838,
      " ended": 2839,
      " invasion": 2840,
      " block": 2841,
      " depression": 2842,
      " opened": 2843,
      " typhoon": 2844,
      " Angle": 2845,
      " Angel": 2846,
      " increased": 2847,
      " Young": 2848,
      " primary": 2849,
      " embassy": 2850,
      " Second": 2851,
      " highest": 2852,
      " earlier": 2853,
      " Early": 2854,
      " Mississ": 2855,
      " investig": 2856,
      " Department": 2857,
      " torpedo": 2858,
      "cil": 2859,
      "den": 2860,
      "ging": 2861,
      "pire": 2862,
      " sat": 2863,
      " sout": 2864,
      "aton": 2865,
      "ana": 2866,
      "arian": 2867,
      " purch": 2868,
      " prior": 2869,
      " private": 2870,
      " memor": 2871,
      " rear": 2872,
      " Hit": 2873,
      " Paul": 2874,
      "chie": 2875,
      " whose": 2876,
      " Fort": 2877,
      " Gore": 2878,
      " deep": 2879,
      "ago": 2880,
      " Os": 2881,
      "order": 2882,
      " Val": 2883,
      "orks": 2884,
      "itions": 2885,
      "raltar": 2886,
      "ronic": 2887,
      " neg": 2888,
      "ampion": 2889,
      " monit": 2890,
      " battalion": 2891,
      " decision": 2892,
      " minutes": 2893,
      " terms": 2894,
      " advance": 2895,
      " positions": 2896,
      " approach": 2897,
      " required": 2898,
      "alky": 2899,
      " Scott": 2900,
      " issued": 2901,
      "conom": 2902,
      " wanted": 2903,
      " keep": 2904,
      " appointed": 2905,
      " ens": 2906,
      "Al": 2907,
      "ech": 2908,
      "zo": 2909,
      "hel": 2910,
      "inent": 2911,
      " sides": 2912,
      "rea": 2913,
      "atory": 2914,
      " flying": 2915,
      " ple": 2916,
      " pow": 2917,
      " pred": 2918,
      " dark": 2919,
      " School": 2920,
      "enth": 2921,
      "irid": 2922,
      "imum": 2923,
      "ands": 2924,
      " race": 2925,
      " plot": 2926,
      " exam": 2927,
      " Stra": 2928,
      " aband": 2929,
      " immedi": 2930,
      "oseph": 2931,
      " security": 2932,
      " working": 2933,
      " regular": 2934,
      " teams": 2935,
      " Club": 2936,
      " runs": 2937,
      " response": 2938,
      "ready": 2939,
      " Michael": 2940,
      " community": 2941,
      " limited": 2942,
      " Rhodes": 2943,
      " praised": 2944,
      " average": 2945,
      "stein": 2946,
      "Man": 2947,
      "sen": 2948,
      "sel": 2949,
      "val": 2950,
      "reme": 2951,
      " wife": 2952,
      " cop": 2953,
      " bri": 2954,
      " ball": 2955,
      "lex": 2956,
      " Tre": 2957,
      " Tro": 2958,
      " Tour": 2959,
      " liter": 2960,
      "amar": 2961,
      " Mir": 2962,
      " forward": 2963,
      " stra": 2964,
      " Four": 2965,
      "rial": 2966,
      "agan": 2967,
      "aper": 2968,
      "hief": 2969,
      " plat": 2970,
      " closed": 2971,
      "cluded": 2972,
      " despite": 2973,
      " India": 2974,
      " soon": 2975,
      " according": 2976,
      " continu": 2977,
      " attacks": 2978,
      "atively": 2979,
      " director": 2980,
      " Beauty": 2981,
      " supported": 2982,
      " guitar": 2983,
      " planned": 2984,
      " Adm": 2985,
      " personal": 2986,
      " English": 2987,
      " redu": 2988,
      " architect": 2989,
      " religious": 2990,
      " eye": 2991,
      " George": 2992,
      " Carey": 2993,
      " David": 2994,
      " District": 2995,
      " ill": 2996,
      "II": 2997,
      "ez": 2998,
      "lin": 2999,
      "rn": 3000,
      "wing": 3001,
      " aut": 3002,
      " women": 3003,
      "enc": 3004,
      " cat": 3005,
      "anced": 3006,
      "ases": 3007,
      " mer": 3008,
      "ador": 3009,
      " Cap": 3010,
      " My": 3011,
      " Most": 3012,
      "cts": 3013,
      " asked": 3014,
      "cend": 3015,
      " Latin": 3016,
      " Game": 3017,
      "allen": 3018,
      "tee": 3019,
      "ability": 3020,
      " abs": 3021,
      " scenes": 3022,
      " That": 3023,
      " commission": 3024,
      "oney": 3025,
      " Sea": 3026,
      " better": 3027,
      " numb": 3028,
      " submar": 3029,
      " rail": 3030,
      " relations": 3031,
      " repair": 3032,
      " transferred": 3033,
      " defeat": 3034,
      " Que": 3035,
      "force": 3036,
      "aughter": 3037,
      " figure": 3038,
      " intensity": 3039,
      " Zealand": 3040,
      "bar": 3041,
      "not": 3042,
      "rin": 3043,
      "tained": 3044,
      "ximately": 3045,
      " hor": 3046,
      " hurricane": 3047,
      " Camp": 3048,
      " econom": 3049,
      " Mil": 3050,
      " Mart": 3051,
      "oted": 3052,
      "eton": 3053,
      " Dem": 3054,
      " Wil": 3055,
      " JMA": 3056,
      " selected": 3057,
      " ran": 3058,
      "illa": 3059,
      "berg": 3060,
      "ongs": 3061,
      "hik": 3062,
      " fired": 3063,
      " Valky": 3064,
      " adop": 3065,
      " offered": 3066,
      " Dev": 3067,
      " meas": 3068,
      " amount": 3069,
      " amphib": 3070,
      " entered": 3071,
      " matches": 3072,
      " minor": 3073,
      " Blue": 3074,
      " concert": 3075,
      " Eddie": 3076,
      " Team": 3077,
      " attempted": 3078,
      " movement": 3079,
      " claimed": 3080,
      "ength": 3081,
      " launched": 3082,
      " strength": 3083,
      " probably": 3084,
      " available": 3085,
      " Rajneesh": 3086,
      "ded": 3087,
      "ean": 3088,
      "graf": 3089,
      "hich": 3090,
      "like": 3091,
      "oly": 3092,
      " tar": 3093,
      "erous": 3094,
      "erved": 3095,
      " western": 3096,
      " cred": 3097,
      " counter": 3098,
      " pot": 3099,
      " toget": 3100,
      " tomb": 3101,
      " mother": 3102,
      " domin": 3103,
      " Avenue": 3104,
      " Museum": 3105,
      " Derry": 3106,
      " Following": 3107,
      "oses": 3108,
      "anding": 3109,
      " Wash": 3110,
      " search": 3111,
      "ills": 3112,
      "aker": 3113,
      " except": 3114,
      " prep": 3115,
      " theme": 3116,
      " spent": 3117,
      "rival": 3118,
      " Brigade": 3119,
      " Koreans": 3120,
      " issue": 3121,
      " III": 3122,
      " France": 3123,
      "urtado": 3124,
      " purp": 3125,
      " activities": 3126,
      " discovered": 3127,
      " Senate": 3128,
      " Italian": 3129,
      " Gibraltar": 3130,
      " lyric": 3131,
      " language": 3132,
      " rapid": 3133,
      "pre": 3134,
      "uf": 3135,
      "well": 3136,
      " achie": 3137,
      "era": 3138,
      " failed": 3139,
      " bur": 3140,
      " hard": 3141,
      " Turn": 3142,
      " load": 3143,
      " How": 3144,
      " already": 3145,
      "rie": 3146,
      "rian": 3147,
      " Lo": 3148,
      " Later": 3149,
      " dev": 3150,
      " sea": 3151,
      "istance": 3152,
      " compl": 3153,
      "ify": 3154,
      "imeter": 3155,
      "oke": 3156,
      " screen": 3157,
      " enough": 3158,
      " disp": 3159,
      "nings": 3160,
      " flight": 3161,
      " interview": 3162,
      " mean": 3163,
      " regard": 3164,
      " trade": 3165,
      " larger": 3166,
      " surf": 3167,
      " forms": 3168,
      " accom": 3169,
      " access": 3170,
      " conflic": 3171,
      " educ": 3172,
      " majority": 3173,
      " personnel": 3174,
      " victory": 3175,
      " wooden": 3176,
      " fifth": 3177,
      " together": 3178,
      "At": 3179,
      "mec": 3180,
      "ses": 3181,
      " tru": 3182,
      "oration": 3183,
      " cm": 3184,
      " cam": 3185,
      "isl": 3186,
      " pay": 3187,
      "oud": 3188,
      " Tor": 3189,
      " Beckham": 3190,
      "ider": 3191,
      " states": 3192,
      " staff": 3193,
      " House": 3194,
      " Rober": 3195,
      " Natives": 3196,
      "emporary": 3197,
      " Loren": 3198,
      " Group": 3199,
      "odies": 3200,
      " Eaton": 3201,
      "illion": 3202,
      "ocial": 3203,
      "aven": 3204,
      " prem": 3205,
      "oys": 3206,
      " location": 3207,
      " Clark": 3208,
      " governor": 3209,
      " Columb": 3210,
      " consider": 3211,
      "minist": 3212,
      "mitted": 3213,
      " schools": 3214,
      " combined": 3215,
      " pitcher": 3216,
      " particularly": 3217,
      " Radcliffe": 3218,
      " occurred": 3219,
      " ultimately": 3220,
      " casualties": 3221,
      " Soviet": 3222,
      " Washington": 3223,
      "OT": 3224,
      "down": 3225,
      "han": 3226,
      "iest": 3227,
      "jona": 3228,
      "lo": 3229,
      "light": 3230,
      "iti": 3231,
      "ening": 3232,
      " cemeter": 3233,
      "aly": 3234,
      "rog": 3235,
      "rown": 3236,
      " dyn": 3237,
      " har": 3238,
      " hol": 3239,
      "leb": 3240,
      " tha": 3241,
      " necess": 3242,
      "uri": 3243,
      " Mo": 3244,
      " Mid": 3245,
      " Bh": 3246,
      " Bob": 3247,
      "olis": 3248,
      "olay": 3249,
      " got": 3250,
      "imb": 3251,
      "otes": 3252,
      "ushed": 3253,
      "chan": 3254,
      " always": 3255,
      " conve": 3256,
      "rag": 3257,
      "rapped": 3258,
      "osaur": 3259,
      " Lie": 3260,
      " shown": 3261,
      " Heavy": 3262,
      " jud": 3263,
      " jour": 3264,
      " Thomas": 3265,
      " overall": 3266,
      "osek": 3267,
      "weight": 3268,
      " positive": 3269,
      " ending": 3270,
      " raised": 3271,
      "ouncil": 3272,
      " capital": 3273,
      " elements": 3274,
      " broken": 3275,
      " Conf": 3276,
      " running": 3277,
      " phot": 3278,
      " Imperial": 3279,
      " increasing": 3280,
      " happ": 3281,
      " generally": 3282,
      " radio": 3283,
      " ranked": 3284,
      " President": 3285,
      " Mississippi": 3286,
      " brief": 3287,
      " Valkyria": 3288,
      "aud": 3289,
      "bour": 3290,
      "gn": 3291,
      "mon": 3292,
      "while": 3293,
      " treat": 3294,
      " sour": 3295,
      " wor": 3296,
      " word": 3297,
      " fan": 3298,
      " fans": 3299,
      "isers": 3300,
      " mus": 3301,
      " Matt": 3302,
      "uture": 3303,
      "ows": 3304,
      "ayed": 3305,
      " Rob": 3306,
      "ully": 3307,
      " Lou": 3308,
      "ume": 3309,
      "ump": 3310,
      " Oreg": 3311,
      " proper": 3312,
      "aped": 3313,
      " sched": 3314,
      " evidence": 3315,
      " remains": 3316,
      "oint": 3317,
      "ipal": 3318,
      " finally": 3319,
      " travel": 3320,
      "struction": 3321,
      " landing": 3322,
      "ospital": 3323,
      " shows": 3324,
      " winning": 3325,
      " Imag": 3326,
      " steel": 3327,
      " additional": 3328,
      " marked": 3329,
      " Peter": 3330,
      " reviews": 3331,
      " represented": 3332,
      " status": 3333,
      " cyclone": 3334,
      " observ": 3335,
      " Starr": 3336,
      " Smith": 3337,
      " associated": 3338,
      " becoming": 3339,
      " double": 3340,
      " weapons": 3341,
      " International": 3342,
      " Admiral": 3343,
      " Turner": 3344,
      " ere": 3345,
      "back": 3346,
      "ho": 3347,
      " aim": 3348,
      "erve": 3349,
      " sen": 3350,
      " sal": 3351,
      " sem": 3352,
      "atural": 3353,
      "ita": 3354,
      " fi": 3355,
      " flow": 3356,
      " bi": 3357,
      " pan": 3358,
      "road": 3359,
      " mouth": 3360,
      "ican": 3361,
      " date": 3362,
      " Tur": 3363,
      " think": 3364,
      " Sal": 3365,
      " Sing": 3366,
      " Awards": 3367,
      "ented": 3368,
      " length": 3369,
      "acted": 3370,
      " Mel": 3371,
      " Bond": 3372,
      " Book": 3373,
      " Its": 3374,
      " Nosek": 3375,
      "ements": 3376,
      " Dr": 3377,
      " whom": 3378,
      " sevent": 3379,
      "ods": 3380,
      " comedy": 3381,
      "apa": 3382,
      "ears": 3383,
      " league": 3384,
      "rance": 3385,
      " Art": 3386,
      "ologist": 3387,
      " poor": 3388,
      " continue": 3389,
      " continues": 3390,
      " Atl": 3391,
      " object": 3392,
      " Poland": 3393,
      " nearly": 3394,
      " provide": 3395,
      " Bridge": 3396,
      " Frank": 3397,
      " pattern": 3398,
      " experi": 3399,
      " protect": 3400,
      " structure": 3401,
      " kilomet": 3402,
      " anti": 3403,
      "quarters": 3404,
      " environ": 3405,
      " Ricky": 3406,
      "NL": 3407,
      "ee": 3408,
      "gers": 3409,
      "ror": 3410,
      "ridge": 3411,
      "aries": 3412,
      " mo": 3413,
      "oug": 3414,
      " refer": 3415,
      "ils": 3416,
      " li": 3417,
      " Cold": 3418,
      "ams": 3419,
      " BC": 3420,
      " Bost": 3421,
      " onto": 3422,
      " step": 3423,
      " Ham": 3424,
      "eman": 3425,
      " Dar": 3426,
      " Furtado": 3427,
      " Wal": 3428,
      " deg": 3429,
      "umed": 3430,
      " plans": 3431,
      " party": 3432,
      " dism": 3433,
      " Def": 3434,
      " peace": 3435,
      " supply": 3436,
      " relie": 3437,
      " acqu": 3438,
      " alongside": 3439,
      " designated": 3440,
      " officer": 3441,
      " going": 3442,
      " discuss": 3443,
      " bring": 3444,
      " annual": 3445,
      " steam": 3446,
      " constructed": 3447,
      " slight": 3448,
      " crossing": 3449,
      " grad": 3450,
      " proposed": 3451,
      " White": 3452,
      " European": 3453,
      " visit": 3454,
      " Olmec": 3455,
      " Type": 3456,
      " conducted": 3457,
      " Temple": 3458,
      " Tetrarchs": 3459,
      " numbers": 3460,
      " lyrics": 3461,
      " ut": 3462,
      "gal": 3463,
      "lam": 3464,
      "mun": 3465,
      "ta": 3466,
      "inct": 3467,
      " says": 3468,
      " fund": 3469,
      " ba": 3470,
      " ban": 3471,
      "icle": 3472,
      " ho": 3473,
      " Ak": 3474,
      "enty": 3475,
      " lower": 3476,
      " emer": 3477,
      "iday": 3478,
      "etween": 3479,
      "unction": 3480,
      "emed": 3481,
      " Dire": 3482,
      "osa": 3483,
      " Gr": 3484,
      " Joseph": 3485,
      "ership": 3486,
      " Offic": 3487,
      "ift": 3488,
      " Kent": 3489,
      " exhib": 3490,
      "asty": 3491,
      " championship": 3492,
      " Stud": 3493,
      " lear": 3494,
      " clos": 3495,
      " compared": 3496,
      " enemy": 3497,
      "arked": 3498,
      " Arch": 3499,
      " consisted": 3500,
      " amb": 3501,
      " Ali": 3502,
      " highly": 3503,
      " quar": 3504,
      "uchi": 3505,
      " Lead": 3506,
      " leader": 3507,
      " feature": 3508,
      " Common": 3509,
      " smaller": 3510,
      " Stein": 3511,
      " increase": 3512,
      " possess": 3513,
      " covered": 3514,
      " Empire": 3515,
      " Central": 3516,
      " frequ": 3517,
      " football": 3518,
      " idea": 3519,
      " rainfall": 3520,
      " Acad": 3521,
      " sometimes": 3522,
      " focus": 3523,
      " Billboard": 3524,
      " resulted": 3525,
      " Northern": 3526,
      "dress": 3527,
      "ky": 3528,
      "mese": 3529,
      "phi": 3530,
      "sed": 3531,
      "tong": 3532,
      "wa": 3533,
      " tim": 3534,
      " tell": 3535,
      " future": 3536,
      " crow": 3537,
      "ari": 3538,
      " ben": 3539,
      " bass": 3540,
      " batter": 3541,
      " toward": 3542,
      " mention": 3543,
      " TNA": 3544,
      " things": 3545,
      " Saprang": 3546,
      " Civil": 3547,
      " nature": 3548,
      " Mag": 3549,
      " Bon": 3550,
      " gre": 3551,
      " Nor": 3552,
      " attend": 3553,
      " From": 3554,
      "aguchi": 3555,
      " Over": 3556,
      " upper": 3557,
      " Ver": 3558,
      "lands": 3559,
      " prec": 3560,
      " Arjona": 3561,
      " flank": 3562,
      "ansas": 3563,
      " severe": 3564,
      " active": 3565,
      " actually": 3566,
      " recording": 3567,
      " traffic": 3568,
      " metal": 3569,
      " longer": 3570,
      " termin": 3571,
      " broke": 3572,
      " northwest": 3573,
      " largely": 3574,
      " critical": 3575,
      " refused": 3576,
      " bridge": 3577,
      " extr": 3578,
      " course": 3579,
      " tracks": 3580,
      " phys": 3581,
      " middle": 3582,
      " Super": 3583,
      " divine": 3584,
      " archae": 3585,
      " combat": 3586,
      " situation": 3587,
      " figures": 3588,
      " paint": 3589,
      " detail": 3590,
      " Mountain": 3591,
      " battleships": 3592,
      " sculpture": 3593,
      " problems": 3594,
      "ibrary": 3595,
      " policy": 3596,
      " Lorenzo": 3597,
      " Oregon": 3598,
      "ha": 3599,
      "uan": 3600,
      "ya": 3601,
      " theat": 3602,
      "edic": 3603,
      " wides": 3604,
      "ites": 3605,
      " cer": 3606,
      " incl": 3607,
      " thick": 3608,
      " Ca": 3609,
      " eas": 3610,
      "acon": 3611,
      " giving": 3612,
      "ithic": 3613,
      " Hen": 3614,
      " Hot": 3615,
      "ette": 3616,
      " Ro": 3617,
      " consec": 3618,
      " FI": 3619,
      " Gra": 3620,
      " Jane": 3621,
      "agogue": 3622,
      " Kaw": 3623,
      "antic": 3624,
      "pted": 3625,
      " Storm": 3626,
      " leaving": 3627,
      " parts": 3628,
      "lling": 3629,
      " serious": 3630,
      "viation": 3631,
      " defense": 3632,
      "uilding": 3633,
      " meant": 3634,
      " regime": 3635,
      " Independ": 3636,
      " account": 3637,
      " Allied": 3638,
      "riving": 3639,
      " portion": 3640,
      " approximately": 3641,
      " hands": 3642,
      " Highway": 3643,
      " influence": 3644,
      " Records": 3645,
      " Canada": 3646,
      " audience": 3647,
      " Bulls": 3648,
      " Croat": 3649,
      " Africa": 3650,
      " Victoria": 3651,
      " material": 3652,
      " houses": 3653,
      " schol": 3654,
      " Hitler": 3655,
      " immediately": 3656,
      " ess": 3657,
      "BC": 3658,
      "cript": 3659,
      "oid": 3660,
      "rd": 3661,
      "ws": 3662,
      "were": 3663,
      "yram": 3664,
      " shi": 3665,
      "orney": 3666,
      " faced": 3667,
      " caves": 3668,
      "anes": 3669,
      "alle": 3670,
      " dram": 3671,
      " Tropical": 3672,
      " laid": 3673,
      " Press": 3674,
      " Fer": 3675,
      "osition": 3676,
      "anda": 3677,
      "ander": 3678,
      "anded": 3679,
      " Ll": 3680,
      " Los": 3681,
      " Lake": 3682,
      " deck": 3683,
      " Jul": 3684,
      "ivity": 3685,
      " sust": 3686,
      " Up": 3687,
      "ption": 3688,
      " yet": 3689,
      "ension": 3690,
      " imm": 3691,
      " imag": 3692,
      " office": 3693,
      "wealth": 3694,
      " earth": 3695,
      " assemb": 3696,
      " interest": 3697,
      "rison": 3698,
      " allowing": 3699,
      " equip": 3700,
      " establish": 3701,
      "aught": 3702,
      " media": 3703,
      " era": 3704,
      " suggested": 3705,
      " culture": 3706,
      " evacu": 3707,
      " pressure": 3708,
      " Slayer": 3709,
      " homes": 3710,
      " magazine": 3711,
      " summer": 3712,
      " deployed": 3713,
      "pecially": 3714,
      " variety": 3715,
      " supplies": 3716,
      " village": 3717,
      " Association": 3718,
      " Democr": 3719,
      "hikamar": 3720,
      "che": 3721,
      "gu": 3722,
      "gin": 3723,
      "hy": 3724,
      "har": 3725,
      "ij": 3726,
      "more": 3727,
      "nce": 3728,
      "pired": 3729,
      "war": 3730,
      " ap": 3731,
      "alions": 3732,
      " hop": 3733,
      " Tri": 3734,
      " Times": 3735,
      "aches": 3736,
      " Bay": 3737,
      " Both": 3738,
      " beat": 3739,
      "tere": 3740,
      " Ire": 3741,
      " Iron": 3742,
      " Pagan": 3743,
      " Dream": 3744,
      " Fre": 3745,
      " Field": 3746,
      " Light": 3747,
      " Jos": 3748,
      " End": 3749,
      " via": 3750,
      " Stone": 3751,
      "ishop": 3752,
      " arrest": 3753,
      " shr": 3754,
      "assador": 3755,
      "outs": 3756,
      " Video": 3757,
      "ously": 3758,
      "rania": 3759,
      " room": 3760,
      " ability": 3761,
      " attr": 3762,
      " whole": 3763,
      "aily": 3764,
      " themsel": 3765,
      " consist": 3766,
      "iple": 3767,
      " feel": 3768,
      " assigned": 3769,
      "azirid": 3770,
      " prison": 3771,
      " albums": 3772,
      " Sholay": 3773,
      " Many": 3774,
      " poems": 3775,
      " independ": 3776,
      " meth": 3777,
      "ernand": 3778,
      " likely": 3779,
      "ootball": 3780,
      " passing": 3781,
      "iversary": 3782,
      " turns": 3783,
      " type": 3784,
      "mitt": 3785,
      " Franc": 3786,
      " greatest": 3787,
      " initial": 3788,
      " Burmese": 3789,
      " freeway": 3790,
      " influenced": 3791,
      " Markgraf": 3792,
      "ography": 3793,
      " coins": 3794,
      " changes": 3795,
      " commented": 3796,
      " encounter": 3797,
      " separate": 3798,
      " female": 3799,
      " professional": 3800,
      " Corps": 3801,
      " Carolina": 3802,
      "chest": 3803,
      "ea": 3804,
      "gas": 3805,
      "lers": 3806,
      "pread": 3807,
      "ze": 3808,
      " tax": 3809,
      " wall": 3810,
      " our": 3811,
      "nds": 3812,
      " fail": 3813,
      " fought": 3814,
      " cave": 3815,
      "isions": 3816,
      " makes": 3817,
      " doc": 3818,
      " Trans": 3819,
      " referred": 3820,
      " Som": 3821,
      "adel": 3822,
      " link": 3823,
      " losing": 3824,
      "amm": 3825,
      " Mass": 3826,
      "ola": 3827,
      "irt": 3828,
      " grew": 3829,
      "tered": 3830,
      "uten": 3831,
      "ether": 3832,
      "emic": 3833,
      "that": 3834,
      " ancient": 3835,
      " Je": 3836,
      "resh": 3837,
      "aks": 3838,
      "anti": 3839,
      "anted": 3840,
      "acks": 3841,
      " Chan": 3842,
      " score": 3843,
      " recover": 3844,
      " Through": 3845,
      " prepar": 3846,
      " secret": 3847,
      " Arm": 3848,
      " earned": 3849,
      "licop": 3850,
      "aza": 3851,
      " warships": 3852,
      " monuments": 3853,
      " records": 3854,
      " Maya": 3855,
      " election": 3856,
      " presence": 3857,
      " sett": 3858,
      " guard": 3859,
      " Conference": 3860,
      " Mean": 3861,
      " planning": 3862,
      " confir": 3863,
      " trial": 3864,
      " resulting": 3865,
      " People": 3866,
      " companies": 3867,
      "borne": 3868,
      " Calif": 3869,
      " declared": 3870,
      " religion": 3871,
      " promoted": 3872,
      "graded": 3873,
      " moving": 3874,
      " helped": 3875,
      " international": 3876,
      " Canadian": 3877,
      " surrounding": 3878,
      " Angeles": 3879,
      " Louis": 3880,
      " Commonwealth": 3881,
      " Kawaguchi": 3882,
      "hikamaru": 3883,
      "He": 3884,
      "Works": 3885,
      "gress": 3886,
      "mes": 3887,
      "ped": 3888,
      "under": 3889,
      "writ": 3890,
      " tal": 3891,
      " task": 3892,
      " sa": 3893,
      " si": 3894,
      "nding": 3895,
      "orated": 3896,
      " fast": 3897,
      " fully": 3898,
      "isters": 3899,
      " border": 3900,
      "asc": 3901,
      " max": 3902,
      " money": 3903,
      " du": 3904,
      " thr": 3905,
      " reach": 3906,
      " Sur": 3907,
      " lab": 3908,
      " lik": 3909,
      " net": 3910,
      " nation": 3911,
      "acement": 3912,
      " Mr": 3913,
      " Mac": 3914,
      "ida": 3915,
      " gam": 3916,
      " give": 3917,
      "ima": 3918,
      "cture": 3919,
      "uting": 3920,
      " Hed": 3921,
      "cean": 3922,
      " Rif": 3923,
      "andy": 3924,
      " Gall": 3925,
      " suc": 3926,
      " Kra": 3927,
      " chap": 3928,
      "elled": 3929,
      " composed": 3930,
      " display": 3931,
      "ecause": 3932,
      "inds": 3933,
      " Sever": 3934,
      " Dep": 3935,
      " assault": 3936,
      " newly": 3937,
      " Zap": 3938,
      " carved": 3939,
      " armed": 3940,
      " emperor": 3941,
      " Classic": 3942,
      " synt": 3943,
      " Lee": 3944,
      "fully": 3945,
      " artists": 3946,
      "ornia": 3947,
      " nearby": 3948,
      " county": 3949,
      " services": 3950,
      " request": 3951,
      " organization": 3952,
      " issues": 3953,
      " especially": 3954,
      " twenty": 3955,
      " Richard": 3956,
      "ASA": 3957,
      " purs": 3958,
      " surviving": 3959,
      " Islands": 3960,
      " cultural": 3961,
      " celeb": 3962,
      " piece": 3963,
      " pieces": 3964,
      " injury": 3965,
      " responsible": 3966,
      " certain": 3967,
      " fitted": 3968,
      " pilot": 3969,
      " accepted": 3970,
      " Office": 3971,
      " synagogue": 3972,
      " determ": 3973,
      " heavily": 3974,
      " Naktong": 3975,
      "ufact": 3976,
      " Robert": 3977,
      " Boston": 3978,
      "Sh": 3979,
      "kn": 3980,
      "ugh": 3981,
      "yan": 3982,
      " aid": 3983,
      "err": 3984,
      " sac": 3985,
      " square": 3986,
      "rec": 3987,
      " wer": 3988,
      " wrest": 3989,
      " woman": 3990,
      " waters": 3991,
      " oil": 3992,
      "itation": 3993,
      "ancial": 3994,
      " bul": 3995,
      " pick": 3996,
      " touch": 3997,
      " mob": 3998,
      " male": 3999,
      " der": 4000,
      " done": 4001,
      " draft": 4002,
      " daughter": 4003,
      "lege": 4004,
      " rev": 4005,
      " Ay": 4006,
      " love": 4007,
      " living": 4008,
      "acan": 4009,
      " Bra": 4010,
      " gar": 4011,
      "utions": 4012,
      "ownt": 4013,
      " Hy": 4014,
      " Hong": 4015,
      "ett": 4016,
      " helicop": 4017,
      "unte": 4018,
      "thur": 4019,
      " Fit": 4020,
      " seg": 4021,
      " Ele": 4022,
      " UN": 4023,
      " Urania": 4024,
      " Inter": 4025,
      " challen": 4026,
      " Chris": 4027,
      " Chronic": 4028,
      "achus": 4029,
      " recon": 4030,
      " defence": 4031,
      " colossal": 4032,
      " related": 4033,
      " produce": 4034,
      " battalions": 4035,
      " Asia": 4036,
      " door": 4037,
      " transfer": 4038,
      " territ": 4039,
      " setting": 4040,
      " Christian": 4041,
      " extensive": 4042,
      " edge": 4043,
      " inspired": 4044,
      "undred": 4045,
      " organiz": 4046,
      " demon": 4047,
      " performances": 4048,
      " contrast": 4049,
      " divided": 4050,
      " primarily": 4051,
      " evacuation": 4052,
      " awarded": 4053,
      " Nazi": 4054,
      " vocal": 4055,
      " tower": 4056,
      " conditions": 4057,
      " Service": 4058,
      " straight": 4059,
      " conflict": 4060,
      " Clarkson": 4061,
      " Coldrum": 4062,
      "phia": 4063,
      " consecutive": 4064,
      "utenant": 4065,
      " rough": 4066,
      "TW": 4067,
      "gs": 4068,
      "och": 4069,
      "right": 4070,
      "sy": 4071,
      " takes": 4072,
      " af": 4073,
      " actions": 4074,
      " sun": 4075,
      " wors": 4076,
      " wins": 4077,
      "enburg": 4078,
      " fle": 4079,
      " fict": 4080,
      " cur": 4081,
      "isf": 4082,
      "ises": 4083,
      " big": 4084,
      " pun": 4085,
      " park": 4086,
      " mel": 4087,
      " drum": 4088,
      " TV": 4089,
      " Tower": 4090,
      " reason": 4091,
      "amber": 4092,
      "urst": 4093,
      "vey": 4094,
      "vement": 4095
    },
    "merges": [
      [
        " ",
        "t"
      ],
      [
        "h",
        "e"
      ],
      [
        " ",
        "a"
      ],
      [
        "i",
        "n"
      ],
      [
        " t",
        "he"
      ],
      [
        "e",
        "r"
      ],
      [
        "o",
        "n"
      ],
      [
        " ",
        "s"
      ],
      [
        "e",
        "d"
      ],
      [
        "r",
        "e"
      ],
      [
        " ",
        "w"
      ],
      [
        " ",
        "o"
      ],
      [
        "n",
        "d"
      ],
      [
        "a",
        "t"
      ],
      [
        "o",
        "r"
      ],
      [
        "i",
        "t"
      ],
      [
        "e",
        "n"
      ],
      [
        " ",
        "f"
      ],
      [
        " ",
        "c"
      ],
      [
        "e",
        "s"
      ],
      [
        "a",
        "n"
      ],
      [
        "a",
        "r"
      ],
      [
        " o",
        "f"
      ],
      [
        "i",
        "s"
      ],
      [
        " ",
        "b"
      ],
      [
        " ",
        "in"
      ],
      [
        "a",
        "l"
      ],
      [
        "in",
        "g"
      ],
      [
        " ",
        "p"
      ],
      [
        "a",
        "s"
      ],
      [
        " a",
        "nd"
      ],
      [
        " t",
        "o"
      ],
      [
        "r",
        "o"
      ],
      [
        " ",
        "m"
      ],
      [
        "i",
        "c"
      ],
      [
        " ",
        "d"
      ],
      [
        " ",
        "h"
      ],
      [
        "i",
        "on"
      ],
      [
        "o",
        "u"
      ],
      [
        "l",
        "e"
      ],
      [
        " ",
        "T"
      ],
      [
        " t",
        "h"
      ],
      [
        " ",
        "re"
      ],
      [
        "i",
        "l"
      ],
      [
        " ",
        "S"
      ],
      [
        " ",
        "A"
      ],
      [
        "en",
        "t"
      ],
      [
        "s",
        "t"
      ],
      [
        "a",
        "d"
      ],
      [
        " ",
        "l"
      ],
      [
        " ",
        "C"
      ],
      [
        " ",
        "e"
      ],
      [
        " ",
        "n"
      ],
      [
        "a",
        "c"
      ],
      [
        "l",
        "y"
      ],
      [
        "a",
        "m"
      ],
      [
        "o",
        "m"
      ],
      [
        " w",
        "as"
      ],
      [
        "u",
        "r"
      ],
      [
        " ",
        "M"
      ],
      [
        " ",
        "B"
      ],
      [
        " ",
        "on"
      ],
      [
        "o",
        "l"
      ],
      [
        " b",
        "e"
      ],
      [
        "i",
        "r"
      ],
      [
        "i",
        "d"
      ],
      [
        "v",
        "e"
      ],
      [
        " ",
        "g"
      ],
      [
        "i",
        "m"
      ],
      [
        "i",
        "g"
      ],
      [
        "t",
        "er"
      ],
      [
        " f",
        "or"
      ],
      [
        "c",
        "t"
      ],
      [
        "o",
        "t"
      ],
      [
        " T",
        "he"
      ],
      [
        "v",
        "er"
      ],
      [
        "u",
        "t"
      ],
      [
        " ",
        "I"
      ],
      [
        "o",
        "w"
      ],
      [
        " a",
        "s"
      ],
      [
        " s",
        "t"
      ],
      [
        "e",
        "l"
      ],
      [
        "it",
        "h"
      ],
      [
        "u",
        "s"
      ],
      [
        "a",
        "y"
      ],
      [
        " ",
        "H"
      ],
      [
        "e",
        "t"
      ],
      [
        "c",
        "e"
      ],
      [
        " ",
        "he"
      ],
      [
        "at",
        "ion"
      ],
      [
        " ",
        "R"
      ],
      [
        " ",
        "P"
      ],
      [
        "c",
        "h"
      ],
      [
        "u",
        "n"
      ],
      [
        " ",
        "N"
      ],
      [
        " w",
        "ith"
      ],
      [
        " th",
        "at"
      ],
      [
        "u",
        "l"
      ],
      [
        " a",
        "t"
      ],
      [
        "e",
        "m"
      ],
      [
        " b",
        "y"
      ],
      [
        " a",
        "l"
      ],
      [
        " ",
        "D"
      ],
      [
        " c",
        "on"
      ],
      [
        "t",
        "h"
      ],
      [
        " w",
        "h"
      ],
      [
        " ",
        "F"
      ],
      [
        "r",
        "a"
      ],
      [
        "o",
        "s"
      ],
      [
        "r",
        "i"
      ],
      [
        "a",
        "nd"
      ],
      [
        " a",
        "n"
      ],
      [
        " ",
        "L"
      ],
      [
        " ",
        "W"
      ],
      [
        " ",
        "is"
      ],
      [
        " ",
        "G"
      ],
      [
        " d",
        "e"
      ],
      [
        " ",
        "J"
      ],
      [
        " s",
        "e"
      ],
      [
        "ro",
        "m"
      ],
      [
        " ",
        "it"
      ],
      [
        "er",
        "e"
      ],
      [
        "u",
        "m"
      ],
      [
        "is",
        "t"
      ],
      [
        "er",
        "s"
      ],
      [
        "a",
        "in"
      ],
      [
        "he",
        "r"
      ],
      [
        "a",
        "g"
      ],
      [
        "es",
        "t"
      ],
      [
        " w",
        "ere"
      ],
      [
        "p",
        "p"
      ],
      [
        "o",
        "d"
      ],
      [
        " ",
        "E"
      ],
      [
        " f",
        "rom"
      ],
      [
        " ",
        "r"
      ],
      [
        "or",
        "t"
      ],
      [
        "at",
        "e"
      ],
      [
        " c",
        "om"
      ],
      [
        "re",
        "s"
      ],
      [
        "il",
        "l"
      ],
      [
        "ig",
        "h"
      ],
      [
        "o",
        "p"
      ],
      [
        " h",
        "is"
      ],
      [
        "i",
        "v"
      ],
      [
        " s",
        "u"
      ],
      [
        " ",
        "O"
      ],
      [
        "b",
        "er"
      ],
      [
        "i",
        "f"
      ],
      [
        "on",
        "g"
      ],
      [
        "l",
        "d"
      ],
      [
        "ic",
        "h"
      ],
      [
        "o",
        "re"
      ],
      [
        "e",
        "w"
      ],
      [
        "i",
        "an"
      ],
      [
        " p",
        "ro"
      ],
      [
        "a",
        "k"
      ],
      [
        " ",
        "U"
      ],
      [
        "s",
        "e"
      ],
      [
        "al",
        "l"
      ],
      [
        "i",
        "es"
      ],
      [
        "a",
        "p"
      ],
      [
        " ",
        "K"
      ],
      [
        "ro",
        "u"
      ],
      [
        "at",
        "ed"
      ],
      [
        "q",
        "u"
      ],
      [
        "h",
        "i"
      ],
      [
        " ",
        "v"
      ],
      [
        "it",
        "y"
      ],
      [
        "o",
        "c"
      ],
      [
        "g",
        "h"
      ],
      [
        "t",
        "e"
      ],
      [
        " p",
        "l"
      ],
      [
        "ar",
        "t"
      ],
      [
        "ar",
        "d"
      ],
      [
        "i",
        "ve"
      ],
      [
        "an",
        "t"
      ],
      [
        " h",
        "ad"
      ],
      [
        "u",
        "d"
      ],
      [
        "g",
        "e"
      ],
      [
        "u",
        "st"
      ],
      [
        "ac",
        "k"
      ],
      [
        " o",
        "r"
      ],
      [
        " e",
        "x"
      ],
      [
        "ou",
        "r"
      ],
      [
        "a",
        "b"
      ],
      [
        "e",
        "ar"
      ],
      [
        "c",
        "l"
      ],
      [
        "m",
        "ent"
      ],
      [
        " ",
        "k"
      ],
      [
        "am",
        "e"
      ],
      [
        "es",
        "s"
      ],
      [
        "a",
        "v"
      ],
      [
        "p",
        "e"
      ],
      [
        "as",
        "t"
      ],
      [
        "n",
        "t"
      ],
      [
        " a",
        "re"
      ],
      [
        "igh",
        "t"
      ],
      [
        " wh",
        "ich"
      ],
      [
        " I",
        "n"
      ],
      [
        "p",
        "t"
      ],
      [
        "i",
        "al"
      ],
      [
        " c",
        "h"
      ],
      [
        " S",
        "t"
      ],
      [
        "o",
        "st"
      ],
      [
        " ",
        "u"
      ],
      [
        "i",
        "a"
      ],
      [
        " C",
        "h"
      ],
      [
        "is",
        "h"
      ],
      [
        " n",
        "ot"
      ],
      [
        " a",
        "r"
      ],
      [
        "r",
        "it"
      ],
      [
        "ar",
        "y"
      ],
      [
        "in",
        "e"
      ],
      [
        " s",
        "h"
      ],
      [
        "or",
        "d"
      ],
      [
        "r",
        "u"
      ],
      [
        " ",
        "le"
      ],
      [
        " ",
        "y"
      ],
      [
        "t",
        "her"
      ],
      [
        " ",
        "un"
      ],
      [
        "o",
        "g"
      ],
      [
        "ct",
        "ion"
      ],
      [
        "r",
        "y"
      ],
      [
        "id",
        "e"
      ],
      [
        "s",
        "o"
      ],
      [
        "a",
        "ve"
      ],
      [
        "f",
        "ter"
      ],
      [
        "as",
        "s"
      ],
      [
        "on",
        "d"
      ],
      [
        " H",
        "e"
      ],
      [
        "p",
        "l"
      ],
      [
        "T",
        "he"
      ],
      [
        "el",
        "l"
      ],
      [
        "w",
        "o"
      ],
      [
        "p",
        "er"
      ],
      [
        "ic",
        "al"
      ],
      [
        "ig",
        "n"
      ],
      [
        " f",
        "ir"
      ],
      [
        "i",
        "e"
      ],
      [
        "u",
        "e"
      ],
      [
        " the",
        "ir"
      ],
      [
        "f",
        "f"
      ],
      [
        "ou",
        "t"
      ],
      [
        "ou",
        "ld"
      ],
      [
        " con",
        "t"
      ],
      [
        "ow",
        "n"
      ],
      [
        "c",
        "c"
      ],
      [
        " ",
        "V"
      ],
      [
        "ou",
        "s"
      ],
      [
        " in",
        "t"
      ],
      [
        "u",
        "re"
      ],
      [
        "m",
        "er"
      ],
      [
        "om",
        "e"
      ],
      [
        "im",
        "e"
      ],
      [
        " al",
        "so"
      ],
      [
        "l",
        "ow"
      ],
      [
        " b",
        "ut"
      ],
      [
        " it",
        "s"
      ],
      [
        "or",
        "k"
      ],
      [
        "it",
        "ion"
      ],
      [
        "r",
        "an"
      ],
      [
        "hi",
        "p"
      ],
      [
        "m",
        "an"
      ],
      [
        " c",
        "l"
      ],
      [
        "re",
        "e"
      ],
      [
        " w",
        "he"
      ],
      [
        " ",
        "ro"
      ],
      [
        "t",
        "ed"
      ],
      [
        "n",
        "g"
      ],
      [
        "o",
        "k"
      ],
      [
        " a",
        "g"
      ],
      [
        " a",
        "b"
      ],
      [
        " fir",
        "st"
      ],
      [
        "he",
        "d"
      ],
      [
        " p",
        "er"
      ],
      [
        " a",
        "d"
      ],
      [
        " on",
        "e"
      ],
      [
        "ur",
        "ing"
      ],
      [
        "at",
        "er"
      ],
      [
        "v",
        "ed"
      ],
      [
        " re",
        "s"
      ],
      [
        "ag",
        "e"
      ],
      [
        "i",
        "re"
      ],
      [
        " t",
        "wo"
      ],
      [
        " be",
        "en"
      ],
      [
        " ",
        "us"
      ],
      [
        "u",
        "b"
      ],
      [
        " s",
        "c"
      ],
      [
        "ac",
        "h"
      ],
      [
        "k",
        "e"
      ],
      [
        " com",
        "p"
      ],
      [
        "t",
        "s"
      ],
      [
        "en",
        "s"
      ],
      [
        "r",
        "al"
      ],
      [
        " h",
        "as"
      ],
      [
        " t",
        "e"
      ],
      [
        "i",
        "z"
      ],
      [
        " h",
        "ave"
      ],
      [
        "ou",
        "gh"
      ],
      [
        " re",
        "c"
      ],
      [
        "en",
        "ce"
      ],
      [
        " ",
        "j"
      ],
      [
        "ou",
        "nd"
      ],
      [
        " a",
        "fter"
      ],
      [
        " ",
        "Y"
      ],
      [
        "o",
        "ver"
      ],
      [
        "al",
        "ly"
      ],
      [
        " T",
        "h"
      ],
      [
        "e",
        "ct"
      ],
      [
        " ",
        "im"
      ],
      [
        "a",
        "w"
      ],
      [
        "cl",
        "ud"
      ],
      [
        " of",
        "f"
      ],
      [
        "or",
        "m"
      ],
      [
        " p",
        "art"
      ],
      [
        " at",
        "t"
      ],
      [
        "nd",
        "er"
      ],
      [
        " o",
        "ver"
      ],
      [
        " ",
        "en"
      ],
      [
        "at",
        "t"
      ],
      [
        "r",
        "on"
      ],
      [
        " th",
        "is"
      ],
      [
        "l",
        "l"
      ],
      [
        "ac",
        "e"
      ],
      [
        " wh",
        "o"
      ],
      [
        "ar",
        "k"
      ],
      [
        " d",
        "is"
      ],
      [
        "ou",
        "nt"
      ],
      [
        " he",
        "r"
      ],
      [
        " d",
        "es"
      ],
      [
        " be",
        "c"
      ],
      [
        "ul",
        "t"
      ],
      [
        "ad",
        "e"
      ],
      [
        " a",
        "pp"
      ],
      [
        "p",
        "ort"
      ],
      [
        "c",
        "es"
      ],
      [
        "e",
        "c"
      ],
      [
        " the",
        "y"
      ],
      [
        " I",
        "t"
      ],
      [
        "in",
        "d"
      ],
      [
        " o",
        "ut"
      ],
      [
        "rou",
        "nd"
      ],
      [
        "ion",
        "s"
      ],
      [
        "ation",
        "s"
      ],
      [
        "res",
        "s"
      ],
      [
        "p",
        "h"
      ],
      [
        "n",
        "e"
      ],
      [
        "l",
        "and"
      ],
      [
        "w",
        "ard"
      ],
      [
        "or",
        "th"
      ],
      [
        " m",
        "an"
      ],
      [
        "ic",
        "e"
      ],
      [
        "ur",
        "n"
      ],
      [
        " t",
        "ime"
      ],
      [
        "a",
        "re"
      ],
      [
        " com",
        "m"
      ],
      [
        " w",
        "e"
      ],
      [
        "o",
        "ve"
      ],
      [
        "c",
        "ed"
      ],
      [
        "t",
        "he"
      ],
      [
        " s",
        "er"
      ],
      [
        "f",
        "t"
      ],
      [
        "rou",
        "gh"
      ],
      [
        " e",
        "v"
      ],
      [
        "ac",
        "t"
      ],
      [
        " pl",
        "ay"
      ],
      [
        "os",
        "e"
      ],
      [
        "r",
        "ic"
      ],
      [
        "is",
        "s"
      ],
      [
        "i",
        "ed"
      ],
      [
        "w",
        "e"
      ],
      [
        "d",
        "u"
      ],
      [
        " u",
        "p"
      ],
      [
        " in",
        "clud"
      ],
      [
        " int",
        "o"
      ],
      [
        "i",
        "b"
      ],
      [
        "i",
        "le"
      ],
      [
        " p",
        "re"
      ],
      [
        " y",
        "ear"
      ],
      [
        "v",
        "i"
      ],
      [
        "an",
        "ce"
      ],
      [
        "ol",
        "d"
      ],
      [
        " U",
        "n"
      ],
      [
        "ou",
        "th"
      ],
      [
        " re",
        "m"
      ],
      [
        " o",
        "ther"
      ],
      [
        "it",
        "e"
      ],
      [
        " f",
        "il"
      ],
      [
        "o",
        "in"
      ],
      [
        "s",
        "s"
      ],
      [
        "on",
        "s"
      ],
      [
        " n",
        "e"
      ],
      [
        "it",
        "ed"
      ],
      [
        "on",
        "e"
      ],
      [
        "l",
        "es"
      ],
      [
        " A",
        "ust"
      ],
      [
        "g",
        "an"
      ],
      [
        "as",
        "ed"
      ],
      [
        "or",
        "y"
      ],
      [
        " h",
        "im"
      ],
      [
        " al",
        "l"
      ],
      [
        " w",
        "ould"
      ],
      [
        "or",
        "s"
      ],
      [
        " d",
        "uring"
      ],
      [
        " S",
        "e"
      ],
      [
        "ter",
        "n"
      ],
      [
        " se",
        "c"
      ],
      [
        " ag",
        "ain"
      ],
      [
        "at",
        "es"
      ],
      [
        "an",
        "g"
      ],
      [
        "in",
        "es"
      ],
      [
        "am",
        "p"
      ],
      [
        " D",
        "e"
      ],
      [
        " m",
        "ore"
      ],
      [
        "o",
        "y"
      ],
      [
        "w",
        "ay"
      ],
      [
        "ve",
        "l"
      ],
      [
        "er",
        "ed"
      ],
      [
        "as",
        "e"
      ],
      [
        " A",
        "r"
      ],
      [
        "i",
        "ver"
      ],
      [
        " e",
        "ar"
      ],
      [
        " fil",
        "m"
      ],
      [
        " s",
        "he"
      ],
      [
        " de",
        "f"
      ],
      [
        "a",
        "il"
      ],
      [
        " B",
        "rit"
      ],
      [
        "n",
        "ing"
      ],
      [
        "ent",
        "s"
      ],
      [
        " f",
        "l"
      ],
      [
        "ol",
        "low"
      ],
      [
        " the",
        "m"
      ],
      [
        " con",
        "s"
      ],
      [
        "k",
        "s"
      ],
      [
        "u",
        "il"
      ],
      [
        " U",
        "S"
      ],
      [
        " s",
        "pe"
      ],
      [
        " s",
        "p"
      ],
      [
        "r",
        "ed"
      ],
      [
        "ab",
        "le"
      ],
      [
        " u",
        "nder"
      ],
      [
        "f",
        "er"
      ],
      [
        " w",
        "ork"
      ],
      [
        " th",
        "ree"
      ],
      [
        "i",
        "p"
      ],
      [
        " m",
        "ost"
      ],
      [
        " on",
        "ly"
      ],
      [
        "mer",
        "ic"
      ],
      [
        "w",
        "n"
      ],
      [
        " R",
        "e"
      ],
      [
        "ri",
        "b"
      ],
      [
        "l",
        "ic"
      ],
      [
        "an",
        "s"
      ],
      [
        "i",
        "o"
      ],
      [
        " p",
        "os"
      ],
      [
        " a",
        "ir"
      ],
      [
        " f",
        "e"
      ],
      [
        " be",
        "t"
      ],
      [
        "re",
        "at"
      ],
      [
        "as",
        "on"
      ],
      [
        " c",
        "o"
      ],
      [
        "is",
        "ion"
      ],
      [
        " re",
        "t"
      ],
      [
        " n",
        "um"
      ],
      [
        "ot",
        "h"
      ],
      [
        " C",
        "om"
      ],
      [
        " as",
        "s"
      ],
      [
        "o",
        "b"
      ],
      [
        " e",
        "nd"
      ],
      [
        " c",
        "ent"
      ],
      [
        " n",
        "ew"
      ],
      [
        " N",
        "ew"
      ],
      [
        " in",
        "ter"
      ],
      [
        "ing",
        "s"
      ],
      [
        " A",
        "meric"
      ],
      [
        " m",
        "e"
      ],
      [
        " f",
        "in"
      ],
      [
        "o",
        "od"
      ],
      [
        "ol",
        "og"
      ],
      [
        "ct",
        "ed"
      ],
      [
        "ic",
        "k"
      ],
      [
        " su",
        "b"
      ],
      [
        " p",
        "e"
      ],
      [
        "ation",
        "al"
      ],
      [
        " re",
        "g"
      ],
      [
        "f",
        "ore"
      ],
      [
        "re",
        "n"
      ],
      [
        " Aust",
        "ral"
      ],
      [
        "a",
        "z"
      ],
      [
        "ter",
        "s"
      ],
      [
        "i",
        "x"
      ],
      [
        " c",
        "ol"
      ],
      [
        " k",
        "n"
      ],
      [
        " ",
        "ra"
      ],
      [
        "we",
        "en"
      ],
      [
        "m",
        "ber"
      ],
      [
        "u",
        "al"
      ],
      [
        " d",
        "ay"
      ],
      [
        " whe",
        "n"
      ],
      [
        " he",
        "ad"
      ],
      [
        "a",
        "us"
      ],
      [
        " t",
        "r"
      ],
      [
        "I",
        "n"
      ],
      [
        "e",
        "nd"
      ],
      [
        " f",
        "our"
      ],
      [
        "u",
        "g"
      ],
      [
        " ab",
        "out"
      ],
      [
        "ak",
        "e"
      ],
      [
        "c",
        "k"
      ],
      [
        "ro",
        "p"
      ],
      [
        " th",
        "rough"
      ],
      [
        " l",
        "ater"
      ],
      [
        " M",
        "ar"
      ],
      [
        " ",
        "Z"
      ],
      [
        " su",
        "pp"
      ],
      [
        "a",
        "j"
      ],
      [
        "em",
        "ber"
      ],
      [
        "en",
        "er"
      ],
      [
        " s",
        "hip"
      ],
      [
        " w",
        "ar"
      ],
      [
        " wh",
        "ile"
      ],
      [
        " p",
        "r"
      ],
      [
        " a",
        "m"
      ],
      [
        " c",
        "ar"
      ],
      [
        " G",
        "er"
      ],
      [
        "at",
        "ing"
      ],
      [
        " in",
        "v"
      ],
      [
        " re",
        "l"
      ],
      [
        "b",
        "um"
      ],
      [
        " s",
        "ome"
      ],
      [
        " A",
        "l"
      ],
      [
        "c",
        "i"
      ],
      [
        " f",
        "ollow"
      ],
      [
        " m",
        "on"
      ],
      [
        "ic",
        "t"
      ],
      [
        "i",
        "ke"
      ],
      [
        " l",
        "ar"
      ],
      [
        " te",
        "am"
      ],
      [
        "oc",
        "k"
      ],
      [
        " whe",
        "re"
      ],
      [
        " ",
        "i"
      ],
      [
        " ar",
        "m"
      ],
      [
        "a",
        "id"
      ],
      [
        " s",
        "ong"
      ],
      [
        " m",
        "ade"
      ],
      [
        " s",
        "ur"
      ],
      [
        "it",
        "ies"
      ],
      [
        " for",
        "m"
      ],
      [
        "l",
        "s"
      ],
      [
        " th",
        "an"
      ],
      [
        " se",
        "ver"
      ],
      [
        " W",
        "ar"
      ],
      [
        " a",
        "ct"
      ],
      [
        "o",
        "ok"
      ],
      [
        " b",
        "uil"
      ],
      [
        " bet",
        "ween"
      ],
      [
        "i",
        "k"
      ],
      [
        " Brit",
        "ish"
      ],
      [
        " be",
        "fore"
      ],
      [
        " I",
        "nd"
      ],
      [
        " c",
        "ity"
      ],
      [
        "over",
        "n"
      ],
      [
        " num",
        "ber"
      ],
      [
        " O",
        "n"
      ],
      [
        " se",
        "ason"
      ],
      [
        " pro",
        "du"
      ],
      [
        "al",
        "s"
      ],
      [
        " Ger",
        "man"
      ],
      [
        " be",
        "ing"
      ],
      [
        " g",
        "ame"
      ],
      [
        " sec",
        "ond"
      ],
      [
        " l",
        "oc"
      ],
      [
        " again",
        "st"
      ],
      [
        "ain",
        "ed"
      ],
      [
        " a",
        "c"
      ],
      [
        " h",
        "igh"
      ],
      [
        " n",
        "o"
      ],
      [
        "if",
        "ic"
      ],
      [
        " s",
        "o"
      ],
      [
        " re",
        "le"
      ],
      [
        " rec",
        "ord"
      ],
      [
        "e",
        "ver"
      ],
      [
        "o",
        "v"
      ],
      [
        " al",
        "bum"
      ],
      [
        " g",
        "un"
      ],
      [
        "in",
        "t"
      ],
      [
        " S",
        "h"
      ],
      [
        " us",
        "ed"
      ],
      [
        "rou",
        "p"
      ],
      [
        " M",
        "an"
      ],
      [
        " a",
        "cc"
      ],
      [
        "or",
        "ld"
      ],
      [
        " in",
        "c"
      ],
      [
        "ap",
        "an"
      ],
      [
        " ch",
        "ar"
      ],
      [
        "ro",
        "ss"
      ],
      [
        " e",
        "m"
      ],
      [
        "av",
        "y"
      ],
      [
        " per",
        "f"
      ],
      [
        " in",
        "f"
      ],
      [
        "ow",
        "er"
      ],
      [
        "he",
        "s"
      ],
      [
        " the",
        "re"
      ],
      [
        "ran",
        "s"
      ],
      [
        "an",
        "k"
      ],
      [
        " re",
        "p"
      ],
      [
        " t",
        "ra"
      ],
      [
        "a",
        "ir"
      ],
      [
        "em",
        "b"
      ],
      [
        "d",
        "er"
      ],
      [
        " b",
        "att"
      ],
      [
        "ul",
        "ar"
      ],
      [
        "at",
        "h"
      ],
      [
        " p",
        "o"
      ],
      [
        " J",
        "apan"
      ],
      [
        "in",
        "ce"
      ],
      [
        "ian",
        "s"
      ],
      [
        " cont",
        "in"
      ],
      [
        " att",
        "ack"
      ],
      [
        "v",
        "en"
      ],
      [
        " A",
        "t"
      ],
      [
        "am",
        "es"
      ],
      [
        "i",
        "el"
      ],
      [
        "s",
        "on"
      ],
      [
        " ",
        "ent"
      ],
      [
        "is",
        "hed"
      ],
      [
        " M",
        "ay"
      ],
      [
        "vel",
        "op"
      ],
      [
        " o",
        "per"
      ],
      [
        " in",
        "d"
      ],
      [
        "a",
        "u"
      ],
      [
        " sever",
        "al"
      ],
      [
        " A",
        "s"
      ],
      [
        "ot",
        "her"
      ],
      [
        " L",
        "es"
      ],
      [
        " su",
        "ch"
      ],
      [
        " p",
        "ol"
      ],
      [
        " m",
        "at"
      ],
      [
        " C",
        "l"
      ],
      [
        "es",
        "e"
      ],
      [
        "is",
        "ed"
      ],
      [
        "el",
        "f"
      ],
      [
        " s",
        "m"
      ],
      [
        " b",
        "ack"
      ],
      [
        "p",
        "r"
      ],
      [
        " the",
        "n"
      ],
      [
        " p",
        "ub"
      ],
      [
        " ",
        "ver"
      ],
      [
        " ",
        "qu"
      ],
      [
        " w",
        "ell"
      ],
      [
        "it",
        "s"
      ],
      [
        " m",
        "et"
      ],
      [
        "u",
        "ch"
      ],
      [
        " b",
        "oth"
      ],
      [
        " al",
        "ong"
      ],
      [
        " bec",
        "ame"
      ],
      [
        "t",
        "ing"
      ],
      [
        " s",
        "y"
      ],
      [
        "ou",
        "n"
      ],
      [
        "th",
        "ough"
      ],
      [
        "i",
        "ous"
      ],
      [
        " L",
        "e"
      ],
      [
        "u",
        "res"
      ],
      [
        " m",
        "ain"
      ],
      [
        "ur",
        "y"
      ],
      [
        "er",
        "n"
      ],
      [
        " de",
        "c"
      ],
      [
        " man",
        "y"
      ],
      [
        " Un",
        "ited"
      ],
      [
        " ",
        "est"
      ],
      [
        "r",
        "am"
      ],
      [
        " c",
        "ap"
      ],
      [
        " des",
        "ign"
      ],
      [
        " Americ",
        "an"
      ],
      [
        "c",
        "ial"
      ],
      [
        "j",
        "ect"
      ],
      [
        " A",
        "n"
      ],
      [
        " m",
        "il"
      ],
      [
        "un",
        "e"
      ],
      [
        "t",
        "en"
      ],
      [
        " be",
        "gan"
      ],
      [
        " ad",
        "d"
      ],
      [
        "e",
        "y"
      ],
      [
        " b",
        "l"
      ],
      [
        " d",
        "o"
      ],
      [
        "all",
        "ed"
      ],
      [
        " m",
        "in"
      ],
      [
        "ut",
        "e"
      ],
      [
        "t",
        "on"
      ],
      [
        "er",
        "t"
      ],
      [
        " c",
        "an"
      ],
      [
        " de",
        "p"
      ],
      [
        "u",
        "ed"
      ],
      [
        "er",
        "o"
      ],
      [
        " g",
        "overn"
      ],
      [
        " N",
        "orth"
      ],
      [
        "ist",
        "s"
      ],
      [
        "t",
        "o"
      ],
      [
        "is",
        "e"
      ],
      [
        "ow",
        "ever"
      ],
      [
        "ul",
        "l"
      ],
      [
        " includ",
        "ing"
      ],
      [
        "o",
        "f"
      ],
      [
        " d",
        "id"
      ],
      [
        "us",
        "ic"
      ],
      [
        "iv",
        "ed"
      ],
      [
        " the",
        "se"
      ],
      [
        " l",
        "ong"
      ],
      [
        " w",
        "rit"
      ],
      [
        " e",
        "le"
      ],
      [
        "i",
        "er"
      ],
      [
        " t",
        "rans"
      ],
      [
        "ig",
        "in"
      ],
      [
        " c",
        "ould"
      ],
      [
        "ac",
        "ed"
      ],
      [
        "f",
        "ul"
      ],
      [
        " s",
        "ign"
      ],
      [
        "at",
        "ive"
      ],
      [
        " f",
        "ound"
      ],
      [
        " m",
        "ill"
      ],
      [
        "st",
        "ru"
      ],
      [
        " g",
        "roup"
      ],
      [
        "os",
        "s"
      ],
      [
        " kn",
        "own"
      ],
      [
        " Th",
        "is"
      ],
      [
        "o",
        "ber"
      ],
      [
        " t",
        "er"
      ],
      [
        " k",
        "m"
      ],
      [
        " ar",
        "t"
      ],
      [
        "t",
        "y"
      ],
      [
        "er",
        "v"
      ],
      [
        "il",
        "y"
      ],
      [
        " S",
        "he"
      ],
      [
        " Se",
        "pt"
      ],
      [
        "u",
        "p"
      ],
      [
        " s",
        "ing"
      ],
      [
        "id",
        "ent"
      ],
      [
        " de",
        "velop"
      ],
      [
        "x",
        "t"
      ],
      [
        "ur",
        "ed"
      ],
      [
        "e",
        "p"
      ],
      [
        " o",
        "p"
      ],
      [
        " re",
        "ce"
      ],
      [
        "et",
        "s"
      ],
      [
        "ra",
        "ft"
      ],
      [
        "or",
        "n"
      ],
      [
        "ro",
        "w"
      ],
      [
        "ur",
        "ch"
      ],
      [
        " d",
        "ire"
      ],
      [
        " year",
        "s"
      ],
      [
        "an",
        "ge"
      ],
      [
        " p",
        "res"
      ],
      [
        "ic",
        "s"
      ],
      [
        " im",
        "p"
      ],
      [
        " l",
        "and"
      ],
      [
        "e",
        "b"
      ],
      [
        "n",
        "ar"
      ],
      [
        " C",
        "ol"
      ],
      [
        " le",
        "ad"
      ],
      [
        " o",
        "b"
      ],
      [
        " l",
        "ike"
      ],
      [
        "al",
        "e"
      ],
      [
        " fe",
        "at"
      ],
      [
        " ret",
        "urn"
      ],
      [
        "op",
        "le"
      ],
      [
        " comp",
        "le"
      ],
      [
        "l",
        "ed"
      ],
      [
        " b",
        "ro"
      ],
      [
        " h",
        "ist"
      ],
      [
        " n",
        "orth"
      ],
      [
        "o",
        "h"
      ],
      [
        "a",
        "h"
      ],
      [
        "i",
        "pp"
      ],
      [
        "ment",
        "s"
      ],
      [
        " Sept",
        "ember"
      ],
      [
        "re",
        "w"
      ],
      [
        "an",
        "e"
      ],
      [
        "ir",
        "on"
      ],
      [
        " ear",
        "ly"
      ],
      [
        " Com",
        "m"
      ],
      [
        "a",
        "i"
      ],
      [
        "os",
        "p"
      ],
      [
        " off",
        "ic"
      ],
      [
        "p",
        "an"
      ],
      [
        " p",
        "op"
      ],
      [
        " P",
        "ol"
      ],
      [
        "ak",
        "ing"
      ],
      [
        "iel",
        "d"
      ],
      [
        " B",
        "l"
      ],
      [
        "ci",
        "ent"
      ],
      [
        " s",
        "aid"
      ],
      [
        " an",
        "y"
      ],
      [
        "aus",
        "e"
      ],
      [
        "id",
        "ed"
      ],
      [
        " P",
        "h"
      ],
      [
        " sh",
        "ow"
      ],
      [
        "aj",
        "or"
      ],
      [
        " sm",
        "all"
      ],
      [
        " n",
        "ear"
      ],
      [
        "n",
        "ed"
      ],
      [
        "t",
        "le"
      ],
      [
        "iz",
        "ed"
      ],
      [
        " t",
        "em"
      ],
      [
        " a",
        "round"
      ],
      [
        " s",
        "et"
      ],
      [
        " A",
        "ug"
      ],
      [
        "in",
        "s"
      ],
      [
        " p",
        "ers"
      ],
      [
        " g",
        "o"
      ],
      [
        " app",
        "ear"
      ],
      [
        "o",
        "ol"
      ],
      [
        "o",
        "ot"
      ],
      [
        "u",
        "ally"
      ],
      [
        " S",
        "te"
      ],
      [
        "os",
        "ed"
      ],
      [
        "at",
        "her"
      ],
      [
        " b",
        "o"
      ],
      [
        " g",
        "od"
      ],
      [
        "ct",
        "or"
      ],
      [
        " lar",
        "ge"
      ],
      [
        " O",
        "ct"
      ],
      [
        "r",
        "ist"
      ],
      [
        "at",
        "s"
      ],
      [
        "o",
        "ad"
      ],
      [
        "s",
        "ide"
      ],
      [
        "in",
        "a"
      ],
      [
        " d",
        "own"
      ],
      [
        "od",
        "e"
      ],
      [
        " are",
        "a"
      ],
      [
        " un",
        "t"
      ],
      [
        "ib",
        "le"
      ],
      [
        " Aug",
        "ust"
      ],
      [
        "he",
        "n"
      ],
      [
        " in",
        "st"
      ],
      [
        " B",
        "e"
      ],
      [
        "ar",
        "s"
      ],
      [
        " d",
        "if"
      ],
      [
        " e",
        "p"
      ],
      [
        "qu",
        "ad"
      ],
      [
        "te",
        "nd"
      ],
      [
        " S",
        "outh"
      ],
      [
        " or",
        "igin"
      ],
      [
        "is",
        "m"
      ],
      [
        " C",
        "ar"
      ],
      [
        " supp",
        "ort"
      ],
      [
        "or",
        "ed"
      ],
      [
        " to",
        "ok"
      ],
      [
        " J",
        "une"
      ],
      [
        "cc",
        "ess"
      ],
      [
        " ser",
        "ies"
      ],
      [
        " p",
        "rom"
      ],
      [
        "iv",
        "ision"
      ],
      [
        " s",
        "outh"
      ],
      [
        " st",
        "art"
      ],
      [
        "vi",
        "ew"
      ],
      [
        "b",
        "y"
      ],
      [
        "o",
        "ved"
      ],
      [
        "p",
        "le"
      ],
      [
        "ar",
        "ch"
      ],
      [
        " I",
        "s"
      ],
      [
        " con",
        "c"
      ],
      [
        " dis",
        "c"
      ],
      [
        "in",
        "ed"
      ],
      [
        " g",
        "u"
      ],
      [
        "m",
        "y"
      ],
      [
        " s",
        "ix"
      ],
      [
        " c",
        "rit"
      ],
      [
        " p",
        "ass"
      ],
      [
        " d",
        "am"
      ],
      [
        " A",
        "fter"
      ],
      [
        " A",
        "ll"
      ],
      [
        " C",
        "on"
      ],
      [
        "l",
        "er"
      ],
      [
        " for",
        "ces"
      ],
      [
        " op",
        "en"
      ],
      [
        " unt",
        "il"
      ],
      [
        "rop",
        "ical"
      ],
      [
        " Japan",
        "ese"
      ],
      [
        "id",
        "ge"
      ],
      [
        "im",
        "es"
      ],
      [
        " N",
        "ove"
      ],
      [
        "ri",
        "v"
      ],
      [
        "un",
        "g"
      ],
      [
        "if",
        "ied"
      ],
      [
        "ren",
        "ch"
      ],
      [
        "ener",
        "al"
      ],
      [
        " Les",
        "nar"
      ],
      [
        "c",
        "rib"
      ],
      [
        "y",
        "l"
      ],
      [
        " o",
        "cc"
      ],
      [
        " B",
        "att"
      ],
      [
        "op",
        "s"
      ],
      [
        " char",
        "ac"
      ],
      [
        "am",
        "ed"
      ],
      [
        " st",
        "ate"
      ],
      [
        " F",
        "or"
      ],
      [
        " ad",
        "v"
      ],
      [
        " Oct",
        "ober"
      ],
      [
        " M",
        "e"
      ],
      [
        "oc",
        "i"
      ],
      [
        "o",
        "on"
      ],
      [
        " w",
        "ind"
      ],
      [
        " c",
        "alled"
      ],
      [
        " ex",
        "p"
      ],
      [
        " Y",
        "ork"
      ],
      [
        "iver",
        "s"
      ],
      [
        " re",
        "f"
      ],
      [
        "m",
        "e"
      ],
      [
        "ion",
        "al"
      ],
      [
        " J",
        "an"
      ],
      [
        " pos",
        "ition"
      ],
      [
        "u",
        "es"
      ],
      [
        " follow",
        "ing"
      ],
      [
        "a",
        "x"
      ],
      [
        " be",
        "l"
      ],
      [
        " F",
        "rench"
      ],
      [
        " pro",
        "v"
      ],
      [
        " cl",
        "ass"
      ],
      [
        "e",
        "k"
      ],
      [
        " f",
        "ive"
      ],
      [
        " st",
        "r"
      ],
      [
        "b",
        "all"
      ],
      [
        "d",
        "ing"
      ],
      [
        "on",
        "es"
      ],
      [
        " d",
        "est"
      ],
      [
        " r",
        "un"
      ],
      [
        "c",
        "raft"
      ],
      [
        " t",
        "ro"
      ],
      [
        " p",
        "ort"
      ],
      [
        " B",
        "r"
      ],
      [
        "ate",
        "ly"
      ],
      [
        " pl",
        "an"
      ],
      [
        " us",
        "e"
      ],
      [
        "ward",
        "s"
      ],
      [
        " Austral",
        "ian"
      ],
      [
        " Nove",
        "mber"
      ],
      [
        " e",
        "ff"
      ],
      [
        "ur",
        "ther"
      ],
      [
        " con",
        "f"
      ],
      [
        " v",
        "ar"
      ],
      [
        " comm",
        "and"
      ],
      [
        "iss",
        "ion"
      ],
      [
        "olog",
        "y"
      ],
      [
        " rele",
        "ased"
      ],
      [
        " s",
        "ince"
      ],
      [
        " d",
        "ist"
      ],
      [
        " A",
        "d"
      ],
      [
        "ch",
        "ool"
      ],
      [
        " pe",
        "ople"
      ],
      [
        "quad",
        "ron"
      ],
      [
        "v",
        "ent"
      ],
      [
        "ir",
        "d"
      ],
      [
        " N",
        "o"
      ],
      [
        "oh",
        "n"
      ],
      [
        " ",
        "iron"
      ],
      [
        "il",
        "a"
      ],
      [
        "iv",
        "es"
      ],
      [
        " k",
        "ill"
      ],
      [
        "u",
        "ary"
      ],
      [
        " s",
        "ame"
      ],
      [
        " b",
        "r"
      ],
      [
        " re",
        "port"
      ],
      [
        " St",
        "ates"
      ],
      [
        " ship",
        "s"
      ],
      [
        "g",
        "y"
      ],
      [
        " c",
        "ount"
      ],
      [
        "b",
        "le"
      ],
      [
        "e",
        "f"
      ],
      [
        "ou",
        "te"
      ],
      [
        "g",
        "est"
      ],
      [
        " w",
        "in"
      ],
      [
        " b",
        "as"
      ],
      [
        " pl",
        "ace"
      ],
      [
        " y",
        "ou"
      ],
      [
        "g",
        "ed"
      ],
      [
        "us",
        "s"
      ],
      [
        "if",
        "e"
      ],
      [
        " o",
        "wn"
      ],
      [
        " e",
        "ach"
      ],
      [
        "ir",
        "ed"
      ],
      [
        " an",
        "n"
      ],
      [
        " includ",
        "ed"
      ],
      [
        " mat",
        "ch"
      ],
      [
        " st",
        "orm"
      ],
      [
        "em",
        "pt"
      ],
      [
        " p",
        "oin"
      ],
      [
        "as",
        "h"
      ],
      [
        " m",
        "od"
      ],
      [
        "em",
        "ent"
      ],
      [
        " pub",
        "lic"
      ],
      [
        "it",
        "ary"
      ],
      [
        " E",
        "d"
      ],
      [
        " Ch",
        "rist"
      ],
      [
        " buil",
        "t"
      ],
      [
        "il",
        "ity"
      ],
      [
        "ut",
        "ion"
      ],
      [
        " st",
        "ud"
      ],
      [
        " st",
        "ru"
      ],
      [
        " J",
        "u"
      ],
      [
        " su",
        "ccess"
      ],
      [
        " ep",
        "is"
      ],
      [
        " to",
        "p"
      ],
      [
        " th",
        "ough"
      ],
      [
        " W",
        "orld"
      ],
      [
        "ain",
        "s"
      ],
      [
        "m",
        "s"
      ],
      [
        " t",
        "urn"
      ],
      [
        " m",
        "usic"
      ],
      [
        "u",
        "ro"
      ],
      [
        " h",
        "al"
      ],
      [
        " S",
        "cient"
      ],
      [
        " A",
        "m"
      ],
      [
        " e",
        "ast"
      ],
      [
        "ction",
        "s"
      ],
      [
        " j",
        "ust"
      ],
      [
        " des",
        "crib"
      ],
      [
        " ser",
        "v"
      ],
      [
        " cons",
        "id"
      ],
      [
        " spe",
        "c"
      ],
      [
        " Ph",
        "il"
      ],
      [
        "m",
        "ed"
      ],
      [
        " t",
        "y"
      ],
      [
        " T",
        "e"
      ],
      [
        " A",
        "pr"
      ],
      [
        " J",
        "ohn"
      ],
      [
        "pp",
        "ed"
      ],
      [
        " v",
        "i"
      ],
      [
        " govern",
        "ment"
      ],
      [
        " p",
        "ower"
      ],
      [
        " re",
        "st"
      ],
      [
        "id",
        "es"
      ],
      [
        "ce",
        "pt"
      ],
      [
        " ex",
        "t"
      ],
      [
        "vi",
        "ous"
      ],
      [
        " sing",
        "le"
      ],
      [
        "n",
        "er"
      ],
      [
        " l",
        "ed"
      ],
      [
        " st",
        "re"
      ],
      [
        " R",
        "oute"
      ],
      [
        " De",
        "ce"
      ],
      [
        " ",
        "ed"
      ],
      [
        " in",
        "s"
      ],
      [
        "om",
        "in"
      ],
      [
        "ord",
        "ing"
      ],
      [
        " play",
        "ed"
      ],
      [
        " m",
        "ajor"
      ],
      [
        "il",
        "d"
      ],
      [
        " app",
        "ro"
      ],
      [
        " Apr",
        "il"
      ],
      [
        "ar",
        "ed"
      ],
      [
        " m",
        "ay"
      ],
      [
        "ent",
        "ly"
      ],
      [
        "ol",
        "l"
      ],
      [
        "el",
        "s"
      ],
      [
        "y",
        "s"
      ],
      [
        "on",
        "t"
      ],
      [
        "st",
        "em"
      ],
      [
        "ac",
        "hed"
      ],
      [
        "ur",
        "re"
      ],
      [
        " The",
        "y"
      ],
      [
        " he",
        "ld"
      ],
      [
        " res",
        "p"
      ],
      [
        "emb",
        "ers"
      ],
      [
        "u",
        "nd"
      ],
      [
        " c",
        "our"
      ],
      [
        "ant",
        "ry"
      ],
      [
        " le",
        "ft"
      ],
      [
        " cont",
        "ro"
      ],
      [
        "ron",
        "t"
      ],
      [
        " rece",
        "ived"
      ],
      [
        "or",
        "man"
      ],
      [
        " f",
        "ire"
      ],
      [
        " A",
        "ng"
      ],
      [
        " M",
        "c"
      ],
      [
        " G",
        "u"
      ],
      [
        " part",
        "ic"
      ],
      [
        "g",
        "er"
      ],
      [
        " t",
        "ri"
      ],
      [
        "ro",
        "y"
      ],
      [
        " re",
        "pl"
      ],
      [
        " N",
        "ero"
      ],
      [
        " air",
        "craft"
      ],
      [
        " Jan",
        "uary"
      ],
      [
        "um",
        "ent"
      ],
      [
        "ab",
        "l"
      ],
      [
        " en",
        "g"
      ],
      [
        " ",
        "ri"
      ],
      [
        "r",
        "is"
      ],
      [
        " m",
        "en"
      ],
      [
        " d",
        "ue"
      ],
      [
        " A",
        "ir"
      ],
      [
        "ay",
        "s"
      ],
      [
        "ard",
        "s"
      ],
      [
        "av",
        "ing"
      ],
      [
        " gun",
        "s"
      ],
      [
        "h",
        "am"
      ],
      [
        " p",
        "ost"
      ],
      [
        " n",
        "ow"
      ],
      [
        "ur",
        "al"
      ],
      [
        "n",
        "s"
      ],
      [
        " w",
        "est"
      ],
      [
        "or",
        "p"
      ],
      [
        " with",
        "in"
      ],
      [
        "ord",
        "an"
      ],
      [
        " tr",
        "ack"
      ],
      [
        " re",
        "qu"
      ],
      [
        " e",
        "ver"
      ],
      [
        " ev",
        "en"
      ],
      [
        " mill",
        "ion"
      ],
      [
        "b",
        "o"
      ],
      [
        " f",
        "t"
      ],
      [
        " p",
        "h"
      ],
      [
        " for",
        "mer"
      ],
      [
        "pe",
        "ct"
      ],
      [
        " s",
        "im"
      ],
      [
        " al",
        "though"
      ],
      [
        "ak",
        "en"
      ],
      [
        " bec",
        "ause"
      ],
      [
        " pers",
        "on"
      ],
      [
        " tro",
        "ops"
      ],
      [
        " Dece",
        "mber"
      ],
      [
        " h",
        "and"
      ],
      [
        " N",
        "ational"
      ],
      [
        "ical",
        "ly"
      ],
      [
        " ne",
        "xt"
      ],
      [
        "i",
        "od"
      ],
      [
        " c",
        "ame"
      ],
      [
        " b",
        "and"
      ],
      [
        " l",
        "ine"
      ],
      [
        " or",
        "gan"
      ],
      [
        " att",
        "empt"
      ],
      [
        " Ju",
        "ly"
      ],
      [
        "a",
        "e"
      ],
      [
        "ag",
        "ed"
      ],
      [
        " s",
        "ide"
      ],
      [
        "en",
        "e"
      ],
      [
        " f",
        "urther"
      ],
      [
        "al",
        "ion"
      ],
      [
        " n",
        "ort"
      ],
      [
        " inv",
        "ol"
      ],
      [
        "a",
        "im"
      ],
      [
        " w",
        "on"
      ],
      [
        "ro",
        "te"
      ],
      [
        " m",
        "uch"
      ],
      [
        "hi",
        "le"
      ],
      [
        " cent",
        "ury"
      ],
      [
        " epis",
        "ode"
      ],
      [
        "i",
        "us"
      ],
      [
        " s",
        "old"
      ],
      [
        " d",
        "em"
      ],
      [
        " th",
        "ird"
      ],
      [
        " I",
        "m"
      ],
      [
        " inc",
        "re"
      ],
      [
        "ad",
        "s"
      ],
      [
        " P",
        "l"
      ],
      [
        "iv",
        "ing"
      ],
      [
        "er",
        "y"
      ],
      [
        "re",
        "st"
      ],
      [
        "it",
        "tle"
      ],
      [
        " n",
        "ame"
      ],
      [
        " an",
        "other"
      ],
      [
        "ist",
        "ed"
      ],
      [
        " def",
        "e"
      ],
      [
        " hal",
        "f"
      ],
      [
        "m",
        "in"
      ],
      [
        "al",
        "k"
      ],
      [
        " S",
        "c"
      ],
      [
        " st",
        "e"
      ],
      [
        "ul",
        "ation"
      ],
      [
        " E",
        "ng"
      ],
      [
        " K",
        "ore"
      ],
      [
        " pos",
        "s"
      ],
      [
        " fin",
        "al"
      ],
      [
        "ou",
        "se"
      ],
      [
        "ut",
        "ed"
      ],
      [
        " H",
        "owever"
      ],
      [
        " is",
        "s"
      ],
      [
        "ag",
        "ue"
      ],
      [
        " Man",
        "ila"
      ],
      [
        "re",
        "ad"
      ],
      [
        " f",
        "am"
      ],
      [
        " m",
        "embers"
      ],
      [
        " n",
        "amed"
      ],
      [
        " con",
        "stru"
      ],
      [
        " Ch",
        "urch"
      ],
      [
        " pre",
        "vious"
      ],
      [
        "n",
        "ess"
      ],
      [
        " l",
        "ight"
      ],
      [
        "ut",
        "h"
      ],
      [
        " R",
        "iver"
      ],
      [
        " al",
        "low"
      ],
      [
        "osp",
        "ond"
      ],
      [
        " bel",
        "ie"
      ],
      [
        "v",
        "es"
      ],
      [
        " s",
        "l"
      ],
      [
        " d",
        "el"
      ],
      [
        " h",
        "ome"
      ],
      [
        " I",
        "I"
      ],
      [
        "c",
        "y"
      ],
      [
        "n",
        "a"
      ],
      [
        " c",
        "re"
      ],
      [
        "om",
        "et"
      ],
      [
        "pl",
        "oy"
      ],
      [
        " contin",
        "ued"
      ],
      [
        "eb",
        "ru"
      ],
      [
        "O",
        "n"
      ],
      [
        " wh",
        "at"
      ],
      [
        " ro",
        "le"
      ],
      [
        " charac",
        "ter"
      ],
      [
        "at",
        "ter"
      ],
      [
        "res",
        "ent"
      ],
      [
        "ide",
        "o"
      ],
      [
        "m",
        "it"
      ],
      [
        " l",
        "ast"
      ],
      [
        " B",
        "ut"
      ],
      [
        " for",
        "ce"
      ],
      [
        " F",
        "ran"
      ],
      [
        " ",
        "Q"
      ],
      [
        "c",
        "hed"
      ],
      [
        "f",
        "or"
      ],
      [
        " w",
        "a"
      ],
      [
        " f",
        "ew"
      ],
      [
        " c",
        "are"
      ],
      [
        " l",
        "ate"
      ],
      [
        " C",
        "an"
      ],
      [
        " be",
        "g"
      ],
      [
        "us",
        "e"
      ],
      [
        "pe",
        "nd"
      ],
      [
        " mil",
        "itary"
      ],
      [
        " add",
        "ition"
      ],
      [
        "l",
        "u"
      ],
      [
        " s",
        "ent"
      ],
      [
        " c",
        "r"
      ],
      [
        " p",
        "at"
      ],
      [
        " h",
        "a"
      ],
      [
        " S",
        "p"
      ],
      [
        " M",
        "er"
      ],
      [
        " G",
        "e"
      ],
      [
        " c",
        "over"
      ],
      [
        " m",
        "id"
      ],
      [
        "le",
        "y"
      ],
      [
        "le",
        "et"
      ],
      [
        " st",
        "ill"
      ],
      [
        " R",
        "oad"
      ],
      [
        " F",
        "ebru"
      ],
      [
        " or",
        "d"
      ],
      [
        "av",
        "al"
      ],
      [
        "i",
        "am"
      ],
      [
        "le",
        "ct"
      ],
      [
        " D",
        "ivision"
      ],
      [
        " ev",
        "ent"
      ],
      [
        " mon",
        "th"
      ],
      [
        " cap",
        "t"
      ],
      [
        " dest",
        "roy"
      ],
      [
        " ",
        "es"
      ],
      [
        "u",
        "c"
      ],
      [
        " M",
        "ich"
      ],
      [
        "ot",
        "s"
      ],
      [
        " ex",
        "pl"
      ],
      [
        " day",
        "s"
      ],
      [
        " t",
        "w"
      ],
      [
        " de",
        "ath"
      ],
      [
        " J",
        "ordan"
      ],
      [
        "se",
        "qu"
      ],
      [
        " Austral",
        "ia"
      ],
      [
        "s",
        "elf"
      ],
      [
        " c",
        "ross"
      ],
      [
        " m",
        "ark"
      ],
      [
        " h",
        "um"
      ],
      [
        "ak",
        "es"
      ],
      [
        "hi",
        "b"
      ],
      [
        " perf",
        "orm"
      ],
      [
        "at",
        "ic"
      ],
      [
        " b",
        "ased"
      ],
      [
        " m",
        "ove"
      ],
      [
        " m",
        "ake"
      ],
      [
        " E",
        "m"
      ],
      [
        "ial",
        "ly"
      ],
      [
        "oy",
        "al"
      ],
      [
        " perf",
        "orman"
      ],
      [
        " batt",
        "le"
      ],
      [
        " sy",
        "stem"
      ],
      [
        " s",
        "k"
      ],
      [
        " s",
        "chool"
      ],
      [
        "it",
        "al"
      ],
      [
        " l",
        "a"
      ],
      [
        " g",
        "r"
      ],
      [
        " g",
        "ener"
      ],
      [
        " W",
        "e"
      ],
      [
        " res",
        "ult"
      ],
      [
        " Mar",
        "ch"
      ],
      [
        " dif",
        "fer"
      ],
      [
        " ",
        "if"
      ],
      [
        "b",
        "e"
      ],
      [
        "y",
        "cl"
      ],
      [
        "in",
        "k"
      ],
      [
        "is",
        "c"
      ],
      [
        " e",
        "qu"
      ],
      [
        "et",
        "r"
      ],
      [
        " P",
        "e"
      ],
      [
        "ul",
        "u"
      ],
      [
        " r",
        "ight"
      ],
      [
        "a",
        "ut"
      ],
      [
        "e",
        "ad"
      ],
      [
        "s",
        "hip"
      ],
      [
        "ed",
        "er"
      ],
      [
        " m",
        "oved"
      ],
      [
        "im",
        "ent"
      ],
      [
        " The",
        "se"
      ],
      [
        "ag",
        "es"
      ],
      [
        "i",
        "or"
      ],
      [
        "p",
        "ar"
      ],
      [
        " t",
        "ropical"
      ],
      [
        "en",
        "se"
      ],
      [
        " b",
        "ar"
      ],
      [
        " m",
        "i"
      ],
      [
        " g",
        "reat"
      ],
      [
        " r",
        "ed"
      ],
      [
        " Ar",
        "my"
      ],
      [
        "int",
        "ulu"
      ],
      [
        " describ",
        "ed"
      ],
      [
        "o",
        "x"
      ],
      [
        " T",
        "own"
      ],
      [
        " S",
        "u"
      ],
      [
        "ir",
        "c"
      ],
      [
        "ant",
        "s"
      ],
      [
        " per",
        "iod"
      ],
      [
        "ik",
        "al"
      ],
      [
        " est",
        "abl"
      ],
      [
        "n",
        "y"
      ],
      [
        " w",
        "ay"
      ],
      [
        " h",
        "our"
      ],
      [
        " C",
        "ity"
      ],
      [
        "us",
        "ed"
      ],
      [
        " H",
        "ar"
      ],
      [
        "et",
        "y"
      ],
      [
        " K",
        "ing"
      ],
      [
        " cont",
        "r"
      ],
      [
        " loc",
        "al"
      ],
      [
        "l",
        "ing"
      ],
      [
        "p",
        "ite"
      ],
      [
        "t",
        "al"
      ],
      [
        " o",
        "ld"
      ],
      [
        " d",
        "iv"
      ],
      [
        " Ch",
        "ar"
      ],
      [
        " t",
        "it"
      ],
      [
        " w",
        "orld"
      ],
      [
        " C",
        "o"
      ],
      [
        "gy",
        "pt"
      ],
      [
        " Febru",
        "ary"
      ],
      [
        "A",
        "A"
      ],
      [
        " B",
        "y"
      ],
      [
        " W",
        "ill"
      ],
      [
        " G",
        "eneral"
      ],
      [
        "her",
        "n"
      ],
      [
        "iv",
        "il"
      ],
      [
        " In",
        "f"
      ],
      [
        " ar",
        "ch"
      ],
      [
        " p",
        "ar"
      ],
      [
        " m",
        "m"
      ],
      [
        " re",
        "view"
      ],
      [
        " be",
        "h"
      ],
      [
        "el",
        "t"
      ],
      [
        " he",
        "avy"
      ],
      [
        "ra",
        "ph"
      ],
      [
        "ri",
        "ed"
      ],
      [
        "iv",
        "en"
      ],
      [
        " or",
        "der"
      ],
      [
        " St",
        "ate"
      ],
      [
        " j",
        "oin"
      ],
      [
        " hist",
        "ory"
      ],
      [
        " god",
        "s"
      ],
      [
        " T",
        "ikal"
      ],
      [
        " th",
        "ose"
      ],
      [
        "id",
        "ian"
      ],
      [
        " R",
        "ich"
      ],
      [
        "ens",
        "ive"
      ],
      [
        "tend",
        "ed"
      ],
      [
        "c",
        "hes"
      ],
      [
        "g",
        "et"
      ],
      [
        "r",
        "ing"
      ],
      [
        "ur",
        "t"
      ],
      [
        " iron",
        "cl"
      ],
      [
        " Phil",
        "ipp"
      ],
      [
        "m",
        "as"
      ],
      [
        "v",
        "ens"
      ],
      [
        " o",
        "pp"
      ],
      [
        "at",
        "ure"
      ],
      [
        " in",
        "it"
      ],
      [
        "il",
        "le"
      ],
      [
        " B",
        "intulu"
      ],
      [
        " st",
        "ar"
      ],
      [
        " com",
        "b"
      ],
      [
        " pro",
        "g"
      ],
      [
        "iz",
        "e"
      ],
      [
        " rep",
        "resent"
      ],
      [
        " Pol",
        "ish"
      ],
      [
        " str",
        "ong"
      ],
      [
        "f",
        "e"
      ],
      [
        "as",
        "tern"
      ],
      [
        "om",
        "b"
      ],
      [
        " P",
        "ro"
      ],
      [
        "od",
        "y"
      ],
      [
        " E",
        "gypt"
      ],
      [
        " Y",
        "ou"
      ],
      [
        " Re",
        "g"
      ],
      [
        "s",
        "h"
      ],
      [
        " s",
        "ite"
      ],
      [
        "re",
        "g"
      ],
      [
        " w",
        "rote"
      ],
      [
        " l",
        "ost"
      ],
      [
        "am",
        "b"
      ],
      [
        " de",
        "b"
      ],
      [
        "n",
        "ospond"
      ],
      [
        " f",
        "ore"
      ],
      [
        " f",
        "ight"
      ],
      [
        " b",
        "est"
      ],
      [
        " b",
        "ook"
      ],
      [
        " m",
        "ar"
      ],
      [
        "ain",
        "ing"
      ],
      [
        " E",
        "uro"
      ],
      [
        "ff",
        "ic"
      ],
      [
        " cl",
        "aim"
      ],
      [
        " comp",
        "an"
      ],
      [
        "ne",
        "y"
      ],
      [
        "A",
        "S"
      ],
      [
        " c",
        "aus"
      ],
      [
        " p",
        "ur"
      ],
      [
        " pro",
        "p"
      ],
      [
        "au",
        "gh"
      ],
      [
        " kill",
        "ed"
      ],
      [
        "v",
        "ision"
      ],
      [
        "re",
        "t"
      ],
      [
        " of",
        "ten"
      ],
      [
        "as",
        "k"
      ],
      [
        "il",
        "ar"
      ],
      [
        " l",
        "ow"
      ],
      [
        "ress",
        "ion"
      ],
      [
        "s",
        "ion"
      ],
      [
        "he",
        "st"
      ],
      [
        "on",
        "ic"
      ],
      [
        " n",
        "ight"
      ],
      [
        " O",
        "r"
      ],
      [
        " ch",
        "ild"
      ],
      [
        " St",
        "re"
      ],
      [
        " sh",
        "ort"
      ],
      [
        " ne",
        "ver"
      ],
      [
        " Scient",
        "ology"
      ],
      [
        "b",
        "or"
      ],
      [
        "i",
        "qu"
      ],
      [
        "en",
        "ces"
      ],
      [
        " f",
        "ront"
      ],
      [
        " B",
        "ur"
      ],
      [
        " st",
        "at"
      ],
      [
        " H",
        "is"
      ],
      [
        " W",
        "h"
      ],
      [
        " pro",
        "ject"
      ],
      [
        " comm",
        "un"
      ],
      [
        " hist",
        "or"
      ],
      [
        "m",
        "en"
      ],
      [
        " w",
        "ater"
      ],
      [
        "em",
        "or"
      ],
      [
        " ex",
        "per"
      ],
      [
        "f",
        "ield"
      ],
      [
        "y",
        "ls"
      ],
      [
        "re",
        "en"
      ],
      [
        " m",
        "ed"
      ],
      [
        " d",
        "ra"
      ],
      [
        " S",
        "quadron"
      ],
      [
        " st",
        "ri"
      ],
      [
        " st",
        "and"
      ],
      [
        " he",
        "l"
      ],
      [
        " P",
        "ar"
      ],
      [
        "amp",
        "ions"
      ],
      [
        " est",
        "im"
      ],
      [
        " Euro",
        "pe"
      ],
      [
        "i",
        "um"
      ],
      [
        "i",
        "ers"
      ],
      [
        "r",
        "um"
      ],
      [
        " f",
        "r"
      ],
      [
        " c",
        "amp"
      ],
      [
        " m",
        "ount"
      ],
      [
        " l",
        "im"
      ],
      [
        " C",
        "ent"
      ],
      [
        " g",
        "ames"
      ],
      [
        " The",
        "re"
      ],
      [
        "ivers",
        "ity"
      ],
      [
        "a",
        "ul"
      ],
      [
        "c",
        "ing"
      ],
      [
        "c",
        "om"
      ],
      [
        "g",
        "es"
      ],
      [
        "m",
        "b"
      ],
      [
        "m",
        "ar"
      ],
      [
        "he",
        "ast"
      ],
      [
        "in",
        "ing"
      ],
      [
        " s",
        "it"
      ],
      [
        "at",
        "or"
      ],
      [
        " c",
        "ycl"
      ],
      [
        " to",
        "wn"
      ],
      [
        " st",
        "ated"
      ],
      [
        " su",
        "g"
      ],
      [
        "ap",
        "e"
      ],
      [
        " v",
        "is"
      ],
      [
        "iz",
        "ation"
      ],
      [
        "ric",
        "t"
      ],
      [
        "v",
        "ol"
      ],
      [
        " a",
        "way"
      ],
      [
        " w",
        "ill"
      ],
      [
        "it",
        "her"
      ],
      [
        "is",
        "on"
      ],
      [
        " to",
        "tal"
      ],
      [
        " S",
        "an"
      ],
      [
        " C",
        "al"
      ],
      [
        " N",
        "avy"
      ],
      [
        " ro",
        "ad"
      ],
      [
        " pr",
        "im"
      ],
      [
        " loc",
        "ated"
      ],
      [
        " return",
        "ed"
      ],
      [
        "er",
        "ing"
      ],
      [
        " f",
        "re"
      ],
      [
        "es",
        "tern"
      ],
      [
        "al",
        "es"
      ],
      [
        " re",
        "al"
      ],
      [
        " re",
        "ached"
      ],
      [
        " N",
        "Y"
      ],
      [
        "ab",
        "ly"
      ],
      [
        "ub",
        "lic"
      ],
      [
        " pol",
        "it"
      ],
      [
        " develop",
        "ed"
      ],
      [
        "pan",
        "y"
      ],
      [
        "he",
        "re"
      ],
      [
        "er",
        "ry"
      ],
      [
        " p",
        "it"
      ],
      [
        " m",
        "y"
      ],
      [
        " l",
        "ife"
      ],
      [
        " se",
        "en"
      ],
      [
        " form",
        "ed"
      ],
      [
        " pub",
        "l"
      ],
      [
        " ver",
        "y"
      ],
      [
        " dire",
        "ct"
      ],
      [
        "it",
        "er"
      ],
      [
        "al",
        "th"
      ],
      [
        " h",
        "owever"
      ],
      [
        " with",
        "out"
      ],
      [
        " de",
        "cl"
      ],
      [
        " sh",
        "ot"
      ],
      [
        " le",
        "g"
      ],
      [
        " eff",
        "ect"
      ],
      [
        " consid",
        "ered"
      ],
      [
        " differ",
        "ent"
      ],
      [
        " ",
        "ve"
      ],
      [
        " c",
        "irc"
      ],
      [
        "st",
        "it"
      ],
      [
        " H",
        "igh"
      ],
      [
        " F",
        "l"
      ],
      [
        " rem",
        "ained"
      ],
      [
        " act",
        "iv"
      ],
      [
        " produ",
        "ced"
      ],
      [
        " inf",
        "lu"
      ],
      [
        " pres",
        "ent"
      ],
      [
        " report",
        "ed"
      ],
      [
        " ",
        "er"
      ],
      [
        "f",
        "ic"
      ],
      [
        " t",
        "imes"
      ],
      [
        "en",
        "g"
      ],
      [
        " f",
        "ig"
      ],
      [
        "an",
        "n"
      ],
      [
        " g",
        "ra"
      ],
      [
        "im",
        "ately"
      ],
      [
        "ot",
        "t"
      ],
      [
        "us",
        "h"
      ],
      [
        " r",
        "ange"
      ],
      [
        "ough",
        "t"
      ],
      [
        " we",
        "ek"
      ],
      [
        "ific",
        "ant"
      ],
      [
        " oper",
        "ations"
      ],
      [
        " met",
        "res"
      ],
      [
        " care",
        "er"
      ],
      [
        "c",
        "on"
      ],
      [
        "in",
        "ation"
      ],
      [
        "at",
        "i"
      ],
      [
        " c",
        "as"
      ],
      [
        "ar",
        "a"
      ],
      [
        " b",
        "re"
      ],
      [
        " A",
        "g"
      ],
      [
        " C",
        "ount"
      ],
      [
        " su",
        "ff"
      ],
      [
        "fer",
        "red"
      ],
      [
        " Ste",
        "vens"
      ],
      [
        "ampions",
        "hip"
      ],
      [
        "c",
        "ess"
      ],
      [
        "h",
        "aw"
      ],
      [
        "ou",
        "ther"
      ],
      [
        " A",
        "f"
      ],
      [
        "ent",
        "ion"
      ],
      [
        "ay",
        "ing"
      ],
      [
        "ri",
        "pt"
      ],
      [
        " v",
        "ideo"
      ],
      [
        "way",
        "s"
      ],
      [
        " ever",
        "y"
      ],
      [
        "g",
        "o"
      ],
      [
        "is",
        "ter"
      ],
      [
        " e",
        "l"
      ],
      [
        "om",
        "an"
      ],
      [
        " g",
        "l"
      ],
      [
        " W",
        "hen"
      ],
      [
        " is",
        "land"
      ],
      [
        " J",
        "ack"
      ],
      [
        " us",
        "ing"
      ],
      [
        " sur",
        "v"
      ],
      [
        " Ind",
        "ian"
      ],
      [
        " origin",
        "al"
      ],
      [
        " Is",
        "land"
      ],
      [
        " dam",
        "age"
      ],
      [
        " Inf",
        "antry"
      ],
      [
        " ",
        "round"
      ],
      [
        "d",
        "e"
      ],
      [
        "d",
        "ition"
      ],
      [
        "en",
        "n"
      ],
      [
        "an",
        "ks"
      ],
      [
        " p",
        "ut"
      ],
      [
        " p",
        "ain"
      ],
      [
        " m",
        "or"
      ],
      [
        " h",
        "aving"
      ],
      [
        " A",
        "nd"
      ],
      [
        " st",
        "y"
      ],
      [
        "ber",
        "t"
      ],
      [
        "ive",
        "ly"
      ],
      [
        "cc",
        "ording"
      ],
      [
        "act",
        "ion"
      ],
      [
        " am",
        "ong"
      ],
      [
        " em",
        "b"
      ],
      [
        " wind",
        "s"
      ],
      [
        " sug",
        "gest"
      ],
      [
        " c",
        "ult"
      ],
      [
        "ic",
        "es"
      ],
      [
        " d",
        "i"
      ],
      [
        " g",
        "iven"
      ],
      [
        "el",
        "a"
      ],
      [
        " R",
        "uss"
      ],
      [
        " v",
        "ict"
      ],
      [
        " ac",
        "ross"
      ],
      [
        " Mer",
        "idian"
      ],
      [
        "k",
        "i"
      ],
      [
        " w",
        "ent"
      ],
      [
        "at",
        "ch"
      ],
      [
        " f",
        "o"
      ],
      [
        " f",
        "ac"
      ],
      [
        " b",
        "ase"
      ],
      [
        "ro",
        "du"
      ],
      [
        " S",
        "o"
      ],
      [
        " im",
        "port"
      ],
      [
        "port",
        "s"
      ],
      [
        " spe",
        "cial"
      ],
      [
        " Batt",
        "le"
      ],
      [
        " count",
        "ry"
      ],
      [
        " vi",
        "ew"
      ],
      [
        "t",
        "ic"
      ],
      [
        "in",
        "ess"
      ],
      [
        " c",
        "ut"
      ],
      [
        " m",
        "aking"
      ],
      [
        " d",
        "et"
      ],
      [
        "ver",
        "s"
      ],
      [
        " R",
        "h"
      ],
      [
        " P",
        "er"
      ],
      [
        " le",
        "vel"
      ],
      [
        "ree",
        "k"
      ],
      [
        " te",
        "le"
      ],
      [
        " ev",
        "ac"
      ],
      [
        " reg",
        "ion"
      ],
      [
        " German",
        "y"
      ],
      [
        " ob",
        "s"
      ],
      [
        "a",
        "ur"
      ],
      [
        "p",
        "s"
      ],
      [
        " t",
        "est"
      ],
      [
        " t",
        "ake"
      ],
      [
        " st",
        "ory"
      ],
      [
        "et",
        "h"
      ],
      [
        " R",
        "oyal"
      ],
      [
        " D",
        "uring"
      ],
      [
        "fer",
        "ence"
      ],
      [
        " tr",
        "ad"
      ],
      [
        " rel",
        "ig"
      ],
      [
        " prom",
        "ot"
      ],
      [
        " Will",
        "iam"
      ],
      [
        "e",
        "al"
      ],
      [
        "l",
        "ess"
      ],
      [
        "p",
        "ir"
      ],
      [
        "p",
        "art"
      ],
      [
        " f",
        "av"
      ],
      [
        " f",
        "oot"
      ],
      [
        " p",
        "ress"
      ],
      [
        " m",
        "iss"
      ],
      [
        " A",
        "ss"
      ],
      [
        " B",
        "o"
      ],
      [
        " P",
        "ark"
      ],
      [
        "ri",
        "end"
      ],
      [
        " ag",
        "re"
      ],
      [
        " Christ",
        "mas"
      ],
      [
        "uth",
        "or"
      ],
      [
        "a",
        "pp"
      ],
      [
        "c",
        "ent"
      ],
      [
        "g",
        "r"
      ],
      [
        "m",
        "a"
      ],
      [
        "m",
        "ond"
      ],
      [
        "t",
        "ain"
      ],
      [
        " s",
        "ound"
      ],
      [
        " h",
        "it"
      ],
      [
        "le",
        "cted"
      ],
      [
        " l",
        "aw"
      ],
      [
        " F",
        "ey"
      ],
      [
        " W",
        "ith"
      ],
      [
        " pro",
        "f"
      ],
      [
        "se",
        "nd"
      ],
      [
        " pe",
        "ak"
      ],
      [
        "end",
        "es"
      ],
      [
        " buil",
        "ding"
      ],
      [
        " ",
        "nd"
      ],
      [
        "e",
        "v"
      ],
      [
        "t",
        "ar"
      ],
      [
        " a",
        "v"
      ],
      [
        " a",
        "ff"
      ],
      [
        " to",
        "o"
      ],
      [
        "le",
        "ar"
      ],
      [
        " S",
        "ec"
      ],
      [
        " e",
        "ight"
      ],
      [
        " n",
        "ational"
      ],
      [
        " O",
        "ne"
      ],
      [
        " pl",
        "aced"
      ],
      [
        " cl",
        "ose"
      ],
      [
        "ec",
        "k"
      ],
      [
        "c",
        "her"
      ],
      [
        " a",
        "ction"
      ],
      [
        " c",
        "rew"
      ],
      [
        " h",
        "ig"
      ],
      [
        " e",
        "y"
      ],
      [
        " H",
        "ill"
      ],
      [
        "ail",
        "ed"
      ],
      [
        " mod",
        "ern"
      ],
      [
        "o",
        "le"
      ],
      [
        "r",
        "ation"
      ],
      [
        "v",
        "ing"
      ],
      [
        "re",
        "am"
      ],
      [
        " w",
        "ant"
      ],
      [
        "en",
        "ced"
      ],
      [
        " f",
        "ind"
      ],
      [
        " m",
        "ov"
      ],
      [
        "ac",
        "y"
      ],
      [
        "ay",
        "er"
      ],
      [
        " k",
        "e"
      ],
      [
        " ro",
        "ute"
      ],
      [
        " fl",
        "o"
      ],
      [
        " mil",
        "es"
      ],
      [
        " poin",
        "t"
      ],
      [
        " performan",
        "ce"
      ],
      [
        " hel",
        "p"
      ],
      [
        "outher",
        "n"
      ],
      [
        "d",
        "om"
      ],
      [
        "e",
        "ks"
      ],
      [
        "i",
        "ent"
      ],
      [
        "m",
        "ost"
      ],
      [
        "t",
        "ion"
      ],
      [
        "w",
        "ork"
      ],
      [
        " w",
        "it"
      ],
      [
        "en",
        "es"
      ],
      [
        "ad",
        "o"
      ],
      [
        " g",
        "round"
      ],
      [
        " g",
        "old"
      ],
      [
        " st",
        "age"
      ],
      [
        " D",
        "u"
      ],
      [
        "ri",
        "a"
      ],
      [
        " W",
        "est"
      ],
      [
        "um",
        "b"
      ],
      [
        " un",
        "its"
      ],
      [
        " ser",
        "ved"
      ],
      [
        " pop",
        "ulation"
      ],
      [
        " contro",
        "l"
      ],
      [
        "u",
        "ation"
      ],
      [
        "y",
        "n"
      ],
      [
        " to",
        "ur"
      ],
      [
        " S",
        "l"
      ],
      [
        "ig",
        "an"
      ],
      [
        " R",
        "ec"
      ],
      [
        " J",
        "ew"
      ],
      [
        " r",
        "ad"
      ],
      [
        "ial",
        "s"
      ],
      [
        "ric",
        "k"
      ],
      [
        " him",
        "self"
      ],
      [
        " Americ",
        "a"
      ],
      [
        "oun",
        "ter"
      ],
      [
        " sign",
        "ificant"
      ],
      [
        " tem",
        "nospond"
      ],
      [
        " Batt",
        "alion"
      ],
      [
        " Church",
        "ill"
      ],
      [
        " Stre",
        "et"
      ],
      [
        "w",
        "as"
      ],
      [
        " s",
        "aw"
      ],
      [
        "it",
        "ar"
      ],
      [
        " b",
        "us"
      ],
      [
        " n",
        "aval"
      ],
      [
        "ur",
        "g"
      ],
      [
        " M",
        "ount"
      ],
      [
        " g",
        "et"
      ],
      [
        " D",
        "es"
      ],
      [
        "av",
        "es"
      ],
      [
        " sh",
        "ould"
      ],
      [
        " le",
        "ast"
      ],
      [
        "ran",
        "g"
      ],
      [
        " sub",
        "sequ"
      ],
      [
        " Al",
        "though"
      ],
      [
        " fam",
        "ily"
      ],
      [
        " tit",
        "le"
      ],
      [
        " beh",
        "ind"
      ],
      [
        " ",
        "ide"
      ],
      [
        "g",
        "a"
      ],
      [
        "p",
        "or"
      ],
      [
        " f",
        "ace"
      ],
      [
        "ly",
        "the"
      ],
      [
        " M",
        "al"
      ],
      [
        "ir",
        "st"
      ],
      [
        " g",
        "ave"
      ],
      [
        "ri",
        "or"
      ],
      [
        " pro",
        "te"
      ],
      [
        "oun",
        "ced"
      ],
      [
        " success",
        "ful"
      ],
      [
        " cour",
        "t"
      ],
      [
        " sim",
        "ilar"
      ],
      [
        " Count",
        "y"
      ],
      [
        "a",
        "ign"
      ],
      [
        " L",
        "ond"
      ],
      [
        " E",
        "l"
      ],
      [
        " E",
        "ast"
      ],
      [
        " r",
        "ul"
      ],
      [
        " ch",
        "art"
      ],
      [
        "ord",
        "s"
      ],
      [
        " bec",
        "ome"
      ],
      [
        " Re",
        "p"
      ],
      [
        " Le",
        "ague"
      ],
      [
        " invol",
        "ved"
      ],
      [
        " hum",
        "an"
      ],
      [
        "eder",
        "al"
      ],
      [
        " Philipp",
        "ines"
      ],
      [
        "e",
        "pend"
      ],
      [
        "f",
        "orm"
      ],
      [
        "y",
        "ing"
      ],
      [
        " M",
        "ark"
      ],
      [
        " R",
        "ock"
      ],
      [
        "em",
        "s"
      ],
      [
        "ri",
        "es"
      ],
      [
        " crit",
        "ic"
      ],
      [
        " var",
        "ious"
      ],
      [
        "e",
        "ter"
      ],
      [
        "f",
        "all"
      ],
      [
        "x",
        "ic"
      ],
      [
        " w",
        "ood"
      ],
      [
        "as",
        "ion"
      ],
      [
        " d",
        "oll"
      ],
      [
        "ur",
        "b"
      ],
      [
        " M",
        "endes"
      ],
      [
        " B",
        "ro"
      ],
      [
        "ut",
        "es"
      ],
      [
        " P",
        "ort"
      ],
      [
        "ers",
        "haw"
      ],
      [
        " St",
        "ar"
      ],
      [
        " follow",
        "ed"
      ],
      [
        " produ",
        "ction"
      ],
      [
        " rele",
        "ase"
      ],
      [
        " you",
        "ng"
      ],
      [
        " partic",
        "ular"
      ],
      [
        "a",
        "ff"
      ],
      [
        "c",
        "o"
      ],
      [
        "f",
        "ord"
      ],
      [
        "l",
        "ine"
      ],
      [
        "in",
        "ning"
      ],
      [
        "at",
        "a"
      ],
      [
        "at",
        "ives"
      ],
      [
        "it",
        "ive"
      ],
      [
        " c",
        "ivil"
      ],
      [
        " m",
        "ember"
      ],
      [
        " h",
        "om"
      ],
      [
        " l",
        "o"
      ],
      [
        " l",
        "ess"
      ],
      [
        "ly",
        "ing"
      ],
      [
        " P",
        "r"
      ],
      [
        "ch",
        "n"
      ],
      [
        " v",
        "ol"
      ],
      [
        "pl",
        "ay"
      ],
      [
        " Y",
        "ear"
      ],
      [
        " play",
        "er"
      ],
      [
        " ear",
        "l"
      ],
      [
        " ra",
        "in"
      ],
      [
        " sold",
        "iers"
      ],
      [
        " s",
        "w"
      ],
      [
        " f",
        "elt"
      ],
      [
        " in",
        "tern"
      ],
      [
        " h",
        "old"
      ],
      [
        " re",
        "b"
      ],
      [
        " N",
        "B"
      ],
      [
        "pp",
        "er"
      ],
      [
        "ph",
        "oon"
      ],
      [
        " head",
        "s"
      ],
      [
        " feat",
        "ures"
      ],
      [
        " constru",
        "ction"
      ],
      [
        " Town",
        "send"
      ],
      [
        "m",
        "ing"
      ],
      [
        "at",
        "ors"
      ],
      [
        " f",
        "un"
      ],
      [
        " f",
        "leet"
      ],
      [
        " c",
        "e"
      ],
      [
        " c",
        "ou"
      ],
      [
        " h",
        "ow"
      ],
      [
        "le",
        "t"
      ],
      [
        " S",
        "y"
      ],
      [
        "em",
        "y"
      ],
      [
        " E",
        "ar"
      ],
      [
        "iv",
        "id"
      ],
      [
        "og",
        "raph"
      ],
      [
        " int",
        "ens"
      ],
      [
        " Un",
        "iversity"
      ],
      [
        " disc",
        "over"
      ],
      [
        " Mc",
        "C"
      ],
      [
        "S",
        "t"
      ],
      [
        " c",
        "ase"
      ],
      [
        " b",
        "omb"
      ],
      [
        " p",
        "ra"
      ],
      [
        " p",
        "ie"
      ],
      [
        " m",
        "ur"
      ],
      [
        " m",
        "ph"
      ],
      [
        " d",
        "ied"
      ],
      [
        " M",
        "in"
      ],
      [
        " M",
        "ad"
      ],
      [
        " on",
        "ce"
      ],
      [
        "id",
        "s"
      ],
      [
        " J",
        "ames"
      ],
      [
        "pp",
        "ing"
      ],
      [
        "ign",
        "ed"
      ],
      [
        " sc",
        "ul"
      ],
      [
        "ollow",
        "ing"
      ],
      [
        " Com",
        "pany"
      ],
      [
        " cent",
        "ral"
      ],
      [
        " pol",
        "ice"
      ],
      [
        " writ",
        "ten"
      ],
      [
        " develop",
        "ment"
      ],
      [
        " start",
        "ed"
      ],
      [
        " Ge",
        "or"
      ],
      [
        " t",
        "en"
      ],
      [
        " w",
        "ide"
      ],
      [
        " f",
        "ar"
      ],
      [
        " f",
        "ather"
      ],
      [
        " B",
        "est"
      ],
      [
        " R",
        "ad"
      ],
      [
        " with",
        "d"
      ],
      [
        "os",
        "ing"
      ],
      [
        "our",
        "t"
      ],
      [
        " not",
        "ed"
      ],
      [
        " ne",
        "ed"
      ],
      [
        " Brit",
        "ain"
      ],
      [
        " mon",
        "ument"
      ],
      [
        " record",
        "ed"
      ],
      [
        " origin",
        "ally"
      ],
      [
        "urre",
        "nt"
      ],
      [
        " Lond",
        "on"
      ],
      [
        "i",
        "ence"
      ],
      [
        "w",
        "est"
      ],
      [
        "en",
        "ed"
      ],
      [
        "an",
        "ces"
      ],
      [
        "is",
        "ing"
      ],
      [
        "as",
        "ter"
      ],
      [
        " m",
        "ag"
      ],
      [
        " h",
        "ost"
      ],
      [
        " S",
        "en"
      ],
      [
        "id",
        "ing"
      ],
      [
        "op",
        "h"
      ],
      [
        " O",
        "l"
      ],
      [
        "ab",
        "or"
      ],
      [
        " He",
        "ad"
      ],
      [
        " sc",
        "ene"
      ],
      [
        " comp",
        "et"
      ],
      [
        " through",
        "out"
      ],
      [
        " song",
        "s"
      ],
      [
        " batt",
        "les"
      ],
      [
        " Can",
        "ad"
      ],
      [
        " sty",
        "le"
      ],
      [
        "r",
        "ated"
      ],
      [
        "s",
        "u"
      ],
      [
        " a",
        "uthor"
      ],
      [
        " f",
        "riend"
      ],
      [
        " S",
        "ome"
      ],
      [
        " A",
        "ward"
      ],
      [
        " l",
        "ack"
      ],
      [
        " B",
        "ar"
      ],
      [
        " N",
        "e"
      ],
      [
        " se",
        "e"
      ],
      [
        " E",
        "x"
      ],
      [
        " O",
        "per"
      ],
      [
        " work",
        "s"
      ],
      [
        " col",
        "on"
      ],
      [
        " Les",
        "ter"
      ],
      [
        " stru",
        "ct"
      ],
      [
        "use",
        "um"
      ],
      [
        " es",
        "c"
      ],
      [
        " estim",
        "ated"
      ],
      [
        "R",
        "A"
      ],
      [
        "a",
        "el"
      ],
      [
        "n",
        "el"
      ],
      [
        " t",
        "re"
      ],
      [
        " c",
        "oin"
      ],
      [
        " in",
        "j"
      ],
      [
        " T",
        "y"
      ],
      [
        "st",
        "er"
      ],
      [
        "ad",
        "es"
      ],
      [
        "ist",
        "ic"
      ],
      [
        "od",
        "es"
      ],
      [
        "iv",
        "a"
      ],
      [
        " U",
        "nder"
      ],
      [
        "all",
        "s"
      ],
      [
        " ch",
        "ang"
      ],
      [
        " un",
        "it"
      ],
      [
        " It",
        "al"
      ],
      [
        " spec",
        "ies"
      ],
      [
        " resp",
        "ons"
      ],
      [
        " Kore",
        "an"
      ],
      [
        " polit",
        "ical"
      ],
      [
        "ivid",
        "ual"
      ],
      [
        "b",
        "s"
      ],
      [
        "h",
        "u"
      ],
      [
        " f",
        "if"
      ],
      [
        " f",
        "ull"
      ],
      [
        "al",
        "d"
      ],
      [
        " S",
        "pan"
      ],
      [
        " A",
        "c"
      ],
      [
        " l",
        "oss"
      ],
      [
        "ac",
        "es"
      ],
      [
        " B",
        "lythe"
      ],
      [
        " for",
        "t"
      ],
      [
        " H",
        "er"
      ],
      [
        "ul",
        "f"
      ],
      [
        "ill",
        "o"
      ],
      [
        "op",
        "e"
      ],
      [
        " are",
        "as"
      ],
      [
        " ab",
        "ove"
      ],
      [
        " ent",
        "ire"
      ],
      [
        " occ",
        "ur"
      ],
      [
        " occ",
        "up"
      ],
      [
        " Me",
        "xic"
      ],
      [
        " ri",
        "ver"
      ],
      [
        "etr",
        "arch"
      ],
      [
        " publ",
        "ished"
      ],
      [
        " scul",
        "pt"
      ],
      [
        "c",
        "ast"
      ],
      [
        "g",
        "round"
      ],
      [
        "i",
        "ber"
      ],
      [
        "o",
        "o"
      ],
      [
        "s",
        "p"
      ],
      [
        "v",
        "ille"
      ],
      [
        " a",
        "ud"
      ],
      [
        " a",
        "ward"
      ],
      [
        " to",
        "wards"
      ],
      [
        " A",
        "ccording"
      ],
      [
        " con",
        "v"
      ],
      [
        "pl",
        "es"
      ],
      [
        "ound",
        "ed"
      ],
      [
        " play",
        "ers"
      ],
      [
        " col",
        "l"
      ],
      [
        " high",
        "way"
      ],
      [
        " bro",
        "ad"
      ],
      [
        " pop",
        "ular"
      ],
      [
        " Bl",
        "ack"
      ],
      [
        " serv",
        "ice"
      ],
      [
        " destroy",
        "ed"
      ],
      [
        " ",
        "X"
      ],
      [
        "en",
        "cy"
      ],
      [
        " c",
        "al"
      ],
      [
        " c",
        "ru"
      ],
      [
        " S",
        "m"
      ],
      [
        "am",
        "ent"
      ],
      [
        "om",
        "en"
      ],
      [
        "ur",
        "ity"
      ],
      [
        " R",
        "aj"
      ],
      [
        " G",
        "A"
      ],
      [
        " G",
        "reat"
      ],
      [
        "se",
        "c"
      ],
      [
        " k",
        "il"
      ],
      [
        " ab",
        "le"
      ],
      [
        " te",
        "chn"
      ],
      [
        "ress",
        "ed"
      ],
      [
        " includ",
        "e"
      ],
      [
        " Un",
        "ion"
      ],
      [
        " co",
        "ast"
      ],
      [
        " qu",
        "ick"
      ],
      [
        " design",
        "ed"
      ],
      [
        " bo",
        "ats"
      ],
      [
        " ord",
        "ered"
      ],
      [
        " caus",
        "ed"
      ],
      [
        "t",
        "r"
      ],
      [
        "u",
        "z"
      ],
      [
        " f",
        "ro"
      ],
      [
        "as",
        "ing"
      ],
      [
        " T",
        "wo"
      ],
      [
        " l",
        "ist"
      ],
      [
        " C",
        "reek"
      ],
      [
        " B",
        "el"
      ],
      [
        " B",
        "ul"
      ],
      [
        " D",
        "o"
      ],
      [
        " con",
        "du"
      ],
      [
        " L",
        "ittle"
      ],
      [
        " W",
        "hile"
      ],
      [
        " com",
        "ment"
      ],
      [
        " com",
        "mer"
      ],
      [
        " V",
        "ict"
      ],
      [
        " en",
        "c"
      ],
      [
        "ll",
        "ed"
      ],
      [
        " col",
        "le"
      ],
      [
        " sur",
        "round"
      ],
      [
        " po",
        "et"
      ],
      [
        " sign",
        "ed"
      ],
      [
        " For",
        "ce"
      ],
      [
        " ann",
        "ounced"
      ],
      [
        " though",
        "t"
      ],
      [
        " cre",
        "ated"
      ],
      [
        " month",
        "s"
      ],
      [
        "o",
        "e"
      ],
      [
        "t",
        "ies"
      ],
      [
        "u",
        "ck"
      ],
      [
        " s",
        "um"
      ],
      [
        " s",
        "low"
      ],
      [
        " s",
        "quadron"
      ],
      [
        " s",
        "omet"
      ],
      [
        " w",
        "i"
      ],
      [
        " f",
        "oc"
      ],
      [
        " f",
        "ell"
      ],
      [
        "is",
        "er"
      ],
      [
        " e",
        "ither"
      ],
      [
        " g",
        "en"
      ],
      [
        " Ch",
        "ines"
      ],
      [
        " ar",
        "ri"
      ],
      [
        " comm",
        "it"
      ],
      [
        " me",
        "et"
      ],
      [
        " dec",
        "ided"
      ],
      [
        " add",
        "ed"
      ],
      [
        " feat",
        "ured"
      ],
      [
        " stru",
        "ck"
      ],
      [
        "bo",
        "ard"
      ],
      [
        " nort",
        "hern"
      ],
      [
        " establ",
        "ished"
      ],
      [
        " hour",
        "s"
      ],
      [
        "fic",
        "ult"
      ],
      [
        " temnospond",
        "yls"
      ],
      [
        "at",
        "in"
      ],
      [
        "or",
        "ies"
      ],
      [
        "ou",
        "l"
      ],
      [
        " T",
        "em"
      ],
      [
        " T",
        "ru"
      ],
      [
        " l",
        "ook"
      ],
      [
        " C",
        "ro"
      ],
      [
        " M",
        "ed"
      ],
      [
        " P",
        "ac"
      ],
      [
        " de",
        "ploy"
      ],
      [
        " se",
        "ven"
      ],
      [
        "ap",
        "s"
      ],
      [
        "art",
        "y"
      ],
      [
        " fe",
        "et"
      ],
      [
        " four",
        "th"
      ],
      [
        " inst",
        "ead"
      ],
      [
        " prog",
        "ram"
      ],
      [
        " compan",
        "y"
      ],
      [
        " import",
        "ant"
      ],
      [
        "c",
        "er"
      ],
      [
        "c",
        "an"
      ],
      [
        "d",
        "le"
      ],
      [
        "n",
        "ow"
      ],
      [
        "o",
        "ice"
      ],
      [
        " a",
        "ver"
      ],
      [
        " T",
        "etrarch"
      ],
      [
        " l",
        "ive"
      ],
      [
        " l",
        "ittle"
      ],
      [
        " M",
        "a"
      ],
      [
        " M",
        "on"
      ],
      [
        "et",
        "ball"
      ],
      [
        " L",
        "a"
      ],
      [
        " G",
        "l"
      ],
      [
        " de",
        "ities"
      ],
      [
        "ish",
        "ing"
      ],
      [
        "ry",
        "ing"
      ],
      [
        "wo",
        "od"
      ],
      [
        "ach",
        "ing"
      ],
      [
        " def",
        "end"
      ],
      [
        " ass",
        "oci"
      ],
      [
        " comple",
        "te"
      ],
      [
        " comple",
        "ted"
      ],
      [
        " open",
        "ing"
      ],
      [
        "med",
        "i"
      ],
      [
        " defe",
        "ated"
      ],
      [
        " Mich",
        "igan"
      ],
      [
        " la",
        "un"
      ],
      [
        " Span",
        "ish"
      ],
      [
        " Chines",
        "e"
      ],
      [
        "k",
        "a"
      ],
      [
        "r",
        "s"
      ],
      [
        " t",
        "aken"
      ],
      [
        "he",
        "ad"
      ],
      [
        "on",
        "y"
      ],
      [
        " s",
        "outhern"
      ],
      [
        "or",
        "ing"
      ],
      [
        "ing",
        "ton"
      ],
      [
        " h",
        "ouse"
      ],
      [
        " T",
        "r"
      ],
      [
        " A",
        "nt"
      ],
      [
        " st",
        "o"
      ],
      [
        " P",
        "en"
      ],
      [
        " N",
        "az"
      ],
      [
        "ra",
        "p"
      ],
      [
        " r",
        "ank"
      ],
      [
        "ill",
        "ery"
      ],
      [
        "if",
        "fe"
      ],
      [
        " pro",
        "cess"
      ],
      [
        " v",
        "oc"
      ],
      [
        " Ch",
        "ina"
      ],
      [
        " we",
        "eks"
      ],
      [
        " cent",
        "er"
      ],
      [
        " Sh",
        "iva"
      ],
      [
        " ind",
        "ividual"
      ],
      [
        " ver",
        "sion"
      ],
      [
        " appear",
        "ed"
      ],
      [
        " prov",
        "ided"
      ],
      [
        "iqu",
        "e"
      ],
      [
        "o",
        "ff"
      ],
      [
        " a",
        "ge"
      ],
      [
        "it",
        "ing"
      ],
      [
        " c",
        "ert"
      ],
      [
        " h",
        "on"
      ],
      [
        "ur",
        "ric"
      ],
      [
        " M",
        "or"
      ],
      [
        " M",
        "iss"
      ],
      [
        " be",
        "low"
      ],
      [
        " D",
        "ay"
      ],
      [
        "est",
        "ed"
      ],
      [
        " k",
        "ing"
      ],
      [
        "per",
        "or"
      ],
      [
        "ect",
        "ed"
      ],
      [
        "rough",
        "t"
      ],
      [
        " ev",
        "ents"
      ],
      [
        " arm",
        "y"
      ],
      [
        "ific",
        "ation"
      ],
      [
        " tra",
        "ining"
      ],
      [
        " comple",
        "x"
      ],
      [
        " Comm",
        "and"
      ],
      [
        " dam",
        "aged"
      ],
      [
        " eff",
        "ort"
      ],
      [
        " poin",
        "ts"
      ],
      [
        " partic",
        "ip"
      ],
      [
        " Rich",
        "mond"
      ],
      [
        " trad",
        "ition"
      ],
      [
        " ",
        "ident"
      ],
      [
        "g",
        "g"
      ],
      [
        "h",
        "at"
      ],
      [
        "j",
        "illo"
      ],
      [
        " s",
        "ol"
      ],
      [
        "it",
        "ect"
      ],
      [
        " f",
        "it"
      ],
      [
        " m",
        "ot"
      ],
      [
        "ent",
        "ial"
      ],
      [
        " g",
        "eneral"
      ],
      [
        " H",
        "ol"
      ],
      [
        " D",
        "an"
      ],
      [
        " F",
        "u"
      ],
      [
        " an",
        "t"
      ],
      [
        " r",
        "u"
      ],
      [
        "og",
        "n"
      ],
      [
        "per",
        "ial"
      ],
      [
        " car",
        "ried"
      ],
      [
        " writ",
        "ing"
      ],
      [
        "erv",
        "a"
      ],
      [
        " imp",
        "ro"
      ],
      [
        " stre",
        "ng"
      ],
      [
        " Af",
        "ric"
      ],
      [
        " Rep",
        "ublic"
      ],
      [
        "a",
        "ult"
      ],
      [
        "k",
        "ed"
      ],
      [
        "k",
        "en"
      ],
      [
        " t",
        "ank"
      ],
      [
        " f",
        "ree"
      ],
      [
        " c",
        "he"
      ],
      [
        " c",
        "ast"
      ],
      [
        " m",
        "ix"
      ],
      [
        " d",
        "ivision"
      ],
      [
        " h",
        "i"
      ],
      [
        " T",
        "im"
      ],
      [
        " re",
        "n"
      ],
      [
        " C",
        "ourt"
      ],
      [
        "ir",
        "al"
      ],
      [
        "im",
        "in"
      ],
      [
        "ot",
        "e"
      ],
      [
        " pro",
        "t"
      ],
      [
        " U",
        "B"
      ],
      [
        "pe",
        "cial"
      ],
      [
        " im",
        "age"
      ],
      [
        " bec",
        "om"
      ],
      [
        "ec",
        "ess"
      ],
      [
        " inv",
        "est"
      ],
      [
        " arm",
        "our"
      ],
      [
        " buil",
        "d"
      ],
      [
        "riv",
        "ate"
      ],
      [
        " var",
        "i"
      ],
      [
        " stud",
        "io"
      ],
      [
        " repl",
        "aced"
      ],
      [
        " Eng",
        "land"
      ],
      [
        " camp",
        "aign"
      ],
      [
        " mur",
        "der"
      ],
      [
        " a",
        "w"
      ],
      [
        "in",
        "c"
      ],
      [
        " s",
        "on"
      ],
      [
        " f",
        "act"
      ],
      [
        " c",
        "urrent"
      ],
      [
        " d",
        "ou"
      ],
      [
        "il",
        "i"
      ],
      [
        "ad",
        "ed"
      ],
      [
        " C",
        "are"
      ],
      [
        " B",
        "ig"
      ],
      [
        " B",
        "ill"
      ],
      [
        "id",
        "ence"
      ],
      [
        " al",
        "most"
      ],
      [
        " G",
        "ib"
      ],
      [
        " U",
        "K"
      ],
      [
        " v",
        "al"
      ],
      [
        "ell",
        "ig"
      ],
      [
        "hip",
        "s"
      ],
      [
        " app",
        "oin"
      ],
      [
        " other",
        "s"
      ],
      [
        " em",
        "ploy"
      ],
      [
        "ven",
        "ue"
      ],
      [
        " Comm",
        "ission"
      ],
      [
        " go",
        "al"
      ],
      [
        " perform",
        "ed"
      ],
      [
        "aut",
        "y"
      ],
      [
        " bus",
        "iness"
      ],
      [
        " ",
        "z"
      ],
      [
        "A",
        "fter"
      ],
      [
        "M",
        "A"
      ],
      [
        "l",
        "a"
      ],
      [
        " c",
        "or"
      ],
      [
        " c",
        "lear"
      ],
      [
        " p",
        "il"
      ],
      [
        "ic",
        "a"
      ],
      [
        " d",
        "ri"
      ],
      [
        " h",
        "y"
      ],
      [
        " th",
        "reat"
      ],
      [
        " S",
        "ch"
      ],
      [
        " A",
        "ct"
      ],
      [
        " e",
        "astern"
      ],
      [
        " P",
        "at"
      ],
      [
        "ight",
        "s"
      ],
      [
        "ass",
        "ic"
      ],
      [
        " ro",
        "ck"
      ],
      [
        " pre",
        "vent"
      ],
      [
        " ac",
        "cept"
      ],
      [
        " group",
        "s"
      ],
      [
        " offic",
        "ers"
      ],
      [
        " dif",
        "ficult"
      ],
      [
        " contr",
        "act"
      ],
      [
        " agre",
        "ed"
      ],
      [
        " flo",
        "or"
      ],
      [
        "d",
        "ay"
      ],
      [
        "u",
        "el"
      ],
      [
        "in",
        "o"
      ],
      [
        " f",
        "ield"
      ],
      [
        "es",
        "h"
      ],
      [
        "an",
        "c"
      ],
      [
        " b",
        "orn"
      ],
      [
        " d",
        "ro"
      ],
      [
        " T",
        "o"
      ],
      [
        " T",
        "ra"
      ],
      [
        " l",
        "if"
      ],
      [
        "ac",
        "ing"
      ],
      [
        "om",
        "m"
      ],
      [
        " M",
        "usic"
      ],
      [
        " g",
        "ood"
      ],
      [
        "ig",
        "ade"
      ],
      [
        " st",
        "one"
      ],
      [
        "ra",
        "f"
      ],
      [
        " W",
        "W"
      ],
      [
        " se",
        "ction"
      ],
      [
        " se",
        "par"
      ],
      [
        " E",
        "n"
      ],
      [
        " pro",
        "b"
      ],
      [
        "ant",
        "a"
      ],
      [
        " sh",
        "oot"
      ],
      [
        " out",
        "side"
      ],
      [
        " comm",
        "on"
      ],
      [
        " up",
        "on"
      ],
      [
        " rem",
        "oved"
      ],
      [
        " kn",
        "ow"
      ],
      [
        " lar",
        "gest"
      ],
      [
        " ind",
        "ic"
      ],
      [
        " turn",
        "ed"
      ],
      [
        " poss",
        "ible"
      ],
      [
        " King",
        "dom"
      ],
      [
        " suff",
        "ered"
      ],
      [
        " Jew",
        "ish"
      ],
      [
        " NB",
        "A"
      ],
      [
        " Vict",
        "or"
      ],
      [
        "h",
        "is"
      ],
      [
        "m",
        "p"
      ],
      [
        "t",
        "t"
      ],
      [
        "w",
        "in"
      ],
      [
        "on",
        "na"
      ],
      [
        "at",
        "ers"
      ],
      [
        " c",
        "reat"
      ],
      [
        " m",
        "ult"
      ],
      [
        "st",
        "e"
      ],
      [
        " n",
        "ine"
      ],
      [
        " n",
        "ove"
      ],
      [
        " g",
        "row"
      ],
      [
        "ce",
        "ed"
      ],
      [
        " F",
        "in"
      ],
      [
        " O",
        "ff"
      ],
      [
        "ong",
        "ol"
      ],
      [
        " int",
        "rodu"
      ],
      [
        "ang",
        "u"
      ],
      [
        "olog",
        "ical"
      ],
      [
        " At",
        "t"
      ],
      [
        " ind",
        "ust"
      ],
      [
        " min",
        "ute"
      ],
      [
        " trans",
        "port"
      ],
      [
        " But",
        "ler"
      ],
      [
        "AA",
        "F"
      ],
      [
        " join",
        "ed"
      ],
      [
        " bre",
        "ak"
      ],
      [
        "urric",
        "ane"
      ],
      [
        "N",
        "A"
      ],
      [
        "l",
        "ish"
      ],
      [
        "r",
        "ay"
      ],
      [
        " p",
        "en"
      ],
      [
        " m",
        "ass"
      ],
      [
        "le",
        "g"
      ],
      [
        " re",
        "ve"
      ],
      [
        " A",
        "b"
      ],
      [
        " l",
        "ines"
      ],
      [
        " B",
        "u"
      ],
      [
        " P",
        "et"
      ],
      [
        " wh",
        "ite"
      ],
      [
        "ra",
        "nd"
      ],
      [
        " G",
        "o"
      ],
      [
        "ers",
        "on"
      ],
      [
        " pro",
        "ble"
      ],
      [
        "qu",
        "ar"
      ],
      [
        "oc",
        "r"
      ],
      [
        " ex",
        "ist"
      ],
      [
        " cl",
        "ub"
      ],
      [
        " rec",
        "ogn"
      ],
      [
        "are",
        "nt"
      ],
      [
        " do",
        "es"
      ],
      [
        " art",
        "illery"
      ],
      [
        " bas",
        "k"
      ],
      [
        " belie",
        "ved"
      ],
      [
        " ironcl",
        "ads"
      ],
      [
        "A",
        "s"
      ],
      [
        "F",
        "C"
      ],
      [
        "b",
        "on"
      ],
      [
        "d",
        "s"
      ],
      [
        "n",
        "al"
      ],
      [
        " t",
        "urre"
      ],
      [
        " t",
        "anks"
      ],
      [
        "on",
        "ed"
      ],
      [
        " s",
        "elf"
      ],
      [
        "ed",
        "o"
      ],
      [
        " b",
        "ad"
      ],
      [
        " re",
        "ad"
      ],
      [
        " re",
        "action"
      ],
      [
        " B",
        "all"
      ],
      [
        " R",
        "AAF"
      ],
      [
        " P",
        "o"
      ],
      [
        " P",
        "al"
      ],
      [
        " P",
        "res"
      ],
      [
        "ch",
        "ange"
      ],
      [
        "un",
        "k"
      ],
      [
        " D",
        "on"
      ],
      [
        "um",
        "ents"
      ],
      [
        " r",
        "idge"
      ],
      [
        " K",
        "ershaw"
      ],
      [
        "te",
        "en"
      ],
      [
        "cl",
        "iffe"
      ],
      [
        " ad",
        "ap"
      ],
      [
        " dis",
        "s"
      ],
      [
        " Mar",
        "ine"
      ],
      [
        " oper",
        "ation"
      ],
      [
        " dep",
        "art"
      ],
      [
        " lead",
        "ing"
      ],
      [
        " fight",
        "ing"
      ],
      [
        "A",
        "R"
      ],
      [
        "n",
        "es"
      ],
      [
        "ar",
        "ily"
      ],
      [
        " p",
        "ast"
      ],
      [
        " p",
        "air"
      ],
      [
        " for",
        "ced"
      ],
      [
        " D",
        "av"
      ],
      [
        " F",
        "il"
      ],
      [
        " an",
        "im"
      ],
      [
        " de",
        "al"
      ],
      [
        " se",
        "x"
      ],
      [
        " com",
        "e"
      ],
      [
        " Ch",
        "ampionship"
      ],
      [
        "ran",
        "ch"
      ],
      [
        " sc",
        "ored"
      ],
      [
        " sc",
        "ript"
      ],
      [
        "ke",
        "y"
      ],
      [
        " man",
        "ag"
      ],
      [
        " rem",
        "ain"
      ],
      [
        "amp",
        "le"
      ],
      [
        " she",
        "ll"
      ],
      [
        " Austral",
        "ians"
      ],
      [
        " allow",
        "ed"
      ],
      [
        " stri",
        "ke"
      ],
      [
        " tele",
        "vision"
      ],
      [
        "D",
        "uring"
      ],
      [
        "e",
        "en"
      ],
      [
        "s",
        "c"
      ],
      [
        "v",
        "an"
      ],
      [
        " t",
        "ons"
      ],
      [
        " t",
        "aking"
      ],
      [
        "ar",
        "ing"
      ],
      [
        " in",
        "ch"
      ],
      [
        " to",
        "w"
      ],
      [
        " m",
        "ater"
      ],
      [
        " d",
        "en"
      ],
      [
        " T",
        "en"
      ],
      [
        " S",
        "ar"
      ],
      [
        " l",
        "atter"
      ],
      [
        " M",
        "et"
      ],
      [
        "id",
        "ents"
      ],
      [
        " H",
        "M"
      ],
      [
        "ul",
        "a"
      ],
      [
        "ra",
        "in"
      ],
      [
        " O",
        "ther"
      ],
      [
        "all",
        "ing"
      ],
      [
        "qu",
        "are"
      ],
      [
        " u",
        "nd"
      ],
      [
        "og",
        "ue"
      ],
      [
        " we",
        "ap"
      ],
      [
        "ib",
        "r"
      ],
      [
        " De",
        "part"
      ],
      [
        " cons",
        "pir"
      ],
      [
        "az",
        "ine"
      ],
      [
        " supp",
        "l"
      ],
      [
        " sy",
        "n"
      ],
      [
        " An",
        "other"
      ],
      [
        " vi",
        "ol"
      ],
      [
[...]
