{
  "version": "1.0",
  "truncation": null,
  "padding": null,
  "added_tokens": [
    {
      "id": 0,
      "content": "<pad>",
      "single_word": false,
      "lstrip": false,
      "rstrip": false,
      "normalized": false,
      "special": true
    },
    {
      "id": 1,
      "content": "<unk>",
      "single_word": false,
      "lstrip": false,
      "rstrip": false,
      "normalized": false,
      "special": true
    },
    {
      "id": 2,
      "content": "<bos>",
      "single_word": false,
      "lstrip": false,
      "rstrip": false,
      "normalized": false,
      "special": true
    },
    {
      "id": 3,
      "content": "<eos>",
      "single_word": false,
      "lstrip": false,
      "rstrip": false,
      "normalized": false,
      "special": true
    }
  ],
  "normalizer": null,
  "pre_tokenizer": null,
  "post_processor": null,
  "decoder": {
    "type": "Fuse"
  },
  "model": {
    "type": "BPE",
    "dropout": null,
    "unk_token": "<unk>",
    "continuing_subword_prefix": null,
    "end_of_word_suffix": null,
    "fuse_unk": false,
    "byte_fallback": false,
    "ignore_merges": false,
    "vocab": {
      "<pad>": 0,
      "<unk>": 1,
      "<bos>": 2,
      "<eos>": 3,
      "!": 4,
      "\"": 5,
      "#": 6,
      "$": 7,
      "%": 8,
      "&": 9,
      "'": 10,
      "(": 11,
      ")": 12,
      "*": 13,
      "+": 14,
      ",": 15,
      "-": 16,
      ".": 17,
      "/": 18,
      "0": 19,
      "1": 20,
      "2": 21,
      "3": 22,
      "4": 23,
      "5": 24,
      "6": 25,
      "7": 26,
      "8": 27,
      "9": 28,
      ":": 29,
      ";": 30,
      "<": 31,
      "=": 32,
      ">": 33,
      "?": 34,
      "@": 35,
      "A": 36,
      "B": 37,
      "C": 38,
      "D": 39,
      "E": 40,
      "F": 41,
      "G": 42,
      "H": 43,
      "I": 44,
      "J": 45,
      "K": 46,
      "L": 47,
      "M": 48,
      "N": 49,
      "O": 50,
      "P": 51,
      "Q": 52,
      "R": 53,
      "S": 54,
      "T": 55,
      "U": 56,
      "V": 57,
      "W": 58,
      "X": 59,
      "Y": 60,
      "Z": 61,
      "[": 62,
      "\\": 63,
      "]": 64,
      "^": 65,
      "_": 66,
      "`": 67,
      "a": 68,
      "b": 69,
      "c": 70,
      "d": 71,
      "e": 72,
      "f": 73,
      "g": 74,
      "h": 75,
      "i": 76,
      "j": 77,
      "k": 78,
      "l": 79,
      "m": 80,
      "n": 81,
      "o": 82,
      "p": 83,
      "q": 84,
      "r": 85,
      "s": 86,
      "t": 87,
      "u": 88,
      "v": 89,
      "w": 90,
      "x": 91,
      "y": 92,
      "z": 93,
      "{": 94,
      "|": 95,
      "}": 96,
      "~": 97,
      "¡": 98,
      "¢": 99,
      "£": 100,
      "¤": 101,
      "¥": 102,
      "¦": 103,
      "§": 104,
      "¨": 105,
      "©": 106,
      "ª": 107,
      "«": 108,
      "¬": 109,
      "®": 110,
      "¯": 111,
      "°": 112,
      "±": 113,
      "²": 114,
      "³": 115,
      "´": 116,
      "µ": 117,
      "¶": 118,
      "·": 119,
      "¸": 120,
      "¹": 121,
      "º": 122,
      "»": 123,
      "¼": 124,
      "½": 125,
      "¾": 126,
      "¿": 127,
      "À": 128,
      "Á": 129,
      "Â": 130,
      "Ã": 131,
      "Ä": 132,
      "Å": 133,
      "Æ": 134,
      "Ç": 135,
      "È": 136,
      "É": 137,
      "Ê": 138,
      "Ë": 139,
      "Ì": 140,
      "Í": 141,
      "Î": 142,
      "Ï": 143,
      "Ð": 144,
      "Ñ": 145,
      "Ò": 146,
      "Ó": 147,
      "Ô": 148,
      "Õ": 149,
      "Ö": 150,
      "×": 151,
      "Ø": 152,
      "Ù": 153,
      "Ú": 154,
      "Û": 155,
      "Ü": 156,
      "Ý": 157,
      "Þ": 158,
      "ß": 159,
      "à": 160,
      "á": 161,
      "â": 162,
      "ã": 163,
      "ä": 164,
      "å": 165,
      "æ": 166,
      "ç": 167,
      "è": 168,
      "é": 169,
      "ê": 170,
      "ë": 171,
      "ì": 172,
      "í": 173,
      "î": 174,
      "ï": 175,
      "ð": 176,
      "ñ": 177,
      "ò": 178,
      "ó": 179,
      "ô": 180,
      "õ": 181,
      "ö": 182,
      "÷": 183,
      "ø": 184,
      "ù": 185,
      "ú": 186,
      "û": 187,
      "ü": 188,
      "ý": 189,
      "þ": 190,
      "ÿ": 191,
      "Ā": 192,
      "ā": 193,
      "Ă": 194,
      "ă": 195,
      "Ą": 196,
      "ą": 197,
      "Ć": 198,
      "ć": 199,
      "Ĉ": 200,
      "ĉ": 201,
      "Ċ": 202,
      "ċ": 203,
      "Č": 204,
      "č": 205,
      "Ď": 206,
      "ď": 207,
      "Đ": 208,
      "đ": 209,
      "Ē": 210,
      "ē": 211,
      "Ĕ": 212,
      "ĕ": 213,
      "Ė": 214,
      "ė": 215,
      "Ę": 216,
      "ę": 217,
      "Ě": 218,
      "ě": 219,
      "Ĝ": 220,
      "ĝ": 221,
      "Ğ": 222,
      "ğ": 223,
      "Ġ": 224,
      "ġ": 225,
      "Ģ": 226,
      "ģ": 227,
      "Ĥ": 228,
      "ĥ": 229,
      "Ħ": 230,
      "ħ": 231,
      "Ĩ": 232,
      "ĩ": 233,
      "Ī": 234,
      "ī": 235,
      "Ĭ": 236,
      "ĭ": 237,
      "Į": 238,
      "į": 239,
      "İ": 240,
      "ı": 241,
      "Ĳ": 242,
      "ĳ": 243,
      "Ĵ": 244,
      "ĵ": 245,
      "Ķ": 246,
      "ķ": 247,
      "ĸ": 248,
      "Ĺ": 249,
      "ĺ": 250,
      "Ļ": 251,
      "ļ": 252,
      "Ľ": 253,
      "ľ": 254,
      "Ŀ": 255,
      "ŀ": 256,
      "Ł": 257,
      "ł": 258,
      "Ń": 259,
      ")p": 260,
      "UĒ": 261,
      "WĖ": 262,
      "$n": 263,
      "WĐ": 264,
      "5Ē": 265,
      "+l": 266,
      "Sa": 267,
      "ĒD": 268,
      "ĒB": 269,
      "AĖ": 270,
      "AĐ": 271,
      "2n": 272,
      "?p": 273,
      "=l": 274,
      "a:": 275,
      "$Z": 276,
      "FX": 277,
      "F^": 278,
      "5&": 279,
      "88": 280,
      "*l": 281,
      "VĖ": 282,
      "(p": 283,
      "#Ē": 284,
      "CĒ": 285,
      "VĐ": 286,
      "%n": 287,
      "Ġl": 288,
      "Ea": 289,
      "\"p": 290,
      "\\Ė": 291,
      "SB": 292,
      "/n": 293,
      "\\Đ": 294,
      "WD": 295,
      "SD": 296,
      "%>": 297,
      "WB": 298,
      "[X": 299,
      "[^": 300,
      "TĒ": 301,
      "4Ē": 302,
      "ĒDZ": 303,
      "S^": 304,
      "->": 305,
      "a:$": 306,
      ")\"": 307,
      "+>": 308,
      ")+l": 309,
      "5@": 310,
      "$<": 311,
      "Ra": 312,
      "FY": 313,
      "F_": 314,
      "U@": 315,
      "SX": 316,
      ":l": 317,
      "8p": 318,
      "FĐ": 319,
      "5n": 320,
      "FĖ": 321,
      "\\W": 322,
      "FXWĖ": 323,
      "$ZUĒ": 324,
      "S3": 325,
      "5&)p": 326,
      "]^": 327,
      "'\"": 328,
      "/\"": 329,
      "]B": 330,
      "#>": 331,
      "-$": 332,
      "88WĐ": 333,
      "(Ġ": 334,
      "Ġ<": 335,
      "]X": 336,
      "-\"": 337,
      "Q\\": 338,
      "ĠĠ": 339,
      "a:$5Ē": 340,
      "ĒW": 341,
      "SZ": 342,
      "Q^": 343,
      "F^$n": 344,
      "ĒDZSa": 345,
      "1\\": 346,
      "ĒY": 347,
      "/8": 348,
      "Ē_": 349,
      "ĒB)+l": 350,
      "]D": 351,
      "UVĖ": 352,
      ".<": 353,
      "$*l": 354,
      "@Y": 355,
      "@_": 356,
      "+(p": 357,
      "[B": 358,
      "#\"": 359,
      "5VĐ": 360,
      ")>": 361,
      "5p": 362,
      "KĖ": 363,
      "7l": 364,
      "[D": 365,
      "8n": 366,
      "@S": 367,
      "KĐ": 368,
      "!>": 369,
      "\\Q": 370,
      "W^": 371,
      "Q_": 372,
      "WX": 373,
      "@U": 374,
      "/>": 375,
      "?@": 376,
      "S%n": 377,
      "Ġ\"": 378,
      "]P": 379,
      "Oa": 380,
      "/)": 381,
      "S\\": 382,
      "AB": 383,
      "?$": 384,
      "AD": 385,
      "WTĒ": 386,
      "#p": 387,
      "3+": 388,
      "_@": 389,
      "ĒQ": 390,
      ")4Ē": 391,
      "-<": 392,
      "]Ė": 393,
      ".n": 394,
      "!l": 395,
      "/*l": 396,
      "1^": 397,
      "]Đ": 398,
      "]E": 399,
      "]C": 400,
      "(l": 401,
      "1@": 402,
      "!9": 403,
      "+\"": 404,
      "*p": 405,
      "]V": 406,
      "?T": 407,
      "TĖ": 408,
      "QY": 409,
      "!\"": 410,
      "'n": 411,
      "#6": 412,
      "a/": 413,
      "#%": 414,
      "5'": 415,
      "Ġ:": 416,
      "[U": 417,
      "5\\": 418,
      ".(l": 419,
      "AY": 420,
      "ZY": 421,
      "WRa": 422,
      "A_": 423,
      ".Ġ": 424,
      "W3": 425,
      "$Ġ": 426,
      "8?": 427,
      "<)": 428,
      "Q@": 429,
      "!*p": 430,
      ")Ē": 431,
      "?TĐ": 432,
      "Ġn": 433,
      "S^VĖ": 434,
      "&n": 435,
      "/?": 436,
      "ĠĠ(p": 437,
      "-p": 438,
      "SĐ": 439,
      "^_": 440,
      "/Ġ": 441,
      ">5": 442,
      "SĖ": 443,
      "UĖ": 444,
      "->VĐ": 445,
      "GB": 446,
      "UĐ": 447,
      "GD": 448,
      "^Y": 449,
      "-#": 450,
      "5@Đ": 451,
      "9\\": 452,
      "+p": 453,
      "(:": 454,
      "!\"p": 455,
      "/:": 456,
      "U\\": 457,
      "IĒ": 458,
      "$<l": 459,
      "/)l": 460,
      "[S": 461,
      "9\\W": 462,
      "&)p": 463,
      "'\"7": 464,
      "U@Ė": 465,
      "Y3": 466,
      "Z_": 467,
      "-n": 468,
      "+>p": 469,
      "\"W": 470,
      ".Ġl": 471,
      ")n": 472,
      "?\\Đ": 473,
      "(Ġl": 474,
      "ĒE": 475,
      "-'": 476,
      ")'": 477,
      "a9": 478,
      "SX%n": 479,
      ".;": 480,
      "WE": 481,
      "[^UĖ": 482,
      "'\"p": 483,
      "ĒT": 484,
      "%>UĐ": 485,
      "9\\Đ": 486,
      "WZ": 487,
      "ĒC": 488,
      "1\\TĒ": 489,
      "%$": 490,
      "QD": 491,
      "(Ġ+p": 492,
      "a=": 493,
      "S3n": 494,
      "[_": 495,
      "/\"4Ē": 496,
      "2:": 497,
      "ĒR": 498,
      "FD": 499,
      "][": 500,
      "5!l": 501,
      "QB": 502,
      "ĕ&)p": 503,
      "U^": 504,
      "$9": 505,
      "ĒA": 506,
      "[Y": 507,
      "@W": 508,
      "$]Đ": 509,
      "[X&n": 510,
      "1AĐ": 511,
      ">?": 512,
      "89": 513,
      "FB": 514,
      "WS": 515,
      "ĒU": 516,
      "ĒS": 517,
      "SE": 518,
      "Q\\Ra": 519,
      "WW": 520,
      "SC": 521,
      "Ġ=l": 522,
      "E_": 523,
      "ĒG": 524,
      "$=l": 525,
      "[C": 526,
      "Ē^": 527,
      "#<": 528,
      "__": 529,
      "+?p": 530,
      "%3": 531,
      "WU": 532,
      "WR": 533,
      "[E": 534,
      ")#": 535,
      "(=": 536,
      "5AĐ": 537,
      "$=": 538,
      "/!": 539,
      "ĒX": 540,
      "VY": 541,
      "3!": 542,
      "QX": 543,
      "$p": 544,
      "%#": 545,
      "a:#p": 546,
      "_Y": 547,
      "?9": 548,
      "WC": 549,
      "/l": 550,
      "V_": 551,
      "(\"": 552,
      "SCĒ": 553,
      "E^": 554,
      "\\S": 555,
      "FS": 556,
      "VS": 557,
      "AS": 558,
      "$\"": 559,
      "ĒD]Ė": 560,
      "(-": 561,
      "<#": 562,
      "QAĖ": 563,
      "Ġ9": 564,
      "FW": 565,
      "-#Ē": 566,
      "/?p": 567,
      "]]": 568,
      ")<": 569,
      ")#Ē": 570,
      "WDa": 571,
      "[W": 572,
      "AE": 573,
      "Ġ#": 574,
      "\\_": 575,
      "4<": 576,
      "WQ": 577,
      "EY": 578,
      ";>": 579,
      "Ē_TĖ": 580,
      "^W": 581,
      "ZĖ": 582,
      "%<": 583,
      "EW": 584,
      "U_": 585,
      "2'": 586,
      "SY": 587,
      "WCĒ": 588,
      "\"&": 589,
      "_Đ": 590,
      "AC": 591,
      "]Xa": 592,
      "3'": 593,
      "?\\": 594,
      "ĒF": 595,
      "ĒB.n": 596,
      "$5Ē": 597,
      "[Q": 598,
      "TY": 599,
      "T_": 600,
      "8\"": 601,
      "S[": 602,
      "SEa": 603,
      "[\\": 604,
      ",n": 605,
      ".#": 606,
      "5\\D": 607,
      "UAĖ": 608,
      ".\"": 609,
      "WT": 610,
      "Ē@": 611,
      ">9": 612,
      "ĒP": 613,
      "1F": 614,
      "S]": 615,
      "Ġ)": 616,
      "G^": 617,
      "SR": 618,
      "[Z": 619,
      "Q^Ė": 620,
      "Ġ=": 621,
      "5<": 622,
      "BY": 623,
      "QW": 624,
      "\\B": 625,
      "5'#>": 626,
      "1\\Đ": 627,
      "GX": 628,
      "ĠĠl": 629,
      "-=": 630,
      "ZĐ": 631,
      ")4": 632,
      "(!\"p": 633,
      "$ZĐ": 634,
      "!p": 635,
      "a,": 636,
      "Ġ\"l": 637,
      "-3": 638,
      "ZSa": 639,
      ")+": 640,
      "4Ġ": 641,
      "ST": 642,
      "]F": 643,
      "[_\\Ė": 644,
      "/*": 645,
      "ĒY'n": 646,
      ")$": 647,
      "Ġ:l": 648,
      "+8": 649,
      "!Ġ": 650,
      "^Q": 651,
      "U\\B": 652,
      "BB": 653,
      "]Pa": 654,
      ")/": 655,
      "+\"$": 656,
      "$-": 657,
      "SF": 658,
      "a!*p": 659,
      "1FĐ": 660,
      "/Ġp": 661,
      "(8": 662,
      "\\Y": 663,
      "[@": 664,
      "/'": 665,
      "ĒW/*l": 666,
      "B_": 667,
      "(=l": 668,
      "ĒV": 669,
      "/$": 670,
      "%?\\Đ": 671,
      "3n": 672,
      "1^Đ": 673,
      "BD": 674,
      "Ēd": 675,
      "ZW": 676,
      ".<l": 677,
      "/+": 678,
      "a>": 679,
      "_TĖ": 680,
      "9\"": 681,
      ")1": 682,
      "_W": 683,
      "6]B": 684,
      "?@Đ": 685,
      "WEa": 686,
      "AU": 687,
      "_/n": 688,
      "[F": 689,
      "a&": 690,
      "Ēb": 691,
      "]Z": 692,
      "a(": 693,
      "WF": 694,
      "]\\": 695,
      "5&l": 696,
      "'!>": 697,
      "W\\": 698,
      "^Đ": 699,
      "2:l": 700,
      "Y\\Ė": 701,
      "AX": 702,
      "]@": 703,
      "ĒDZS": 704,
      "A^": 705,
      "ZUĒ": 706,
      "%\"": 707,
      "^S": 708,
      "-7l": 709,
      "/;": 710,
      "S@": 711,
      ".9": 712,
      "\"%": 713,
      "QQ": 714,
      "8WĐ": 715,
      "*9": 716,
      "(<": 717,
      "5+(p": 718,
      "EQAĖ": 719,
      "(9": 720,
      "]G": 721,
      "Ġp": 722,
      "##": 723,
      "[Y/n": 724,
      "/\"p": 725,
      ";1AĐ": 726,
      "Ēw": 727,
      "SU": 728,
      "6/?p": 729,
      "[CĒ": 730,
      "W[": 731,
      "Y'n": 732,
      "Ēq": 733,
      "\\U": 734,
      "EX": 735,
      ")3": 736,
      "-Ġ": 737,
      "QFĖ": 738,
      "/<": 739,
      "W@": 740,
      "Ē[": 741,
      "T_@": 742,
      "UX": 743,
      "4=": 744,
      "DY": 745,
      "W/*l": 746,
      "/9": 747,
      "QS": 748,
      "VU": 749,
      "[[": 750,
      "5ĒD": 751,
      "(5": 752,
      "[R": 753,
      "TY3": 754,
      "f^": 755,
      "UĒB": 756,
      "\\Qa": 757,
      "%+": 758,
      "ZS": 759,
      "%#Ē": 760,
      "?5": 761,
      "^U": 762,
      "TB": 763,
      "\":": 764,
      "EW2n": 765,
      "]A": 766,
      "[Xa": 767,
      ";8": 768,
      "Ē]": 769,
      "D_": 770,
      "'>": 771,
      "Ēe": 772,
      "Ġ?": 773,
      ")=": 774,
      "fX": 775,
      "Q\\R": 776,
      "-!": 777,
      "DS": 778,
      "^Ė": 779,
      "Ēc": 780,
      "PS": 781,
      "TD": 782,
      "(*": 783,
      "2&": 784,
      "%@": 785,
      "[T": 786,
      "a/l": 787,
      "5=l": 788,
      "%'": 789,
      "_Q": 790,
      "GZ": 791,
      ".(l$ZUĒ": 792,
      "Ēr": 793,
      "Ġ5": 794,
      "'SCĒ": 795,
      "1FY": 796,
      "a*": 797,
      "$:": 798,
      "5+": 799,
      "#'": 800,
      "%=": 801,
      "_S": 802,
      "Ēu": 803,
      "4\"": 804,
      ";\"": 805,
      "GC": 806,
      "5\\Đ": 807,
      "[Ea": 808,
      "%&": 809,
      "?8": 810,
      "GE": 811,
      "-+": 812,
      "/:l": 813,
      "$Ġl": 814,
      "9]^": 815,
      "ĒY\\Ė": 816,
      "$#": 817,
      ";9": 818,
      "(#": 819,
      "^\\": 820,
      "[]": 821,
      "_Ė": 822,
      "ĒQ\\Ra": 823,
      "Ġ*": 824,
      ".5": 825,
      "a/\"4Ē": 826,
      "-4": 827,
      "Ġ-": 828,
      "@Q": 829,
      "Ēs": 830,
      "G\\": 831,
      "$?": 832,
      "FS%n": 833,
      ".=": 834,
      "PU": 835,
      "2=": 836,
      "2+": 837,
      "%7": 838,
      "/=": 839,
      "6'": 840,
      "!?": 841,
      "/-": 842,
      "-+l": 843,
      ">1": 844,
      "FE": 845,
      "YĐ": 846,
      "FC": 847,
      "6&": 848,
      "*n": 849,
      "a-": 850,
      "Ē}": 851,
      "Ēt": 852,
      "\"!": 853,
      "$8": 854,
      "8#Ē": 855,
      "Sa:": 856,
      ".:": 857,
      "Ēx": 858,
      "#6ĒDZSa": 859,
      "]VĒB)+l": 860,
      "\\E": 861,
      "\\R": 862,
      "ĈĠl": 863,
      "Ě$5Ē": 864,
      "Ġ1": 865,
      "Ē_/n": 866,
      "FQ": 867,
      "Ē{": 868,
      "]Pa:$5Ē": 869,
      "]Y": 870,
      "?TĐF^$n": 871,
      "9>": 872,
      "-/": 873,
      "UY": 874,
      "a'\"p": 875,
      ";?": 876,
      "1\\T": 877,
      "&&": 878,
      "@Ė": 879,
      "FCĒ": 880,
      "V]D": 881,
      "W5n": 882,
      "a#": 883,
      "Q^Z": 884,
      "<\"": 885,
      "Ē~": 886,
      "9AĐ": 887,
      "-;": 888,
      ",>": 889,
      ")\"WĐ": 890,
      ".>": 891,
      "SZĖ": 892,
      "EYF^": 893,
      "1\"": 894,
      "4:": 895,
      "\"!\"": 896,
      "'[D": 897,
      "BS": 898,
      "\\KĖ": 899,
      "fXWĖ": 900,
      "^Z": 901,
      "??": 902,
      "#+": 903,
      "85": 904,
      "UW": 905,
      "FUVĖ": 906,
      "/\"4": 907,
      ";9FX": 908,
      "-7": 909,
      "-$p": 910,
      ".%": 911,
      "ĄZUĒ": 912,
      "/89]^": 913,
      "$ZQFĖ": 914,
      "\"+l": 915,
      "(#\"": 916,
      "''": 917,
      ")/8p": 918,
      "#=": 919,
      "88SD": 920,
      "FU": 921,
      "7'": 922,
      "85VĐ": 923,
      "FEa": 924,
      "^Oa": 925,
      "FXSB": 926,
      "$1": 927,
      "/=l": 928,
      "W_": 929,
      "Ę8WĐ": 930,
      "F_.Ġl": 931,
      "/?\\": 932,
      "%4": 933,
      "SQ": 934,
      "Ēy": 935,
      "WY": 936,
      "SXa": 937,
      "\"&l": 938,
      "5&-$": 939,
      "81": 940,
      "$+": 941,
      "9#": 942,
      "6'88": 943,
      "&WB": 944,
      "3]^": 945,
      "GS": 946,
      "^UĒ": 947,
      "ĒZ": 948,
      "PY": 949,
      "SS": 950,
      "FYa": 951,
      "Ēz": 952,
      ":9": 953,
      "@C": 954,
      "(%": 955,
      "]T": 956,
      "$<)p": 957,
      "W^FĖ": 958,
      "'!>p": 959,
      "2+l": 960,
      "5+l": 961,
      "Ēġ": 962,
      "f^$n": 963,
      "\"'": 964,
      "-9": 965,
      ".8": 966,
      "%$ZĐ": 967,
      "WBWĖ": 968,
      "(:$p": 969,
      "$Ġ8p": 970,
      "'[DZĖ": 971,
      "QUĒ": 972,
      "$/": 973,
      "?#": 974,
      "Ġ8": 975,
      ",+l": 976,
      "2;": 977,
      "5:": 978,
      "5+>": 979,
      ")>FĐ": 980,
      "]_": 981,
      "Ġ)Ē": 982,
      "#7l": 983,
      "/5Ē": 984,
      "89]^": 985,
      "BW": 986,
      "@E": 987,
      "T_@Ė": 988,
      "]R": 989,
      "-\"l": 990,
      "$WB": 991,
      ")9": 992,
      "/+l": 993,
      "Ē|": 994,
      "FU@": 995,
      "^IĒ": 996,
      "*\"": 997,
      "Ġ5Ē": 998,
      "*?@Đ": 999,
      "WD$n": 1000,
      "5+>p": 1001,
      "7+l": 1002,
      "EĖ": 1003,
      "QU": 1004,
      "a'": 1005,
      "aĝ": 1006,
      "BZ": 1007,
      "$5": 1008,
      "(!\"": 1009,
      "#;": 1010,
      "$>": 1011,
      "()": 1012,
      "a9-#Ē": 1013,
      "1_": 1014,
      "PC": 1015,
      "S3+l": 1016,
      "/%>": 1017,
      "Q[": 1018,
      ")!": 1019,
      "W]": 1020,
      "?@D": 1021,
      "2KĐ": 1022,
      "TY3n": 1023
    },
    "merges": [
      [
        ")",
        "p"
      ],
      [
        "U",
        "Ē"
      ],
      [
        "W",
        "Ė"
      ],
      [
        "$",
        "n"
      ],
      [
        "W",
        "Đ"
      ],
      [
        "5",
        "Ē"
      ],
      [
        "+",
        "l"
      ],
      [
        "S",
        "a"
      ],
      [
        "Ē",
        "D"
      ],
      [
        "Ē",
        "B"
      ],
      [
        "A",
        "Ė"
      ],
      [
        "A",
        "Đ"
      ],
      [
        "2",
        "n"
      ],
      [
        "?",
        "p"
      ],
      [
        "=",
        "l"
      ],
      [
        "a",
        ":"
      ],
      [
        "$",
        "Z"
      ],
      [
        "F",
        "X"
      ],
      [
        "F",
        "^"
      ],
      [
        "5",
        "&"
      ],
      [
        "8",
        "8"
      ],
      [
        "*",
        "l"
      ],
      [
        "V",
        "Ė"
      ],
      [
        "(",
        "p"
      ],
      [
        "#",
        "Ē"
      ],
      [
        "C",
        "Ē"
      ],
      [
        "V",
        "Đ"
      ],
      [
        "%",
        "n"
      ],
      [
        "Ġ",
        "l"
      ],
      [
        "E",
        "a"
      ],
      [
        "\"",
        "p"
      ],
      [
        "\\",
        "Ė"
      ],
      [
        "S",
        "B"
      ],
      [
        "/",
        "n"
      ],
      [
        "\\",
        "Đ"
      ],
      [
        "W",
        "D"
      ],
      [
        "S",
        "D"
      ],
      [
        "%",
        ">"
      ],
      [
        "W",
        "B"
      ],
      [
        "[",
        "X"
      ],
      [
        "[",
        "^"
      ],
      [
        "T",
        "Ē"
      ],
      [
        "4",
        "Ē"
      ],
      [
        "ĒD",
        "Z"
      ],
      [
        "S",
        "^"
      ],
      [
        "-",
        ">"
      ],
      [
        "a:",
        "$"
      ],
      [
        ")",
        "\""
      ],
      [
        "+",
        ">"
      ],
      [
        ")",
        "+l"
      ],
      [
        "5",
        "@"
      ],
      [
        "$",
        "<"
      ],
      [
        "R",
        "a"
      ],
      [
        "F",
        "Y"
      ],
      [
        "F",
        "_"
      ],
      [
        "U",
        "@"
      ],
      [
        "S",
        "X"
      ],
      [
        ":",
        "l"
      ],
      [
        "8",
        "p"
      ],
      [
        "F",
        "Đ"
      ],
      [
        "5",
        "n"
      ],
      [
        "F",
        "Ė"
      ],
      [
        "\\",
        "W"
      ],
      [
        "FX",
        "WĖ"
      ],
      [
        "$Z",
        "UĒ"
      ],
      [
        "S",
        "3"
      ],
      [
        "5&",
        ")p"
      ],
      [
        "]",
        "^"
      ],
      [
        "'",
        "\""
      ],
      [
        "/",
        "\""
      ],
      [
        "]",
        "B"
      ],
      [
        "#",
        ">"
      ],
      [
        "-",
        "$"
      ],
      [
        "88",
        "WĐ"
      ],
      [
        "(",
        "Ġ"
      ],
      [
        "Ġ",
        "<"
      ],
      [
        "]",
        "X"
      ],
      [
        "-",
        "\""
      ],
      [
        "Q",
        "\\"
      ],
      [
        "Ġ",
        "Ġ"
      ],
      [
        "a:$",
        "5Ē"
      ],
      [
        "Ē",
        "W"
      ],
      [
        "S",
        "Z"
      ],
      [
        "Q",
        "^"
      ],
      [
        "F^",
        "$n"
      ],
      [
        "ĒDZ",
        "Sa"
      ],
      [
        "1",
        "\\"
      ],
      [
        "Ē",
        "Y"
      ],
      [
        "/",
        "8"
      ],
      [
        "Ē",
        "_"
      ],
      [
        "ĒB",
        ")+l"
      ],
      [
        "]",
        "D"
      ],
      [
        "U",
        "VĖ"
      ],
      [
        ".",
        "<"
      ],
      [
        "$",
        "*l"
      ],
      [
        "@",
        "Y"
      ],
      [
        "@",
        "_"
      ],
      [
        "+",
        "(p"
      ],
      [
        "[",
        "B"
      ],
      [
        "#",
        "\""
      ],
      [
        "5",
        "VĐ"
      ],
      [
        ")",
        ">"
      ],
      [
        "5",
        "p"
      ],
      [
        "K",
        "Ė"
      ],
      [
        "7",
        "l"
      ],
      [
        "[",
        "D"
      ],
      [
        "8",
        "n"
      ],
      [
        "@",
        "S"
      ],
      [
        "K",
        "Đ"
      ],
      [
        "!",
        ">"
      ],
      [
        "\\",
        "Q"
      ],
      [
        "W",
        "^"
      ],
      [
        "Q",
        "_"
      ],
      [
        "W",
        "X"
      ],
      [
        "@",
        "U"
      ],
      [
        "/",
        ">"
      ],
      [
        "?",
        "@"
      ],
      [
        "S",
        "%n"
      ],
      [
        "Ġ",
        "\""
      ],
      [
        "]",
        "P"
      ],
      [
        "O",
        "a"
      ],
      [
        "/",
        ")"
      ],
      [
        "S",
        "\\"
      ],
      [
        "A",
        "B"
      ],
      [
        "?",
        "$"
      ],
      [
        "A",
        "D"
      ],
      [
        "W",
        "TĒ"
      ],
      [
        "#",
        "p"
      ],
      [
        "3",
        "+"
      ],
      [
        "_",
        "@"
      ],
      [
        "Ē",
        "Q"
      ],
      [
        ")",
        "4Ē"
      ],
      [
        "-",
        "<"
      ],
      [
        "]",
        "Ė"
      ],
      [
        ".",
        "n"
      ],
      [
        "!",
        "l"
      ],
      [
        "/",
        "*l"
      ],
      [
        "1",
        "^"
      ],
      [
        "]",
        "Đ"
      ],
      [
        "]",
        "E"
      ],
      [
        "]",
        "C"
      ],
      [
        "(",
        "l"
      ],
      [
        "1",
        "@"
      ],
      [
        "!",
        "9"
      ],
      [
        "+",
        "\""
      ],
      [
        "*",
        "p"
      ],
      [
        "]",
        "V"
      ],
      [
        "?",
        "T"
      ],
      [
        "T",
        "Ė"
      ],
      [
        "Q",
        "Y"
      ],
      [
        "!",
        "\""
      ],
      [
        "'",
        "n"
      ],
      [
        "#",
        "6"
      ],
      [
        "a",
        "/"
      ],
      [
        "#",
        "%"
      ],
      [
        "5",
        "'"
      ],
      [
        "Ġ",
        ":"
      ],
      [
        "[",
        "U"
      ],
      [
        "5",
        "\\"
      ],
      [
        ".",
        "(l"
      ],
      [
        "A",
        "Y"
      ],
      [
        "Z",
        "Y"
      ],
      [
        "W",
        "Ra"
      ],
      [
        "A",
        "_"
      ],
      [
        ".",
        "Ġ"
      ],
      [
        "W",
        "3"
      ],
      [
        "$",
        "Ġ"
      ],
      [
        "8",
        "?"
      ],
      [
        "<",
        ")"
      ],
      [
        "Q",
        "@"
      ],
      [
        "!",
        "*p"
      ],
      [
        ")",
        "Ē"
      ],
      [
        "?T",
        "Đ"
      ],
      [
        "Ġ",
        "n"
      ],
      [
        "S^",
        "VĖ"
      ],
      [
        "&",
        "n"
      ],
      [
        "/",
        "?"
      ],
      [
        "ĠĠ",
        "(p"
      ],
      [
        "-",
        "p"
      ],
      [
        "S",
        "Đ"
      ],
      [
        "^",
        "_"
      ],
      [
        "/",
        "Ġ"
      ],
      [
        ">",
        "5"
      ],
      [
        "S",
        "Ė"
      ],
      [
        "U",
        "Ė"
      ],
      [
        "->",
        "VĐ"
      ],
      [
        "G",
        "B"
      ],
      [
        "U",
        "Đ"
      ],
      [
        "G",
        "D"
      ],
      [
        "^",
        "Y"
      ],
      [
        "-",
        "#"
      ],
      [
        "5@",
        "Đ"
      ],
      [
        "9",
        "\\"
      ],
      [
        "+",
        "p"
      ],
      [
        "(",
        ":"
      ],
      [
        "!",
        "\"p"
      ],
      [
        "/",
        ":"
      ],
      [
        "U",
        "\\"
      ],
      [
        "I",
        "Ē"
      ],
      [
        "$<",
        "l"
      ],
      [
        "/)",
        "l"
      ],
      [
        "[",
        "S"
      ],
      [
        "9",
        "\\W"
      ],
      [
        "&",
        ")p"
      ],
      [
        "'\"",
        "7"
      ],
      [
        "U@",
        "Ė"
      ],
      [
        "Y",
        "3"
      ],
      [
        "Z",
        "_"
      ],
      [
        "-",
        "n"
      ],
      [
        "+>",
        "p"
      ],
      [
        "\"",
        "W"
      ],
      [
        ".",
        "Ġl"
      ],
      [
        ")",
        "n"
      ],
      [
        "?",
        "\\Đ"
      ],
      [
        "(",
        "Ġl"
      ],
      [
        "Ē",
        "E"
      ],
      [
        "-",
        "'"
      ],
      [
        ")",
        "'"
      ],
      [
        "a",
        "9"
      ],
      [
        "SX",
        "%n"
      ],
      [
        ".",
        ";"
      ],
      [
        "W",
        "E"
      ],
      [
        "[^",
        "UĖ"
      ],
      [
        "'",
        "\"p"
      ],
      [
        "Ē",
        "T"
      ],
      [
        "%>",
        "UĐ"
      ],
      [
        "9",
        "\\Đ"
      ],
      [
        "W",
        "Z"
      ],
      [
        "Ē",
        "C"
      ],
      [
        "1\\",
        "TĒ"
      ],
      [
        "%",
        "$"
      ],
      [
        "Q",
        "D"
      ],
      [
        "(Ġ",
        "+p"
      ],
      [
        "a",
        "="
      ],
      [
        "S3",
        "n"
      ],
      [
        "[",
        "_"
      ],
      [
        "/\"",
        "4Ē"
      ],
      [
        "2",
        ":"
      ],
      [
        "Ē",
        "R"
      ],
      [
        "F",
        "D"
      ],
      [
        "]",
        "["
      ],
      [
        "5",
        "!l"
      ],
      [
        "Q",
        "B"
      ],
      [
        "ĕ",
        "&)p"
      ],
      [
        "U",
        "^"
      ],
      [
        "$",
        "9"
      ],
      [
        "Ē",
        "A"
      ],
      [
        "[",
        "Y"
      ],
      [
        "@",
        "W"
      ],
      [
        "$",
        "]Đ"
      ],
      [
        "[X",
        "&n"
      ],
      [
        "1",
        "AĐ"
      ],
      [
        ">",
        "?"
      ],
      [
        "8",
        "9"
      ],
      [
        "F",
        "B"
      ],
      [
        "W",
        "S"
      ],
      [
        "Ē",
        "U"
      ],
      [
        "Ē",
        "S"
      ],
      [
        "S",
        "E"
      ],
      [
        "Q\\",
        "Ra"
      ],
      [
        "W",
        "W"
      ],
      [
        "S",
        "C"
      ],
      [
        "Ġ",
        "=l"
      ],
      [
        "E",
        "_"
      ],
      [
        "Ē",
        "G"
      ],
      [
        "$",
        "=l"
      ],
      [
        "[",
        "C"
      ],
      [
        "Ē",
        "^"
      ],
      [
        "#",
        "<"
      ],
      [
        "_",
        "_"
      ],
      [
        "+",
        "?p"
      ],
      [
        "%",
        "3"
      ],
      [
        "W",
        "U"
      ],
      [
        "W",
        "R"
      ],
      [
        "[",
        "E"
      ],
      [
        ")",
        "#"
      ],
      [
        "(",
        "="
      ],
      [
        "5",
        "AĐ"
      ],
      [
        "$",
        "="
      ],
      [
        "/",
        "!"
      ],
      [
        "Ē",
        "X"
      ],
      [
        "V",
        "Y"
      ],
      [
        "3",
        "!"
      ],
      [
        "Q",
        "X"
      ],
      [
        "$",
        "p"
      ],
      [
        "%",
        "#"
      ],
      [
        "a:",
        "#p"
      ],
      [
        "_",
        "Y"
      ],
      [
        "?",
        "9"
      ],
      [
        "W",
        "C"
      ],
      [
        "/",
        "l"
      ],
      [
        "V",
        "_"
      ],
      [
        "(",
        "\""
      ],
      [
        "S",
        "CĒ"
      ],
      [
        "E",
        "^"
      ],
      [
        "\\",
        "S"
      ],
      [
        "F",
        "S"
      ],
      [
        "V",
        "S"
      ],
      [
        "A",
        "S"
      ],
      [
        "$",
        "\""
      ],
      [
        "ĒD",
        "]Ė"
      ],
      [
        "(",
        "-"
      ],
      [
        "<",
        "#"
      ],
      [
        "Q",
        "AĖ"
      ],
      [
        "Ġ",
        "9"
      ],
      [
        "F",
        "W"
      ],
      [
        "-",
        "#Ē"
      ],
      [
        "/",
        "?p"
      ],
      [
        "]",
        "]"
      ],
      [
        ")",
        "<"
      ],
      [
        ")",
        "#Ē"
      ],
      [
        "WD",
        "a"
      ],
      [
        "[",
        "W"
      ],
      [
        "A",
        "E"
      ],
      [
        "Ġ",
        "#"
      ],
      [
        "\\",
        "_"
      ],
      [
        "4",
        "<"
      ],
      [
        "W",
        "Q"
      ],
      [
        "E",
        "Y"
      ],
      [
        ";",
        ">"
      ],
      [
        "Ē_",
        "TĖ"
      ],
      [
        "^",
        "W"
      ],
      [
        "Z",
        "Ė"
      ],
      [
        "%",
        "<"
      ],
      [
        "E",
        "W"
      ],
      [
        "U",
        "_"
      ],
      [
        "2",
        "'"
      ],
      [
        "S",
        "Y"
      ],
      [
        "W",
        "CĒ"
      ],
      [
        "\"",
        "&"
      ],
      [
        "_",
        "Đ"
      ],
      [
        "A",
        "C"
      ],
      [
        "]X",
        "a"
      ],
      [
        "3",
        "'"
      ],
      [
        "?",
        "\\"
      ],
      [
        "Ē",
        "F"
      ],
      [
        "ĒB",
        ".n"
      ],
      [
        "$",
        "5Ē"
      ],
      [
        "[",
        "Q"
      ],
      [
        "T",
        "Y"
      ],
      [
        "T",
        "_"
      ],
      [
        "8",
        "\""
      ],
      [
        "S",
        "["
      ],
      [
        "S",
        "Ea"
      ],
      [
        "[",
        "\\"
      ],
      [
        ",",
        "n"
      ],
      [
        ".",
        "#"
      ],
      [
        "5\\",
        "D"
      ],
      [
        "U",
        "AĖ"
      ],
      [
        ".",
        "\""
      ],
      [
        "W",
        "T"
      ],
      [
        "Ē",
        "@"
      ],
      [
        ">",
        "9"
      ],
      [
        "Ē",
        "P"
      ],
      [
        "1",
        "F"
      ],
      [
        "S",
        "]"
      ],
      [
        "Ġ",
        ")"
      ],
      [
        "G",
        "^"
      ],
      [
        "S",
        "R"
      ],
      [
        "[",
        "Z"
      ],
      [
        "Q^",
        "Ė"
      ],
      [
        "Ġ",
        "="
      ],
      [
        "5",
        "<"
      ],
      [
        "B",
        "Y"
      ],
      [
        "Q",
        "W"
      ],
      [
        "\\",
        "B"
      ],
      [
        "5'",
        "#>"
      ],
      [
        "1",
        "\\Đ"
      ],
      [
        "G",
        "X"
      ],
      [
        "Ġ",
        "Ġl"
      ],
      [
        "-",
        "="
      ],
      [
        "Z",
        "Đ"
      ],
      [
        ")",
        "4"
      ],
      [
        "(",
        "!\"p"
      ],
      [
        "$Z",
        "Đ"
      ],
      [
        "!",
        "p"
      ],
      [
        "a",
        ","
      ],
      [
        "Ġ\"",
        "l"
      ],
      [
        "-",
        "3"
      ],
      [
        "Z",
        "Sa"
      ],
      [
        ")",
        "+"
      ],
      [
        "4",
        "Ġ"
      ],
      [
        "S",
        "T"
      ],
      [
        "]",
        "F"
      ],
      [
        "[_",
        "\\Ė"
      ],
      [
        "/",
        "*"
      ],
      [
        "ĒY",
        "'n"
      ],
      [
        ")",
        "$"
      ],
      [
        "Ġ",
        ":l"
      ],
      [
        "+",
        "8"
      ],
      [
        "!",
        "Ġ"
      ],
      [
        "^",
        "Q"
      ],
      [
        "U\\",
        "B"
      ],
      [
        "B",
        "B"
      ],
      [
        "]P",
        "a"
      ],
      [
        ")",
        "/"
      ],
      [
        "+\"",
        "$"
      ],
      [
        "$",
        "-"
      ],
      [
        "S",
        "F"
      ],
      [
        "a",
        "!*p"
      ],
      [
        "1",
        "FĐ"
      ],
      [
        "/Ġ",
        "p"
      ],
      [
        "(",
        "8"
      ],
      [
        "\\",
        "Y"
      ],
      [
        "[",
        "@"
      ],
      [
        "/",
        "'"
      ],
      [
        "ĒW",
        "/*l"
      ],
      [
        "B",
        "_"
      ],
      [
        "(",
        "=l"
      ],
      [
        "Ē",
        "V"
      ],
      [
        "/",
        "$"
      ],
      [
        "%",
        "?\\Đ"
      ],
      [
        "3",
        "n"
      ],
      [
        "1^",
        "Đ"
      ],
      [
        "B",
        "D"
      ],
      [
        "Ē",
        "d"
      ],
      [
        "Z",
        "W"
      ],
      [
        ".<",
        "l"
      ],
      [
        "/",
        "+"
      ],
      [
        "a",
        ">"
      ],
      [
        "_",
        "TĖ"
      ],
      [
        "9",
        "\""
      ],
      [
        ")",
        "1"
      ],
      [
        "_",
        "W"
      ],
      [
        "6",
        "]B"
      ],
      [
        "?@",
        "Đ"
      ],
      [
        "W",
        "Ea"
      ],
      [
        "A",
        "U"
      ],
      [
        "_",
        "/n"
      ],
      [
        "[",
        "F"
      ],
      [
        "a",
        "&"
      ],
      [
        "Ē",
        "b"
      ],
      [
        "]",
        "Z"
      ],
      [
        "a",
        "("
      ],
      [
        "W",
        "F"
      ],
      [
        "]",
        "\\"
      ],
      [
        "5&",
        "l"
      ],
      [
        "'",
        "!>"
      ],
      [
        "W",
        "\\"
      ],
      [
        "^",
        "Đ"
      ],
      [
        "2",
        ":l"
      ],
      [
        "Y",
        "\\Ė"
      ],
      [
        "A",
        "X"
      ],
      [
        "]",
        "@"
      ],
      [
        "ĒDZ",
        "S"
      ],
      [
        "A",
        "^"
      ],
      [
        "Z",
        "UĒ"
      ],
      [
        "%",
        "\""
      ],
      [
        "^",
        "S"
      ],
      [
        "-",
        "7l"
      ],
      [
        "/",
        ";"
      ],
      [
        "S",
        "@"
      ],
      [
        ".",
        "9"
      ],
      [
        "\"",
        "%"
      ],
      [
        "Q",
        "Q"
      ],
      [
        "8",
        "WĐ"
      ],
      [
        "*",
        "9"
      ],
      [
        "(",
        "<"
      ],
      [
        "5",
        "+(p"
      ],
      [
        "E",
        "QAĖ"
      ],
      [
        "(",
        "9"
      ],
      [
        "]",
        "G"
      ],
      [
        "Ġ",
        "p"
      ],
      [
        "#",
        "#"
      ],
      [
        "[Y",
        "/n"
      ],
      [
        "/",
        "\"p"
      ],
      [
        ";",
        "1AĐ"
      ],
      [
        "Ē",
        "w"
      ],
      [
        "S",
        "U"
      ],
      [
        "6",
        "/?p"
      ],
      [
        "[",
        "CĒ"
      ],
      [
        "W",
        "["
      ],
      [
        "Y",
        "'n"
      ],
      [
        "Ē",
        "q"
      ],
      [
        "\\",
        "U"
      ],
      [
        "E",
        "X"
      ],
      [
        ")",
        "3"
      ],
      [
        "-",
        "Ġ"
      ],
      [
        "Q",
        "FĖ"
      ],
      [
        "/",
        "<"
      ],
      [
        "W",
        "@"
      ],
      [
        "Ē",
        "["
      ],
      [
        "T",
        "_@"
      ],
      [
        "U",
        "X"
      ],
      [
        "4",
        "="
      ],
      [
        "D",
        "Y"
      ],
      [
        "W",
        "/*l"
      ],
      [
        "/",
        "9"
      ],
      [
        "Q",
        "S"
      ],
      [
        "V",
        "U"
      ],
      [
        "[",
        "["
      ],
      [
        "5Ē",
        "D"
      ],
      [
        "(",
        "5"
      ],
      [
        "[",
        "R"
      ],
      [
        "T",
        "Y3"
      ],
      [
        "f",
        "^"
      ],
      [
        "UĒ",
        "B"
      ],
      [
        "\\Q",
        "a"
      ],
      [
        "%",
        "+"
      ],
      [
        "Z",
        "S"
      ],
      [
        "%",
        "#Ē"
      ],
      [
        "?",
        "5"
      ],
      [
        "^",
        "U"
      ],
      [
        "T",
        "B"
      ],
      [
        "\"",
        ":"
      ],
      [
        "EW",
        "2n"
      ],
      [
        "]",
        "A"
      ],
      [
        "[X",
        "a"
      ],
      [
        ";",
        "8"
      ],
      [
        "Ē",
        "]"
      ],
      [
        "D",
        "_"
      ],
      [
        "'",
        ">"
      ],
      [
        "Ē",
        "e"
      ],
      [
        "Ġ",
        "?"
      ],
      [
        ")",
        "="
      ],
      [
        "f",
        "X"
      ],
      [
        "Q\\",
        "R"
      ],
      [
        "-",
        "!"
      ],
      [
        "D",
        "S"
      ],
      [
        "^",
        "Ė"
      ],
      [
        "Ē",
        "c"
      ],
      [
        "P",
        "S"
      ],
      [
        "T",
        "D"
      ],
      [
        "(",
        "*"
      ],
      [
        "2",
        "&"
      ],
      [
        "%",
        "@"
      ],
      [
        "[",
        "T"
      ],
      [
        "a/",
        "l"
      ],
      [
        "5",
        "=l"
      ],
      [
        "%",
        "'"
      ],
      [
        "_",
        "Q"
      ],
      [
        "G",
        "Z"
      ],
      [
        ".(l",
        "$ZUĒ"
      ],
      [
        "Ē",
        "r"
      ],
      [
        "Ġ",
        "5"
      ],
      [
        "'",
        "SCĒ"
      ],
      [
        "1",
        "FY"
      ],
      [
        "a",
        "*"
      ],
      [
        "$",
        ":"
      ],
      [
        "5",
        "+"
      ],
      [
        "#",
        "'"
      ],
      [
        "%",
        "="
      ],
      [
        "_",
        "S"
      ],
      [
        "Ē",
        "u"
      ],
      [
        "4",
        "\""
      ],
      [
        ";",
        "\""
      ],
      [
        "G",
        "C"
      ],
      [
        "5",
        "\\Đ"
      ],
      [
        "[",
        "Ea"
      ],
      [
        "%",
        "&"
      ],
      [
        "?",
        "8"
      ],
      [
        "G",
        "E"
      ],
      [
        "-",
        "+"
      ],
      [
        "/",
        ":l"
      ],
      [
        "$",
        "Ġl"
      ],
      [
        "9",
        "]^"
      ],
      [
        "ĒY",
        "\\Ė"
      ],
      [
        "$",
        "#"
      ],
      [
        ";",
        "9"
      ],
      [
        "(",
        "#"
      ],
      [
        "^",
        "\\"
      ],
      [
        "[",
        "]"
      ],
      [
        "_",
        "Ė"
      ],
      [
        "Ē",
        "Q\\Ra"
      ],
      [
        "Ġ",
        "*"
      ],
      [
        ".",
        "5"
      ],
      [
        "a",
        "/\"4Ē"
      ],
      [
        "-",
        "4"
      ],
      [
        "Ġ",
        "-"
      ],
      [
        "@",
        "Q"
      ],
      [
        "Ē",
        "s"
      ],
      [
        "G",
        "\\"
      ],
      [
        "$",
        "?"
      ],
      [
        "F",
        "S%n"
      ],
      [
        ".",
        "="
      ],
      [
        "P",
        "U"
      ],
      [
        "2",
        "="
      ],
      [
        "2",
        "+"
      ],
      [
        "%",
        "7"
      ],
      [
        "/",
        "="
      ],
      [
        "6",
        "'"
      ],
      [
        "!",
        "?"
      ],
      [
        "/",
        "-"
      ],
      [
        "-",
        "+l"
      ],
      [
        ">",
        "1"
      ],
      [
        "F",
        "E"
      ],
      [
        "Y",
        "Đ"
      ],
      [
        "F",
        "C"
      ],
      [
        "6",
        "&"
      ],
      [
        "*",
        "n"
      ],
      [
        "a",
        "-"
      ],
      [
        "Ē",
        "}"
      ],
      [
        "Ē",
        "t"
      ],
      [
        "\"",
        "!"
      ],
      [
        "$",
        "8"
      ],
      [
        "8",
        "#Ē"
      ],
      [
        "Sa",
        ":"
      ],
      [
        ".",
        ":"
      ],
      [
        "Ē",
        "x"
      ],
      [
        "#6",
        "ĒDZSa"
      ],
      [
        "]V",
        "ĒB)+l"
      ],
      [
        "\\",
        "E"
      ],
      [
        "\\",
        "R"
      ],
      [
        "Ĉ",
        "Ġl"
      ],
      [
        "Ě",
        "$5Ē"
      ],
      [
        "Ġ",
        "1"
      ],
      [
        "Ē_",
        "/n"
      ],
      [
        "F",
        "Q"
      ],
      [
        "Ē",
        "{"
      ],
      [
        "]P",
        "a:$5Ē"
      ],
      [
        "]",
        "Y"
      ],
      [
        "?TĐ",
        "F^$n"
      ],
      [
        "9",
        ">"
      ],
      [
        "-",
        "/"
      ],
      [
        "U",
        "Y"
      ],
      [
        "a",
        "'\"p"
      ],
      [
        ";",
        "?"
      ],
      [
        "1\\",
        "T"
      ],
      [
        "&",
        "&"
      ],
      [
        "@",
        "Ė"
      ],
      [
        "F",
        "CĒ"
      ],
      [
        "V",
        "]D"
      ],
      [
        "W",
        "5n"
      ],
      [
        "a",
        "#"
      ],
      [
        "Q^",
        "Z"
      ],
      [
        "<",
        "\""
      ],
      [
        "Ē",
        "~"
      ],
      [
        "9",
        "AĐ"
      ],
      [
        "-",
        ";"
      ],
      [
        ",",
        ">"
      ],
      [
        ")\"",
        "WĐ"
      ],
      [
        ".",
        ">"
      ],
      [
        "SZ",
        "Ė"
      ],
      [
        "EY",
        "F^"
      ],
      [
        "1",
        "\""
      ],
      [
        "4",
        ":"
      ],
      [
        "\"",
        "!\""
      ],
      [
        "'",
        "[D"
      ],
      [
        "B",
        "S"
      ],
      [
        "\\",
        "KĖ"
      ],
      [
        "fX",
        "WĖ"
      ],
      [
        "^",
        "Z"
      ],
      [
        "?",
        "?"
      ],
      [
        "#",
        "+"
      ],
      [
        "8",
        "5"
      ],
      [
        "U",
        "W"
      ],
      [
        "F",
        "UVĖ"
      ],
      [
        "/\"",
        "4"
      ],
      [
        ";9",
        "FX"
      ],
      [
        "-",
        "7"
      ],
      [
        "-$",
        "p"
      ],
      [
        ".",
        "%"
      ],
      [
        "Ą",
        "ZUĒ"
      ],
      [
        "/8",
        "9]^"
      ],
      [
        "$Z",
        "QFĖ"
      ],
      [
        "\"",
        "+l"
      ],
      [
        "(",
        "#\""
      ],
      [
        "'",
        "'"
      ],
      [
        ")/",
        "8p"
      ],
      [
        "#",
        "="
      ],
      [
        "88",
        "SD"
      ],
      [
        "F",
        "U"
      ],
      [
        "7",
        "'"
      ],
      [
        "8",
        "5VĐ"
      ],
      [
        "F",
        "Ea"
      ],
      [
        "^",
        "Oa"
      ],
      [
        "FX",
        "SB"
      ],
      [
        "$",
        "1"
      ],
      [
        "/",
        "=l"
      ],
      [
        "W",
        "_"
      ],
      [
        "Ę",
        "8WĐ"
      ],
      [
        "F_",
        ".Ġl"
      ],
      [
        "/?",
        "\\"
      ],
      [
        "%",
        "4"
      ],
      [
        "S",
        "Q"
      ],
      [
        "Ē",
        "y"
      ],
      [
        "W",
        "Y"
      ],
      [
        "SX",
        "a"
      ],
      [
        "\"&",
        "l"
      ],
      [
        "5&",
        "-$"
      ],
      [
        "8",
        "1"
      ],
      [
        "$",
        "+"
      ],
      [
        "9",
        "#"
      ],
      [
        "6'",
        "88"
      ],
      [
        "&",
        "WB"
      ],
      [
        "3",
        "]^"
      ],
      [
        "G",
        "S"
      ],
      [
        "^",
        "UĒ"
      ],
      [
        "Ē",
        "Z"
      ],
      [
        "P",
        "Y"
      ],
      [
        "S",
        "S"
      ],
      [
        "FY",
        "a"
      ],
      [
        "Ē",
        "z"
      ],
      [
        ":",
        "9"
      ],
      [
        "@",
        "C"
      ],
      [
        "(",
        "%"
      ],
      [
        "]",
        "T"
      ],
      [
        "$<",
        ")p"
      ],
      [
        "W^",
        "FĖ"
      ],
      [
        "'!>",
        "p"
      ],
      [
        "2",
        "+l"
      ],
      [
        "5",
        "+l"
      ],
      [
        "Ē",
        "ġ"
      ],
      [
        "f^",
        "$n"
      ],
      [
        "\"",
        "'"
      ],
      [
        "-",
        "9"
      ],
      [
        ".",
        "8"
      ],
      [
        "%",
        "$ZĐ"
      ],
      [
        "WB",
        "WĖ"
      ],
      [
        "(:",
        "$p"
      ],
      [
        "$Ġ",
        "8p"
      ],
      [
        "'[D",
        "ZĖ"
      ],
      [
        "Q",
        "UĒ"
      ],
      [
        "$",
        "/"
      ],
      [
        "?",
        "#"
      ],
      [
        "Ġ",
        "8"
      ],
      [
        ",",
        "+l"
      ],
      [
        "2",
        ";"
      ],
      [
        "5",
        ":"
      ],
      [
        "5",
        "+>"
      ],
      [
        ")>",
        "FĐ"
      ],
      [
        "]",
        "_"
      ],
      [
        "Ġ",
        ")Ē"
      ],
      [
        "#",
        "7l"
      ],
      [
        "/",
        "5Ē"
      ],
      [
        "89",
        "]^"
      ],
      [
        "B",
        "W"
      ],
      [
        "@",
        "E"
      ],
      [
        "T_@",
        "Ė"
      ],
      [
        "]",
        "R"
      ],
      [
        "-\"",
        "l"
      ],
      [
        "$",
        "WB"
      ],
      [
        ")",
        "9"
      ],
      [
        "/",
        "+l"
      ],
      [
        "Ē",
        "|"
      ],
      [
        "F",
        "U@"
      ],
      [
        "^",
        "IĒ"
      ],
      [
        "*",
        "\""
      ],
      [
        "Ġ",
        "5Ē"
      ],
      [
        "*",
        "?@Đ"
      ],
      [
        "WD",
        "$n"
      ],
      [
        "5",
        "+>p"
      ],
      [
        "7",
        "+l"
      ],
      [
        "E",
        "Ė"
      ],
      [
        "Q",
        "U"
      ],
      [
        "a",
        "'"
      ],
      [
        "a",
        "ĝ"
      ],
      [
        "B",
        "Z"
      ],
      [
        "$",
        "5"
      ],
      [
        "(",
        "!\""
      ],
      [
        "#",
        ";"
      ],
      [
        "$",
        ">"
      ],
      [
        "(",
        ")"
      ],
      [
        "a9",
        "-#Ē"
      ],
      [
        "1",
        "_"
      ],
      [
        "P",
        "C"
      ],
      [
        "S3",
        "+l"
      ],
      [
        "/",
        "%>"
      ],
      [
        "Q",
        "["
      ],
      [
        ")",
        "!"
      ],
      [
        "W",
        "]"
      ],
      [
        "?@",
        "D"
      ],
      [
        "2",
        "KĐ"
      ],
      [
        "TY3",
        "n"
      ]
    ]
  }
}